<pad>	0
<s>	0
</s>	0
<unk>	0
▁—	-0
经济	-1
中国	-2
美国	-3
国家	-4
▁但	-5
20	-6
一个	-7
欧洲	-8
我们	-9
可能	-10
政府	-11
▁这	-12
他们	-13
问题	-14
世界	-15
▁在	-16
可以	-17
全球	-18
增长	-19
政策	-20
这一	-21
政治	-22
已经	-23
没有	-24
欧盟	-25
需要	-26
市场	-27
▁,	-28
▁”	-29
银行	-30
其他	-31
这些	-32
因为	-33
投资	-34
如果	-35
▁。	-36
主义	-37
金融	-38
以及	-39
发展	-40
必须	-41
▁)	-42
危机	-43
社会	-44
国际	-45
▁而	-46
英国	-47
重要	-48
00	-49
大的	-50
应该	-51
影响	-52
领导	-53
201	-54
它们	-55
不是	-56
货币	-57
支持	-58
通过	-59
▁%	-60
因此	-61
地区	-62
美元	-63
事实	-64
所有	-65
方面	-66
19	-67
200	-68
企业	-69
尽管	-70
认为	-71
实现	-72
民主	-73
成为	-74
正在	-75
的是	-76
同时	-77
计划	-78
目标	-79
无法	-80
的人	-81
解决	-82
许多	-83
提供	-84
欧元	-85
包括	-86
总统	-87
现在	-88
部分	-89
这样	-90
能够	-91
导致	-92
进行	-93
增加	-94
贸易	-95
情况	-96
开始	-97
公司	-98
组织	-99
债务	-100
改革	-101
自己	-102
▁如果	-103
就是	-104
如此	-105
收入	-106
自由	-107
的经济	-108
的一	-109
变化	-110
风险	-111
未来	-112
技术	-113
财政	-114
▁但是	-115
事实上	-116
人们	-117
带来	-118
机构	-119
安全	-120
主要	-121
资本	-122
基础	-123
长期	-124
获得	-125
持续	-126
这个	-127
非洲	-128
一些	-129
生产	-130
▁当	-131
工作	-132
发生	-133
领导人	-134
能源	-135
之间	-136
▁“	-137
什么	-138
年的	-139
目前	-140
德国	-141
采取	-142
▁中国	-143
更加	-144
研究	-145
任何	-146
行动	-147
世纪	-148
存在	-149
要求	-150
结果	-151
罗斯	-152
▁事实上	-153
气候	-154
关系	-155
那些	-156
最近	-157
更多	-158
印度	-159
过去	-160
那么	-161
成员	-162
到了	-163
▁此	-164
的国家	-165
特别	-166
性的	-167
稳定	-168
作为	-169
造成	-170
不会	-171
挑战	-172
央行	-173
规模	-174
日本	-175
俄罗斯	-176
DP	-177
成功	-178
甚至	-179
面临	-180
GDP	-181
环境	-182
这种	-183
新的	-184
价格	-185
合作	-186
严重	-187
利益	-188
国内	-189
▁我们	-190
也是	-191
时间	-192
亚洲	-193
战略	-194
以来	-195
联合	-196
比如	-197
决定	-198
人的	-199
中的	-200
亿美元	-201
利率	-202
消费	-203
an	-204
十年	-205
对于	-206
er	-207
继续	-208
欧元区	-209
服务	-210
▁因此	-211
公共	-212
意味	-213
措施	-214
人民	-215
不同	-216
建立	-217
如何	-218
并不	-219
成本	-220
水平	-221
如今	-222
教育	-223
一直	-224
产生	-225
▁此外	-226
力的	-227
特朗	-228
选择	-229
学家	-230
▁美国	-231
系统	-232
意味着	-233
特朗普	-234
机会	-235
提高	-236
只有	-237
一种	-238
作用	-239
国家的	-240
这样的	-241
表明	-242
下降	-243
出现	-244
仍然	-245
威胁	-246
来说	-247
随着	-248
▁不	-249
部门	-250
同样	-251
实施	-252
▁尽管	-253
保护	-254
令人	-255
战争	-256
国的	-257
实际	-258
竞争	-259
历史	-260
并且	-261
希望	-262
原因	-263
行为	-264
最终	-265
on	-266
资产	-267
需求	-268
他们的	-269
使用	-270
联盟	-271
一步	-272
中国的	-273
监管	-274
生活	-275
改变	-276
的问题	-277
拥有	-278
价值	-279
利亚	-280
关键	-281
制度	-282
能力	-283
经济体	-284
来自	-285
方案	-286
移民	-287
协议	-288
劳动	-289
基金	-290
斯坦	-291
降低	-292
共同	-293
项目	-294
出口	-295
管理	-296
特别是	-297
似乎	-298
资源	-299
不可	-300
不能	-301
控制	-302
时候	-303
是否	-304
委员	-305
为了	-306
有效	-307
承诺	-308
资金	-309
▁这一	-310
反对	-311
西方	-312
选举	-313
人口	-314
还是	-315
减少	-316
创造	-317
伊朗	-318
美国的	-319
多数	-320
非常	-321
▁这些	-322
因素	-323
接受	-324
决策	-325
法国	-326
上的	-327
各国	-328
的情况	-329
方式	-330
其中	-331
数据	-332
从而	-333
大部分	-334
▁与	-335
委员会	-336
体系	-337
受到	-338
程度	-339
也许	-340
即使	-341
一样	-342
几乎	-343
冲突	-344
考虑	-345
有可能	-346
确保	-347
超过	-348
保持	-349
是一个	-350
和平	-351
和其他	-352
完全	-353
由于	-354
地方	-355
领域	-356
设施	-357
的最	-358
不断	-359
▁(	-360
不仅	-361
自身	-362
力量	-363
提出	-364
模式	-365
进一步	-366
得到	-367
之一	-368
谈判	-369
的政治	-370
城市	-371
外交	-372
家庭	-373
或者	-374
类似	-375
真正	-376
ar	-377
就业	-378
了一	-379
发达	-380
重新	-381
那样	-382
化的	-383
年代	-384
联合国	-385
制定	-386
贷款	-387
还有	-388
en	-389
虽然	-390
帮助	-391
来越	-392
联储	-393
避免	-394
▁从	-395
越来越	-396
参与	-397
关注	-398
变得	-399
军事	-400
自己的	-401
改善	-402
活动	-403
相反	-404
▁欧洲	-405
而且	-406
推动	-407
▁他们	-408
利用	-409
结构	-410
通胀	-411
而不是	-412
50	-413
破坏	-414
美联储	-415
的新	-416
基本	-417
气候变化	-418
一次	-419
10	-420
in	-421
他的	-422
某些	-423
观点	-424
成员国	-425
应对	-426
者的	-427
▁比如	-428
创新	-429
取得	-430
都是	-431
今天	-432
大量	-433
医疗	-434
巴马	-435
援助	-436
相当	-437
赤字	-438
30	-439
贫困	-440
000	-441
奥巴马	-442
al	-443
好的	-444
支出	-445
过程	-446
刺激	-447
▁对	-448
限制	-449
之间的	-450
平等	-451
相关	-452
基础设施	-453
色列	-454
以色列	-455
数字	-456
做出	-457
表现	-458
责任	-459
方法	-460
根本	-461
规则	-462
具有	-463
的政策	-464
只是	-465
地位	-466
起来	-467
信息	-468
现实	-469
健康	-470
关于	-471
状况	-472
ti	-473
拉克	-474
的大	-475
法律	-476
重要的	-477
传统	-478
首先	-479
预算	-480
会议	-481
危险	-482
经济增长	-483
制造	-484
上升	-485
在于	-486
债券	-487
努力	-488
当前	-489
199	-490
全世界	-491
可能会	-492
上述	-493
民众	-494
知道	-495
新兴	-496
用于	-497
报告	-498
至少	-499
投资者	-500
条件	-501
日益	-502
指出	-503
确定	-504
巨大的	-505
个人	-506
融资	-507
人类	-508
压力	-509
繁荣	-510
结束	-511
▁最	-512
▁当然	-513
的话	-514
发现	-515
的影响	-516
公民	-517
希腊	-518
阿拉	-519
可持续	-520
是在	-521
独立	-522
维持	-523
事件	-524
交易	-525
机制	-526
意大	-527
革命	-528
民族	-529
相对	-530
此同时	-531
平衡	-532
而言	-533
显然	-534
意大利	-535
商业	-536
将会	-537
官员	-538
恐怖	-539
权力	-540
很多	-541
经济学家	-542
2008	-543
土耳	-544
我们的	-545
尤其	-546
or	-547
扩大	-548
土耳其	-549
石油	-550
私人	-551
共和	-552
▁其	-553
▁我	-554
整个	-555
▁他	-556
后的	-557
直接	-558
成了	-559
预测	-560
▁如今	-561
就会	-562
今年	-563
难民	-564
陷入	-565
时代	-566
衰退	-567
武器	-568
识到	-569
劳动力	-570
才能	-571
商品	-572
必要	-573
运动	-574
发展中国	-575
第二	-576
伊斯	-577
进步	-578
依赖	-579
试图	-580
调整	-581
金融危机	-582
标准	-583
阿拉伯	-584
▁有	-585
后果	-586
尼亚	-587
税收	-588
代表	-589
错误	-590
行业	-591
的情况下	-592
开发	-593
发展中国家	-594
爆发	-595
年轻	-596
伊斯兰	-597
不再	-598
科学	-599
之前	-600
进入	-601
外国	-602
工业	-603
排放	-604
巴西	-605
所谓	-606
损失	-607
达到	-608
经济的	-609
而是	-610
失业	-611
年来	-612
大规模	-613
克兰	-614
两个	-615
主权	-616
建设	-617
乌克兰	-618
针对	-619
担心	-620
叙利亚	-621
趋势	-622
明确	-623
核心	-624
根据	-625
问题的	-626
这一点	-627
每年	-628
流动	-629
内部	-630
及其	-631
媒体	-632
更多的	-633
儿童	-634
证明	-635
依然	-636
相信	-637
选民	-638
不可能	-639
产品	-640
十分	-641
文化	-642
现代	-643
伙伴	-644
▁它	-645
一场	-646
中东	-647
储蓄	-648
或许	-649
难以	-650
汇率	-651
,000	-652
唯一	-653
年前	-654
行的	-655
理解	-656
▁与此同时	-657
▁S	-658
去年	-659
极端	-660
迅速	-661
欧洲央行	-662
大幅	-663
的全球	-664
正确	-665
解释	-666
公众	-667
大学	-668
正如	-669
但是	-670
有所	-671
生产率	-672
复杂	-673
阻止	-674
之后	-675
准备	-676
意义	-677
的不	-678
视为	-679
大多数	-680
货币政策	-681
议会	-682
伊拉克	-683
反应	-684
手段	-685
网络	-686
短期	-687
失败	-688
积极	-689
主席	-690
吸引	-691
▁随着	-692
的时候	-693
引发	-694
政府的	-695
欧洲的	-696
加入	-697
更为	-698
期间	-699
卫生	-700
来的	-701
经历	-702
农业	-703
承认	-704
中央	-705
并没有	-706
宣布	-707
不足	-708
埃及	-709
有的	-710
个月	-711
拒绝	-712
广泛	-713
往往	-714
比亚	-715
了一个	-716
联邦	-717
中心	-718
范围	-719
面对	-720
▁相反	-721
▁一	-722
权利	-723
平均	-724
并非	-725
应当	-726
基于	-727
容易	-728
促进	-729
足够	-730
达成	-731
遏制	-732
▁首先	-733
重大	-734
削减	-735
助于	-736
条约	-737
治理	-738
80	-739
无论	-740
理由	-741
一致	-742
复苏	-743
暴力	-744
腐败	-745
过度	-746
不到	-747
讨论	-748
领袖	-749
▁201	-750
然而	-751
最大的	-752
这是	-753
将在	-754
缺乏	-755
es	-756
只能	-757
市场的	-758
▁C	-759
财富	-760
▁虽然	-761
允许	-762
数量	-763
预期	-764
工具	-765
快速	-766
总理	-767
灾难	-768
形成	-769
收益	-770
死亡	-771
贬值	-772
▁:	-773
执行	-774
支付	-775
调查	-776
方面的	-777
下的	-778
代价	-779
布什	-780
显示	-781
第三	-782
人民币	-783
政权	-784
时期	-785
也不	-786
充分	-787
.5	-788
开放	-789
形式	-790
它们的	-791
仅仅	-792
干预	-793
自然	-794
地区的	-795
崛起	-796
愿意	-797
带来的	-798
▁该	-799
失去	-800
ic	-801
▁更	-802
办法	-803
经常	-804
11	-805
欧盟的	-806
高的	-807
协定	-808
巨大	-809
疾病	-810
有利	-811
毫无	-812
班牙	-813
西班牙	-814
加强	-815
通常	-816
伦敦	-817
强调	-818
民粹	-819
联系	-820
集团	-821
共和党	-822
进程	-823
决策者	-824
的信	-825
主义者	-826
好处	-827
富汗	-828
经济学	-829
阿富汗	-830
一项	-831
外部	-832
批评	-833
承担	-834
经验	-835
购买	-836
转型	-837
速度	-838
感到	-839
▁现在	-840
60	-841
反映	-842
的美国	-843
分子	-844
寻求	-845
90	-846
人员	-847
保证	-848
工资	-849
投票	-850
效率	-851
紧缩	-852
负债	-853
鼓励	-854
实际上	-855
有助于	-856
出了	-857
某种	-858
进口	-859
不平等	-860
70	-861
MF	-862
原则	-863
引起	-864
的增长	-865
12	-866
毕竟	-867
理论	-868
集中	-869
发达国家	-870
评估	-871
韩国	-872
知识	-873
赢得	-874
除了	-875
15	-876
正是	-877
转移	-878
巴勒	-879
IMF	-880
有关	-881
燃料	-882
巴勒斯坦	-883
扩张	-884
处于	-885
治疗	-886
角色	-887
的欧洲	-888
部长	-889
的主要	-890
合理	-891
实力	-892
女性	-893
公开	-894
所以	-895
比例	-896
目的	-897
之外	-898
主义的	-899
认识到	-900
潜在	-901
任务	-902
优势	-903
在一	-904
完成	-905
朝鲜	-906
框架	-907
专家	-908
即便	-909
恢复	-910
政策的	-911
el	-912
其他国家	-913
人权	-914
建议	-915
统治	-916
储备	-917
大约	-918
简单	-919
道德	-920
并不是	-921
纽约	-922
所谓的	-923
的目标	-924
供应	-925
▁P	-926
国会	-927
强化	-928
再次	-929
多的	-930
▁、	-931
第一	-932
40	-933
处理	-934
工人	-935
▁欧盟	-936
合法	-937
困难	-938
另一	-939
本身	-940
的支持	-941
成立	-942
▁然而	-943
的那样	-944
退出	-945
另一个	-946
妇女	-947
确实	-948
增长的	-949
政党	-950
阿根	-951
分析	-952
担忧	-953
是因为	-954
全球经济	-955
▁A	-956
全面	-957
转变	-958
阿根廷	-959
百万	-960
肯定	-961
的风险	-962
立场	-963
例如	-964
▁M	-965
▁发	-966
▁就	-967
也会	-968
动荡	-969
表示	-970
防止	-971
策略	-972
也在	-973
公平	-974
巴基	-975
当局	-976
穆斯	-977
群体	-978
的社会	-979
巴基斯坦	-980
曾经	-981
程度上	-982
态度	-983
看到	-984
穆斯林	-985
is	-986
tion	-987
25	-988
塞尔	-989
它的	-990
福利	-991
▁目前	-992
民主党	-993
年中	-994
宗教	-995
消费者	-996
的一个	-997
下跌	-998
两国	-999
▁为了	-1000
▁而且	-1001
例子	-1002
污染	-1003
的方式	-1004
加剧	-1005
普京	-1006
生命	-1007
和经济	-1008
证据	-1009
▁毕竟	-1010
只要	-1011
很大	-1012
崩溃	-1013
统一	-1014
▁由于	-1015
▁这种	-1016
解决方案	-1017
冲击	-1018
脆弱	-1019
为什么	-1020
造成的	-1021
▁的	-1022
人都	-1023
打击	-1024
相比	-1025
国民	-1026
想要	-1027
▁即使	-1028
增长率	-1029
生物	-1030
也将	-1031
秩序	-1032
袭击	-1033
效果	-1034
这场	-1035
2015	-1036
找到	-1037
追求	-1038
▁但在	-1039
美国和	-1040
保守	-1041
削弱	-1042
和政治	-1043
宪法	-1044
可能性	-1045
▁》	-1046
▁发自	-1047
进展	-1048
更大的	-1049
也有	-1050
银行的	-1051
常常	-1052
满足	-1053
左右	-1054
质量	-1055
逐渐	-1056
思想	-1057
习近	-1058
坚持	-1059
贡献	-1060
习近平	-1061
具体	-1062
总体	-1063
it	-1064
体制	-1065
明显	-1066
严重的	-1067
现象	-1068
观察	-1069
▁但这	-1070
▁英国	-1071
将是	-1072
巴黎	-1073
预计	-1074
▁这样	-1075
保险	-1076
远远	-1077
年以来	-1078
东西	-1079
最大	-1080
系列	-1081
▁一个	-1082
年轻人	-1083
的国际	-1084
at	-1085
即将	-1086
情绪	-1087
技能	-1088
激励	-1089
▁它们	-1090
一位	-1091
怀疑	-1092
全球化	-1093
基金组织	-1094
做法	-1095
需要的	-1096
分配	-1097
▁因为	-1098
▁最后	-1099
事情	-1100
前景	-1101
消息	-1102
真实	-1103
▁对于	-1104
强大的	-1105
的世界	-1106
面临着	-1107
万亿美元	-1108
工程	-1109
并未	-1110
方针	-1111
▁许多	-1112
2010	-1113
一体	-1114
宏观	-1115
宽松	-1116
膨胀	-1117
设计	-1118
的关键	-1119
使得	-1120
至关	-1121
其实	-1122
放弃	-1123
普遍	-1124
区域	-1125
提升	-1126
都会	-1127
il	-1128
互联	-1129
值得	-1130
制裁	-1131
天然	-1132
新闻	-1133
障碍	-1134
官方	-1135
注意	-1136
状态	-1137
的原因	-1138
一切	-1139
发挥	-1140
局面	-1141
政客	-1142
的政府	-1143
正式	-1144
美国人	-1145
少数	-1146
的能力	-1147
同意	-1148
恶化	-1149
很难	-1150
组成	-1151
货币基金组织	-1152
滋病	-1153
金融市场	-1154
泡沫	-1155
事务	-1156
共产	-1157
土地	-1158
地球	-1159
共识	-1160
提供了	-1161
真正的	-1162
想象	-1163
执政	-1164
可以在	-1165
艾滋病	-1166
am	-1167
▁要	-1168
国有	-1169
和社会	-1170
18	-1171
投入	-1172
的高	-1173
个国家	-1174
▁特别是	-1175
▁以	-1176
信用	-1177
军队	-1178
各种	-1179
回报	-1180
峰会	-1181
糟糕	-1182
也没有	-1183
的结果	-1184
▁自	-1185
一定	-1186
破产	-1187
地产	-1188
清楚	-1189
道路	-1190
阶级	-1191
▁世界	-1192
▁结果	-1193
分裂	-1194
教训	-1195
精神	-1196
苏联	-1197
角度	-1198
负担	-1199
阶段	-1200
的重要	-1201
了解	-1202
大陆	-1203
方向	-1204
单一	-1205
领土	-1206
主导	-1207
补贴	-1208
规定	-1209
▁R	-1210
大选	-1211
om	-1212
精英	-1213
问题上	-1214
停滞	-1215
而非	-1216
墨西	-1217
波动	-1218
重要的是	-1219
▁B	-1220
墨西哥	-1221
▁据	-1222
不但	-1223
停止	-1224
得多	-1225
立法	-1226
该国	-1227
负责	-1228
▁同样	-1229
▁这是	-1230
2009	-1231
决于	-1232
汽车	-1233
取决于	-1234
re	-1235
为止	-1236
层面	-1237
推进	-1238
适应	-1239
重组	-1240
几十年	-1241
周期	-1242
转向	-1243
人士	-1244
显著	-1245
永远	-1246
在美国	-1247
1.	-1248
争论	-1249
华盛	-1250
华盛顿	-1251
当时	-1252
很快	-1253
替代	-1254
ac	-1255
▁F	-1256
▁也	-1257
出的	-1258
空间	-1259
有效的	-1260
相当于	-1261
产业	-1262
低于	-1263
协调	-1264
否则	-1265
计算	-1266
克里	-1267
符合	-1268
在过去	-1269
利润	-1270
智能	-1271
见的	-1272
类似的	-1273
ro	-1274
攻击	-1275
过程中	-1276
岗位	-1277
种族	-1278
科技	-1279
脱欧	-1280
警告	-1281
食品	-1282
▁正如	-1283
分之一	-1284
所面临	-1285
忽视	-1286
账户	-1287
还要	-1288
▁那么	-1289
民粹主义	-1290
美国总统	-1291
则是	-1292
效应	-1293
互联网	-1294
呼吁	-1295
对其	-1296
更好	-1297
▁所有	-1298
不得	-1299
发布	-1300
意识	-1301
国际社会	-1302
as	-1303
股市	-1304
现有	-1305
失业率	-1306
幸的是	-1307
不管	-1308
重点	-1309
的机会	-1310
信任	-1311
接近	-1312
氧化	-1313
从未	-1314
依靠	-1315
放缓	-1316
制造业	-1317
房地产	-1318
社区	-1319
天然气	-1320
▁为	-1321
团结	-1322
当今	-1323
欢迎	-1324
的挑战	-1325
2013	-1326
最高	-1327
消除	-1328
候选	-1329
充满	-1330
学生	-1331
斗争	-1332
本国	-1333
致力	-1334
这类	-1335
信心	-1336
当地	-1337
高达	-1338
考虑到	-1339
自身的	-1340
ation	-1341
国际货币基金组织	-1342
最后	-1343
来源	-1344
▁包括	-1345
也可以	-1346
▁D	-1347
供给	-1348
就能	-1349
彻底	-1350
摆脱	-1351
股票	-1352
情况下	-1353
多少	-1354
多样	-1355
边境	-1356
▁19	-1357
和美国	-1358
致力于	-1359
2014	-1360
俄国	-1361
化石	-1362
指标	-1363
看来	-1364
而不	-1365
变暖	-1366
变革	-1367
概念	-1368
▁新	-1369
就像	-1370
有人	-1371
机器	-1372
最近的	-1373
▁G	-1374
都在	-1375
除非	-1376
不确定	-1377
上涨	-1378
二十	-1379
估计	-1380
双方	-1381
构建	-1382
而易	-1383
迫使	-1384
之中	-1385
旨在	-1386
尔兰	-1387
盟友	-1388
首相	-1389
的中国	-1390
农民	-1391
独裁	-1392
胜利	-1393
透明	-1394
不同的	-1395
爱尔兰	-1396
未能	-1397
被迫	-1398
采用	-1399
核武器	-1400
尤其是	-1401
孩子	-1402
通货	-1403
一直在	-1404
的发展	-1405
新兴市场	-1406
伤害	-1407
但却	-1408
性和	-1409
100	-1410
▁以及	-1411
差距	-1412
自我	-1413
对手	-1414
有着	-1415
疫苗	-1416
约束	-1417
▁通过	-1418
危机的	-1419
结构性	-1420
化石燃料	-1421
富裕	-1422
▁没有	-1423
的基础	-1424
ol	-1425
总是	-1426
格兰	-1427
者和	-1428
正确的	-1429
在内	-1430
地缘	-1431
并在	-1432
有限	-1433
量的	-1434
竞争力	-1435
学习	-1436
局势	-1437
更大	-1438
ent	-1439
的投资	-1440
以上	-1441
多边	-1442
紧张	-1443
北京	-1444
出现了	-1445
..	-1446
▁I	-1447
债权	-1448
北约	-1449
右翼	-1450
退欧	-1451
2007	-1452
▁T	-1453
一代	-1454
前的	-1455
2012	-1456
发表	-1457
言论	-1458
价值观	-1459
不过	-1460
人和	-1461
寻找	-1462
普通	-1463
萧条	-1464
那就是	-1465
克尔	-1466
法院	-1467
直到	-1468
▁例如	-1469
让我们	-1470
假设	-1471
将其	-1472
正常	-1473
▁政府	-1474
更好的	-1475
开支	-1476
粮食	-1477
这意味着	-1478
事会	-1479
双边	-1480
签署	-1481
身份	-1482
集体	-1483
增加了	-1484
举行	-1485
大大	-1486
提振	-1487
带来了	-1488
可以通过	-1489
et	-1490
前所	-1491
基因	-1492
的反	-1493
监督	-1494
规划	-1495
有利于	-1496
2016	-1497
禁止	-1498
缺少	-1499
▁人们	-1500
发达经济体	-1501
严格	-1502
出来	-1503
缅甸	-1504
那里	-1505
▁其中	-1506
显而易	-1507
保障	-1508
批准	-1509
▁作为	-1510
▁这个	-1511
不仅仅	-1512
流动性	-1513
信贷	-1514
势力	-1515
年后	-1516
当选	-1517
遭到	-1518
长的	-1519
受益	-1520
指责	-1521
程序	-1522
质疑	-1523
and	-1524
▁根据	-1525
世界上	-1526
取得了	-1527
在未来	-1528
这样做	-1529
具备	-1530
增强	-1531
生存	-1532
真的	-1533
称为	-1534
影响力	-1535
的金融	-1536
地缘政治	-1537
取代	-1538
学校	-1539
定义	-1540
是对	-1541
武装	-1542
背景	-1543
遭受	-1544
世界的	-1545
争议	-1546
▁中国的	-1547
为何	-1548
克林	-1549
司法	-1550
平台	-1551
扮演	-1552
是一	-1553
的研究	-1554
后者	-1555
痛苦	-1556
驱动	-1557
疑问	-1558
二氧化	-1559
▁但如果	-1560
中央银行	-1561
模型	-1562
盈余	-1563
竞选	-1564
▁无论	-1565
的同时	-1566
的财政	-1567
的一部分	-1568
▁将	-1569
要么	-1570
说法	-1571
量化	-1572
阻碍	-1573
高于	-1574
▁类似	-1575
导致了	-1576
0.	-1577
外汇	-1578
对话	-1579
差异	-1580
思维	-1581
混乱	-1582
潜力	-1583
外交政策	-1584
全部	-1585
布鲁	-1586
指数	-1587
过于	-1588
都不	-1589
香港	-1590
▁一些	-1591
▁到	-1592
公投	-1593
相互	-1594
跨国	-1595
邻国	-1596
候选人	-1597
得到了	-1598
二氧化碳	-1599
▁是	-1600
内容	-1601
对此	-1602
我的	-1603
有一	-1604
比较	-1605
▁E	-1606
报道	-1607
智利	-1608
激进	-1609
研发	-1610
衡量	-1611
鉴于	-1612
该地区	-1613
2000	-1614
恐怖主义	-1615
民族主义	-1616
通货膨胀	-1617
▁不幸的是	-1618
可持续发展	-1619
三个	-1620
关税	-1621
官僚	-1622
年间	-1623
记录	-1624
至关重要	-1625
二战	-1626
是不	-1627
需的	-1628
一体化	-1629
2011	-1630
所需要的	-1631
21	-1632
当然	-1633
答案	-1634
发生了	-1635
东盟	-1636
再生	-1637
在这	-1638
实验	-1639
沙特	-1640
相同	-1641
马斯	-1642
▁最近	-1643
造成了	-1644
可靠	-1645
强大	-1646
得以	-1647
怎样	-1648
随后	-1649
取消	-1650
大国	-1651
持有	-1652
波兰	-1653
理念	-1654
癌症	-1655
至于	-1656
议院	-1657
不应该	-1658
很可能	-1659
加速	-1660
在其	-1661
美洲	-1662
科学家	-1663
足够的	-1664
所带来的	-1665
启动	-1666
明白	-1667
今天的	-1668
前所未	-1669
的观点	-1670
哥伦	-1671
尔多	-1672
操纵	-1673
自动	-1674
负债表	-1675
哥伦比亚	-1676
两大	-1677
之下	-1678
思考	-1679
有些	-1680
测试	-1681
在欧洲	-1682
展开	-1683
▁不管	-1684
就必须	-1685
资产负债表	-1686
强烈	-1687
统计	-1688
这项	-1689
中国和	-1690
欧洲人	-1691
经历了	-1692
获得了	-1693
▁类似地	-1694
告诉	-1695
足以	-1696
未来的	-1697
2%	-1698
th	-1699
下去	-1700
传染	-1701
太阳	-1702
实体	-1703
很少	-1704
然后	-1705
阿尔	-1706
不得不	-1707
产生的	-1708
的工作	-1709
中国经济	-1710
克服	-1711
分歧	-1712
属于	-1713
杠杆	-1714
维亚	-1715
访问	-1716
走向	-1717
▁全球	-1718
▁同时	-1719
发生的	-1720
我们必须	-1721
德里	-1722
最为	-1723
管制	-1724
绿色	-1725
能否	-1726
马克	-1727
▁只有	-1728
的作用	-1729
的长期	-1730
资本主义	-1731
之路	-1732
农村	-1733
论坛	-1734
退休	-1735
都有	-1736
表现出	-1737
世界银行	-1738
几个	-1739
升级	-1740
才是	-1741
2.	-1742
包容	-1743
犯罪	-1744
结论	-1745
缺陷	-1746
通缩	-1747
许多人	-1748
仍在	-1749
倾向	-1750
日程	-1751
更高	-1752
的前	-1753
毫无疑问	-1754
的可能性	-1755
▁这意味着	-1756
of	-1757
培训	-1758
诸多	-1759
意识到	-1760
凯恩	-1761
加上	-1762
困境	-1763
安排	-1764
理想	-1765
同样的	-1766
美国在	-1767
时刻	-1768
而这	-1769
说明	-1770
和金融	-1771
举措	-1772
乐观	-1773
传播	-1774
低的	-1775
宣称	-1776
温和	-1777
▁其次	-1778
可再生	-1779
▁特朗普	-1780
14	-1781
un	-1782
全民	-1783
成就	-1784
成果	-1785
毫不	-1786
认识	-1787
说服	-1788
与其	-1789
左翼	-1790
变得更加	-1791
ed	-1792
促使	-1793
南非	-1794
各地	-1795
按照	-1796
者们	-1797
▁在这	-1798
专业	-1799
产出	-1800
几年	-1801
团体	-1802
意愿	-1803
担任	-1804
整体	-1805
中国在	-1806
ch	-1807
主张	-1808
人工	-1809
借贷	-1810
实行	-1811
生态	-1812
违约	-1813
了这一	-1814
生活在	-1815
新兴经济体	-1816
▁如	-1817
全国	-1818
失衡	-1819
对抗	-1820
抑制	-1821
捍卫	-1822
深刻	-1823
缓慢	-1824
贫穷	-1825
预防	-1826
的未来	-1827
5%	-1828
尊重	-1829
▁伦敦	-1830
克林顿	-1831
会在	-1832
世界经济	-1833
ul	-1834
万人	-1835
外的	-1836
妥协	-1837
引入	-1838
森林	-1839
特征	-1840
产阶级	-1841
欧盟委员会	-1842
us	-1843
▁《	-1844
刚刚	-1845
喜欢	-1846
巨额	-1847
形势	-1848
感觉	-1849
描述	-1850
现金	-1851
给予	-1852
起到	-1853
198	-1854
▁纽约	-1855
可能是	-1856
的人口	-1857
还没有	-1858
▁200	-1859
量化宽松	-1860
17	-1861
ad	-1862
冷战	-1863
动力	-1864
建筑	-1865
明智	-1866
由此	-1867
行长	-1868
遭遇	-1869
因为它	-1870
政府和	-1871
ur	-1872
幸运	-1873
被视为	-1874
▁尽管如此	-1875
医生	-1876
资格	-1877
ter	-1878
凯恩斯	-1879
危险的	-1880
不可避免	-1881
布鲁塞尔	-1882
自由贸易	-1883
▁即	-1884
之处	-1885
对待	-1886
应用	-1887
早已	-1888
气体	-1889
现状	-1890
议员	-1891
还会	-1892
197	-1893
500	-1894
▁也许	-1895
已经在	-1896
第一个	-1897
▁-	-1898
升值	-1899
强劲	-1900
意见	-1901
部队	-1902
▁并且	-1903
▁而在	-1904
提出的	-1905
服务业	-1906
问题是	-1907
采取行动	-1908
其它	-1909
另外	-1910
构成	-1911
也就是	-1912
稳定的	-1913
错误的	-1914
默克尔	-1915
这些国家	-1916
占据	-1917
支撑	-1918
犹太	-1919
职业	-1920
西洋	-1921
高度	-1922
▁去年	-1923
太阳能	-1924
对中国	-1925
但在	-1926
发动	-1927
句话	-1928
尝试	-1929
恐惧	-1930
灵活	-1931
紧密	-1932
覆盖	-1933
亿美元的	-1934
发电	-1935
定的	-1936
电视	-1937
非法	-1938
ing	-1939
企业的	-1940
成功的	-1941
宏观经济	-1942
▁H	-1943
不用	-1944
互相	-1945
奇怪	-1946
强制	-1947
抵制	-1948
澳大	-1949
表达	-1950
▁除了	-1951
和中国	-1952
的核心	-1953
中产阶级	-1954
人均	-1955
国防	-1956
巩固	-1957
拯救	-1958
用来	-1959
提出了	-1960
的行为	-1961
伙伴关系	-1962
大型	-1963
存款	-1964
帝国	-1965
循环	-1966
惩罚	-1967
留在	-1968
辩论	-1969
边缘	-1970
对美国	-1971
数百万	-1972
澳大利亚	-1973
宣传	-1974
损害	-1975
维护	-1976
▁上述	-1977
是一种	-1978
▁并	-1979
众多	-1980
强硬	-1981
性别	-1982
承受	-1983
空气	-1984
经营	-1985
结合	-1986
之所以	-1987
就可以	-1988
的改革	-1989
进行了	-1990
最重要的	-1991
▁换	-1992
抵押	-1993
矛盾	-1994
大西洋	-1995
更高的	-1996
英国的	-1997
货币联盟	-1998
中国领导人	-1999
加坡	-2000
来看	-2001
为基础	-2002
全球变暖	-2003
不受	-2004
受害	-2005
回到	-2006
回归	-2007
本地	-2008
温室	-2009
这么	-2010
镇压	-2011
▁20	-2012
反映了	-2013
达到了	-2014
任期	-2015
包含	-2016
法庭	-2017
诚然	-2018
语言	-2019
都将	-2020
重建	-2021
与美国	-2022
也无法	-2023
公司的	-2024
金融机构	-2025
很大程度上	-2026
中所	-2027
加拉	-2028
发行	-2029
形态	-2030
海外	-2031
穷人	-2032
紧迫	-2033
人工智能	-2034
不愿	-2035
体现	-2036
党派	-2037
各自	-2038
廉价	-2039
心理	-2040
愤怒	-2041
纳德	-2042
评论	-2043
原因是	-2044
的市场	-2045
一起	-2046
指导	-2047
掌握	-2048
故事	-2049
数十	-2050
看法	-2051
究竟	-2052
脱离	-2053
▁德国	-2054
▁过去	-2055
▁非洲	-2056
在中国	-2057
的数据	-2058
各国政府	-2059
私人部门	-2060
13	-2061
le	-2062
居民	-2063
著名	-2064
贝尔	-2065
▁甚至	-2066
可再生能源	-2067
的经济增长	-2068
付出	-2069
加拿	-2070
协助	-2071
恰恰	-2072
斯特	-2073
条款	-2074
瑞拉	-2075
荷兰	-2076
▁诚然	-2077
历史上	-2078
改革的	-2079
被认为	-2080
▁L	-2081
▁比	-2082
东亚	-2083
借款	-2084
委内	-2085
早期	-2086
比率	-2087
海洋	-2088
瑞典	-2089
电力	-2090
绝对	-2091
▁或者	-2092
有一个	-2093
的战略	-2094
委内瑞拉	-2095
一旦	-2096
准确	-2097
时的	-2098
极为	-2099
特殊	-2100
短缺	-2101
边界	-2102
和投资	-2103
存在的	-2104
一点	-2105
中期	-2106
以后	-2107
出于	-2108
安倍	-2109
客户	-2110
尔德	-2111
所在	-2112
必要的	-2113
的地区	-2114
16	-2115
▁和	-2116
不利	-2117
入侵	-2118
决心	-2119
尚未	-2120
法案	-2121
越南	-2122
过剩	-2123
▁of	-2124
在一起	-2125
还需要	-2126
这个问题	-2127
▁近	-2128
中间	-2129
月的	-2130
渠道	-2131
示威	-2132
突然	-2133
让人	-2134
是如此	-2135
是美国	-2136
的承诺	-2137
的民主	-2138
温室气体	-2139
产量	-2140
减速	-2141
月份	-2142
流入	-2143
约翰	-2144
记者	-2145
低收入	-2146
在全球	-2147
▁实际上	-2148
中国政府	-2149
目前为止	-2150
▁简	-2151
不太	-2152
变成	-2153
年度	-2154
整合	-2155
极大	-2156
清洁	-2157
牺牲	-2158
组合	-2159
结核	-2160
要比	-2161
释放	-2162
▁今天	-2163
▁那些	-2164
合法性	-2165
将继续	-2166
这一目标	-2167
人数	-2168
以前	-2169
公约	-2170
博拉	-2171
参加	-2172
拉丁	-2173
有了	-2174
的对	-2175
药物	-2176
超级	-2177
目前的	-2178
采取了	-2179
领域的	-2180
已经开始	-2181
不够	-2182
召开	-2183
她们	-2184
能在	-2185
▁第三	-2186
埃博拉	-2187
劳动力市场	-2188
业务	-2189
义务	-2190
五年	-2191
扩散	-2192
斯科	-2193
更有	-2194
涉及	-2195
葡萄	-2196
诊断	-2197
▁日本	-2198
几个月	-2199
工业化	-2200
投资于	-2201
的银行	-2202
肯尼亚	-2203
也是如此	-2204
▁K	-2205
标志	-2206
消失	-2207
这次	-2208
▁即便	-2209
尔多安	-2210
的计划	-2211
看起来	-2212
▁在过去	-2213
意识形态	-2214
特别是在	-2215
不要	-2216
产能	-2217
分之	-2218
油价	-2219
煤炭	-2220
要素	-2221
议程	-2222
首次	-2223
的唯一	-2224
2017	-2225
埃尔多安	-2226
一般	-2227
以此	-2228
位于	-2229
名义	-2230
员工	-2231
放在	-2232
高级	-2233
▁其他	-2234
加拿大	-2235
吸引力	-2236
的环境	-2237
所造成的	-2238
ob	-2239
不久	-2240
任命	-2241
修正	-2242
忽略	-2243
生素	-2244
绝非	-2245
实现了	-2246
政治家	-2247
的债务	-2248
的努力	-2249
第一次	-2250
让他们	-2251
te	-2252
作出	-2253
兄弟	-2254
国外	-2255
离开	-2256
紧急	-2257
纳入	-2258
解放	-2259
▁第二	-2260
一系列	-2261
同时也	-2262
所有人	-2263
的需求	-2264
1990	-2265
台湾	-2266
必然	-2267
是个	-2268
经济发展	-2269
公正	-2270
愿景	-2271
操作	-2272
无疑	-2273
法治	-2274
▁今年	-2275
产生了	-2276
的地方	-2277
的技术	-2278
不确定性	-2279
▁上	-2280
下来	-2281
兴趣	-2282
实践	-2283
导弹	-2284
试验	-2285
违反	-2286
注意力	-2287
的变化	-2288
的威胁	-2289
的措施	-2290
的时间	-2291
2020	-2292
ment	-2293
另一方面	-2294
国有企业	-2295
前所未有的	-2296
住房	-2297
季度	-2298
学院	-2299
而在	-2300
超越	-2301
随之	-2302
▁In	-2303
也应该	-2304
的领导	-2305
▁在美国	-2306
我们需要	-2307
▁让	-2308
一年	-2309
回应	-2310
孤立	-2311
抗议	-2312
拉美	-2313
言之	-2314
阵营	-2315
合组织	-2316
收入的	-2317
的方法	-2318
都没有	-2319
拉丁美洲	-2320
oo	-2321
两种	-2322
动物	-2323
哪些	-2324
导向	-2325
迹象	-2326
限于	-2327
的行动	-2328
▁所有这些	-2329
一下	-2330
优先	-2331
出售	-2332
化为	-2333
回答	-2334
恐慌	-2335
无人	-2336
给了	-2337
过渡	-2338
共和国	-2339
哈马斯	-2340
计划的	-2341
交通	-2342
抵消	-2343
比重	-2344
物价	-2345
马里	-2346
麻烦	-2347
共产党	-2348
句话说	-2349
基金会	-2350
理事会	-2351
葡萄牙	-2352
不仅仅是	-2353
基础设施投资	-2354
个体	-2355
以往	-2356
偿还	-2357
尼日	-2358
当中	-2359
最新	-2360
用的	-2361
疲软	-2362
亿欧元	-2363
和服务	-2364
孟加拉	-2365
民主的	-2366
集中在	-2367
一半	-2368
基地	-2369
声称	-2370
想法	-2371
扭曲	-2372
权的	-2373
病毒	-2374
罗马	-2375
获益	-2376
身上	-2377
逆转	-2378
仅仅是	-2379
仍然是	-2380
当前的	-2381
之为	-2382
有时	-2383
警察	-2384
都要	-2385
▁还有	-2386
反对派	-2387
的利益	-2388
目的是	-2389
陷入了	-2390
开发银行	-2391
3%	-2392
ri	-2393
▁N	-2394
做好	-2395
升高	-2396
可信	-2397
否认	-2398
大会	-2399
密集	-2400
指控	-2401
摧毁	-2402
纳税	-2403
至今	-2404
证券	-2405
谨慎	-2406
逻辑	-2407
▁印度	-2408
可能导致	-2409
上去	-2410
严峻	-2411
人道	-2412
困扰	-2413
层次	-2414
推行	-2415
消灭	-2416
相似	-2417
的事实	-2418
的公共	-2419
的生活	-2420
2005	-2421
2006	-2422
不可持续	-2423
民主国家	-2424
经合组织	-2425
美国经济	-2426
抓住	-2427
10%	-2428
一直是	-2429
巴拉克	-2430
段时间	-2431
地方政府	-2432
os	-2433
常规	-2434
感染	-2435
打破	-2436
暴露	-2437
柏林	-2438
此前	-2439
电子	-2440
范围内	-2441
我们可以	-2442
ag	-2443
其在	-2444
化和	-2445
声明	-2446
外围	-2447
安理	-2448
推翻	-2449
浪费	-2450
激烈	-2451
税率	-2452
终于	-2453
西亚	-2454
部署	-2455
利比亚	-2456
宗商品	-2457
抗生素	-2458
外汇储备	-2459
▁你	-2460
不如	-2461
两者	-2462
放松	-2463
无力	-2464
没能	-2465
注于	-2466
流向	-2467
突破	-2468
认真	-2469
财务	-2470
过来	-2471
ers	-2472
▁可以	-2473
发生在	-2474
支持者	-2475
的危险	-2476
的最佳	-2477
2030	-2478
伊斯兰教	-2479
已经成为	-2480
欧盟成员国	-2481
1%	-2482
主流	-2483
功能	-2484
动作	-2485
发起	-2486
各方	-2487
完美	-2488
密切	-2489
巴嫩	-2490
排除	-2491
渴望	-2492
▁显然	-2493
▁问题	-2494
也不会	-2495
也必须	-2496
人们对	-2497
企业家	-2498
机构的	-2499
的决定	-2500
的历史	-2501
的选择	-2502
以及其他	-2503
幸运的是	-2504
之上	-2505
怎么	-2506
情报	-2507
手中	-2508
持久	-2509
期望	-2510
根源	-2511
积累	-2512
第四	-2513
股东	-2514
认定	-2515
的军事	-2516
背景下	-2517
黎巴嫩	-2518
绝大多数	-2519
于是	-2520
保留	-2521
内战	-2522
到的	-2523
固定	-2524
在线	-2525
纷纷	-2526
选项	-2527
art	-2528
东欧	-2529
丧失	-2530
争取	-2531
只会	-2532
患者	-2533
朋友	-2534
经过	-2535
资助	-2536
运作	-2537
还能	-2538
逐步	-2539
不用说	-2540
人们的	-2541
的例子	-2542
2001	-2543
▁可	-2544
了对	-2545
人在	-2546
人物	-2547
仍有	-2548
加以	-2549
律宾	-2550
暂时	-2551
谷歌	-2552
遵守	-2553
for	-2554
▁只要	-2555
好消息	-2556
所需的	-2557
支持的	-2558
的成本	-2559
菲律宾	-2560
许多国家	-2561
不满	-2562
之时	-2563
吸收	-2564
垄断	-2565
式的	-2566
每个	-2567
每天	-2568
深远	-2569
烟草	-2570
科索	-2571
费用	-2572
都能	-2573
问责	-2574
▁不过	-2575
新加坡	-2576
的速度	-2577
科索沃	-2578
英格兰	-2579
ce	-2580
li	-2581
▁;	-2582
▁W	-2583
一条	-2584
以便	-2585
壁垒	-2586
营养	-2587
谴责	-2588
在内的	-2589
将成为	-2590
的能源	-2591
超过了	-2592
部门的	-2593
大宗商品	-2594
建立一个	-2595
全球金融危机	-2596
也能	-2597
契约	-2598
方说	-2599
震惊	-2600
青年	-2601
一部分	-2602
人口的	-2603
受到了	-2604
增长和	-2605
称之为	-2606
尼日利亚	-2607
所面临的	-2608
份额	-2609
失望	-2610
用户	-2611
百分	-2612
获取	-2613
讽刺	-2614
设备	-2615
金砖	-2616
举行的	-2617
合理的	-2618
更好地	-2619
的价格	-2620
的最新	-2621
的自由	-2622
▁换句话说	-2623
亿人	-2624
减轻	-2625
南亚	-2626
卡梅	-2627
变为	-2628
尔的	-2629
年龄	-2630
引导	-2631
是有	-2632
更快	-2633
▁鉴于	-2634
也可能	-2635
低利率	-2636
主权债务	-2637
金融体系	-2638
一家	-2639
例外	-2640
命运	-2641
尼斯	-2642
永久	-2643
获胜	-2644
创造了	-2645
失去了	-2646
成功地	-2647
技术的	-2648
水平的	-2649
的一些	-2650
▁俄罗斯	-2651
中有	-2652
信号	-2653
减税	-2654
动机	-2655
助长	-2656
南部	-2657
对外	-2658
总额	-2659
毒品	-2660
缓解	-2661
艰难	-2662
近期	-2663
安理会	-2664
影响到	-2665
监管者	-2666
经济和	-2667
进行的	-2668
领导的	-2669
▁奥巴马	-2670
经常项目	-2671
非洲国家	-2672
24	-2673
占领	-2674
实质	-2675
更具	-2676
深入	-2677
饱受	-2678
会议上	-2679
唐纳德	-2680
教育和	-2681
的货币	-2682
良好的	-2683
恐怖分子	-2684
低估	-2685
国务	-2686
担保	-2687
深度	-2688
致命	-2689
解体	-2690
▁法国	-2691
债权人	-2692
发展中	-2693
受害者	-2694
的东西	-2695
的后果	-2696
的最大	-2697
的资金	-2698
都必须	-2699
▁美联储	-2700
共产主义	-2701
特朗普的	-2702
长期以来	-2703
但它	-2704
加大	-2705
太平	-2706
小时	-2707
小组	-2708
接触	-2709
林斯	-2710
行政	-2711
防御	-2712
高速	-2713
是为了	-2714
的任务	-2715
的关系	-2716
社会的	-2717
▁这就是	-2718
资产价格	-2719
做的	-2720
制约	-2721
幅度	-2722
意料	-2723
明年	-2724
有多	-2725
活力	-2726
和欧洲	-2727
▁欧元区	-2728
显而易见	-2729
越来越多	-2730
使其	-2731
年底	-2732
形象	-2733
接着	-2734
流行	-2735
移动	-2736
赋予	-2737
途径	-2738
ity	-2739
▁他的	-2740
下降到	-2741
他们在	-2742
大萧条	-2743
所有的	-2744
的人们	-2745
的做法	-2746
的压力	-2747
▁幸运的是	-2748
35	-2749
um	-2750
不了	-2751
以下	-2752
区别	-2753
庇护	-2754
总值	-2755
情形	-2756
某个	-2757
真相	-2758
销售	-2759
太平洋	-2760
很多人	-2761
系统的	-2762
结核病	-2763
降低了	-2764
3.	-2765
不良	-2766
两位	-2767
敏感	-2768
立刻	-2769
...	-2770
专注于	-2771
投资和	-2772
现代化	-2773
能力的	-2774
这一问题	-2775
8%	-2776
下滑	-2777
中共	-2778
兑现	-2779
出生	-2780
可怕	-2781
埃塞	-2782
她的	-2783
并将	-2784
房价	-2785
耐药	-2786
觉得	-2787
负面	-2788
阶层	-2789
一开始	-2790
主义和	-2791
几年来	-2792
有能力	-2793
的信息	-2794
自由化	-2795
还必须	-2796
三分之一	-2797
因为他们	-2798
很有可能	-2799
的重要性	-2800
▁欧洲央行	-2801
7%	-2802
丰富	-2803
产权	-2804
他在	-2805
到来	-2806
古巴	-2807
响应	-2808
急剧	-2809
悲剧	-2810
显得	-2811
普及	-2812
重塑	-2813
▁不仅	-2814
和国际	-2815
在一个	-2816
埃塞俄	-2817
选举中	-2818
ab	-2819
伦理	-2820
共享	-2821
医学	-2822
彼此	-2823
拿出	-2824
日渐	-2825
正义	-2826
点是	-2827
物种	-2828
理性	-2829
私营	-2830
补偿	-2831
还在	-2832
选票	-2833
在经济	-2834
的权利	-2835
的理由	-2836
相关的	-2837
负责任	-2838
美国政府	-2839
埃塞俄比亚	-2840
DG	-2841
一路	-2842
事业	-2843
信誉	-2844
关闭	-2845
复兴	-2846
多元	-2847
定价	-2848
改进	-2849
文章	-2850
考验	-2851
良好	-2852
融入	-2853
还将	-2854
那个	-2855
和安全	-2856
政治上	-2857
的公司	-2858
诺贝尔	-2859
▁但这一	-2860
id	-2861
从事	-2862
保健	-2863
养老	-2864
动员	-2865
战斗	-2866
本质	-2867
疟疾	-2868
萨德	-2869
蔓延	-2870
说是	-2871
运用	-2872
顾问	-2873
▁除非	-2874
不足以	-2875
些时候	-2876
美元的	-2877
1,	-2878
ig	-2879
投机	-2880
纠正	-2881
细胞	-2882
综合	-2883
规范	-2884
距离	-2885
高效	-2886
反过来	-2887
和日本	-2888
的欧盟	-2889
重要性	-2890
2004	-2891
45	-2892
充足	-2893
到底	-2894
匈牙	-2895
强势	-2896
昂贵	-2897
死刑	-2898
要想	-2899
300	-2900
▁而这	-2901
会导致	-2902
债务的	-2903
出现在	-2904
匈牙利	-2905
对欧洲	-2906
时代的	-2907
明确的	-2908
欧洲国家	-2909
一份	-2910
不安	-2911
两年	-2912
严厉	-2913
全力	-2914
出资	-2915
分别	-2916
判断	-2917
加沙	-2918
反而	-2919
施加	-2920
最低	-2921
权威	-2922
殖民	-2923
毁灭	-2924
法官	-2925
注入	-2926
游戏	-2927
群众	-2928
设立	-2929
那种	-2930
陷阱	-2931
首席	-2932
保守党	-2933
很容易	-2934
有效地	-2935
百分点	-2936
的反应	-2937
适用于	-2938
非洲的	-2939
▁简言之	-2940
塞尔维亚	-2941
一名	-2942
何种	-2943
医院	-2944
发明	-2945
抛弃	-2946
文明	-2947
私有	-2948
落后	-2949
补充	-2950
观念	-2951
迫切	-2952
重视	-2953
196	-2954
发展的	-2955
和政府	-2956
和环境	-2957
导致的	-2958
投资的	-2959
ev	-2960
一国	-2961
临时	-2962
乔治	-2963
创业	-2964
合同	-2965
完整	-2966
没人	-2967
物质	-2968
纳粹	-2969
职位	-2970
落实	-2971
应该是	-2972
形成了	-2973
的共同	-2974
的贸易	-2975
银行家	-2976
▁但这些	-2977
▁这样的	-2978
世界其他	-2979
成员国的	-2980
政策制定	-2981
不少	-2982
了其	-2983
但这	-2984
修改	-2985
分享	-2986
多年	-2987
开展	-2988
歧视	-2989
道理	-2990
配置	-2991
.5%	-2992
十年的	-2993
提供的	-2994
的成功	-2995
看上去	-2996
苏格兰	-2997
的大规模	-2998
▁这是一个	-2999
ci	-3000
ve	-3001
▁O	-3002
僵局	-3003
各个	-3004
学术	-3005
披露	-3006
推迟	-3007
是由	-3008
演讲	-3009
约旦	-3010
缺口	-3011
英镑	-3012
起诉	-3013
面前	-3014
领先	-3015
十年中	-3016
卡梅伦	-3017
参与者	-3018
是中国	-3019
的力量	-3020
▁...	-3021
▁199	-3022
财政部长	-3023
显而易见的	-3024
ir	-3025
▁大	-3026
不在	-3027
两次	-3028
人为	-3029
人力	-3030
原本	-3031
声音	-3032
延长	-3033
性质	-3034
成长	-3035
是最	-3036
期待	-3037
步骤	-3038
讲话	-3039
▁亚洲	-3040
可能的	-3041
广泛的	-3042
政府在	-3043
的人民	-3044
目标的	-3045
▁and	-3046
▁考虑到	-3047
人民银行	-3048
这样一个	-3049
越来越多的	-3050
下了	-3051
做到	-3052
大战	-3053
就将	-3054
授权	-3055
教授	-3056
沉重	-3057
泰国	-3058
起了	-3059
▁如此	-3060
不需要	-3061
人认为	-3062
工作的	-3063
有力的	-3064
的态度	-3065
世界各地	-3066
所有这些	-3067
英国退欧	-3068
eb	-3069
▁除	-3070
▁马	-3071
但其	-3072
位置	-3073
南海	-3074
合适	-3075
宣言	-3076
布莱	-3077
滥用	-3078
萎靡	-3079
融合	-3080
评级	-3081
路线	-3082
▁最终	-3083
也不是	-3084
在国际	-3085
多年来	-3086
影响的	-3087
权力的	-3088
的安全	-3089
的水平	-3090
的法律	-3091
研究所	-3092
的问题是	-3093
财政政策	-3094
某种程度上	-3095
一轮	-3096
低碳	-3097
催生	-3098
剑桥	-3099
基督	-3100
工党	-3101
德拉	-3102
本月	-3103
煽动	-3104
生育	-3105
页岩	-3106
倾向于	-3107
在这个	-3108
的一项	-3109
的增加	-3110
转化为	-3111
透明度	-3112
与此同时	-3113
ational	-3114
23	-3115
不上	-3116
享受	-3117
就越	-3118
屠杀	-3119
席位	-3120
才会	-3121
机遇	-3122
清晰	-3123
瑞士	-3124
相应	-3125
类型	-3126
老龄	-3127
▁当时	-3128
▁经济	-3129
今年的	-3130
多样性	-3131
引起了	-3132
相对于	-3133
长时间	-3134
不平等性	-3135
布什政府	-3136
27	-3137
上限	-3138
为例	-3139
为此	-3140
予以	-3141
从来	-3142
冒险	-3143
和解	-3144
填补	-3145
外界	-3146
小的	-3147
本人	-3148
材料	-3149
清算	-3150
社交	-3151
象征	-3152
迄今	-3153
里斯	-3154
▁就像	-3155
庞大的	-3156
生产力	-3157
▁联合国	-3158
的经济体	-3159
▁2008	-3160
▁在这方面	-3161
沙特阿拉伯	-3162
ay	-3163
为其	-3164
主宰	-3165
使命	-3166
信仰	-3167
在此	-3168
无关	-3169
消极	-3170
终结	-3171
运转	-3172
这将	-3173
额外	-3174
首脑	-3175
▁所以	-3176
以至于	-3177
关系的	-3178
的企业	-3179
的所有	-3180
的移民	-3181
的经验	-3182
相对较	-3183
领导层	-3184
▁for	-3185
国家安全	-3186
资本市场	-3187
温室气体排放	-3188
3⁄	-3189
互动	-3190
印象	-3191
引擎	-3192
成熟	-3193
扭转	-3194
提醒	-3195
来讲	-3196
纠纷	-3197
运行	-3198
3⁄4	-3199
▁至少	-3200
十年前	-3201
形式的	-3202
的权力	-3203
的说法	-3204
▁他们的	-3205
一个国家	-3206
所有人都	-3207
▁用	-3208
利息	-3209
反弹	-3210
哈拉	-3211
在不	-3212
坚定	-3213
夏天	-3214
审查	-3215
情景	-3216
拉里	-3217
狭隘	-3218
申请	-3219
签订	-3220
▁在此	-3221
也许是	-3222
价值的	-3223
和全球	-3224
时间里	-3225
背后的	-3226
阿萨德	-3227
风险的	-3228
二十世纪	-3229
和意大利	-3230
证据表明	-3231
在很大程度上	-3232
丑闻	-3233
交流	-3234
估算	-3235
出台	-3236
却是	-3237
弱势	-3238
所得	-3239
推广	-3240
男性	-3241
的确	-3242
看似	-3243
雄心	-3244
与其他	-3245
做出了	-3246
构成了	-3247
的战争	-3248
突尼斯	-3249
▁但我们	-3250
没有什么	-3251
中等	-3252
保罗	-3253
分散	-3254
北欧	-3255
和新	-3256
地利	-3257
姆林	-3258
悲观	-3259
更是	-3260
最初	-3261
监控	-3262
花费	-3263
苏丹	-3264
▁巴西	-3265
中国人	-3266
众议院	-3267
传染病	-3268
十年来	-3269
奥地利	-3270
就需要	-3271
引发了	-3272
机器人	-3273
1980	-3274
保护主义	-3275
生产总值	-3276
自然资源	-3277
这些问题	-3278
预算赤字	-3279
▁毫无疑问	-3280
6%	-3281
op	-3282
▁由	-3283
世俗	-3284
倒闭	-3285
国债	-3286
大多	-3287
工厂	-3288
巨头	-3289
所能	-3290
特定	-3291
艺术	-3292
到来的	-3293
可行的	-3294
各国的	-3295
存在着	-3296
马克龙	-3297
4%	-3298
▁她	-3299
专制	-3300
你们	-3301
偿付	-3302
凸显	-3303
加快	-3304
南欧	-3305
压倒	-3306
否决	-3307
哈佛	-3308
就在	-3309
广告	-3310
所说	-3311
拖累	-3312
敦促	-3313
无可	-3314
最佳	-3315
榜样	-3316
纪念	-3317
面积	-3318
20%	-3319
man	-3320
▁有些	-3321
不再是	-3322
也需要	-3323
协议的	-3324
并不能	-3325
建立了	-3326
得不到	-3327
必须在	-3328
总需求	-3329
的效果	-3330
的现实	-3331
目标是	-3332
获得的	-3333
都可以	-3334
▁华盛顿	-3335
一套	-3336
伟大	-3337
公决	-3338
多么	-3339
家族	-3340
忧虑	-3341
沦为	-3342
电影	-3343
秘密	-3344
训练	-3345
伴随着	-3346
十年代	-3347
只不过	-3348
已成为	-3349
是否会	-3350
银行和	-3351
2050	-3352
更不用说	-3353
并不意味着	-3354
CC	-3355
伯特	-3356
办公	-3357
加州	-3358
可行	-3359
团队	-3360
审慎	-3361
平民	-3362
或是	-3363
提议	-3364
政变	-3365
暴跌	-3366
格鲁	-3367
等待	-3368
走上	-3369
马拉	-3370
与中国	-3371
制度的	-3372
建立在	-3373
战争的	-3374
让美国	-3375
▁也就是	-3376
克里姆林	-3377
几乎没有	-3378
英国脱欧	-3379
财政赤字	-3380
至关重要的	-3381
IP	-3382
oh	-3383
克利	-3384
公布	-3385
减排	-3386
发放	-3387
哈根	-3388
天气	-3389
完善	-3390
干涉	-3391
弱点	-3392
收缩	-3393
民意	-3394
消耗	-3395
电脑	-3396
背后	-3397
药品	-3398
识别	-3399
诱惑	-3400
连续	-3401
也同样	-3402
伊朗的	-3403
利益的	-3404
唯一的	-3405
大学的	-3406
法国的	-3407
组成的	-3408
都需要	-3409
▁大部分	-3410
几十年来	-3411
欧洲议会	-3412
金融稳定	-3413
▁如果我们	-3414
实现这一目标	-3415
28	-3416
便利	-3417
化学	-3418
哥本	-3419
害怕	-3420
方的	-3421
梦想	-3422
武力	-3423
而论	-3424
西藏	-3425
阻挠	-3426
难题	-3427
马上	-3428
400	-3429
ich	-3430
▁国际	-3431
以确保	-3432
再平衡	-3433
几年中	-3434
基本上	-3435
威胁到	-3436
的担忧	-3437
的要求	-3438
的角色	-3439
这两个	-3440
非政府	-3441
2002	-3442
哥本哈根	-3443
因为它们	-3444
这个国家	-3445
两倍	-3446
人群	-3447
先进	-3448
关心	-3449
剥夺	-3450
印尼	-3451
口号	-3452
地说	-3453
巴尔	-3454
很有	-3455
意外	-3456
慈善	-3457
挪威	-3458
深化	-3459
追随	-3460
重重	-3461
鼓吹	-3462
▁要想	-3463
不稳定	-3464
了一项	-3465
了美国	-3466
他们所	-3467
因为这	-3468
将导致	-3469
政策和	-3470
极大的	-3471
的方案	-3472
通胀率	-3473
ra	-3474
不应	-3475
以南	-3476
学者	-3477
崩盘	-3478
性地	-3479
战胜	-3480
按揭	-3481
收集	-3482
极其	-3483
案件	-3484
残酷	-3485
热情	-3486
确认	-3487
立即	-3488
罗姆	-3489
艰巨	-3490
证实	-3491
跨境	-3492
达尔	-3493
零售	-3494
高企	-3495
高昂	-3496
ard	-3497
尽可能	-3498
撒哈拉	-3499
的必要	-3500
角度看	-3501
让人们	-3502
财政部	-3503
转移到	-3504
▁比方说	-3505
▁这也是	-3506
就业机会	-3507
经常账户	-3508
迄今为止	-3509
im	-3510
不论	-3511
全新	-3512
利班	-3513
十九	-3514
华尔	-3515
后来	-3516
处在	-3517
延续	-3518
敌人	-3519
沙尔	-3520
物理	-3521
野心	-3522
霸权	-3523
80%	-3524
ion	-3525
主要是	-3526
但他们	-3527
但它们	-3528
华尔街	-3529
参议院	-3530
可能在	-3531
对全球	-3532
已经被	-3533
带一路	-3534
意义的	-3535
更多地	-3536
最好的	-3537
的一半	-3538
的价值	-3539
阿尔及	-3540
高收入	-3541
▁另一个	-3542
一体化的	-3543
危机爆发	-3544
孟加拉国	-3545
ec	-3546
em	-3547
▁像	-3548
▁平	-3549
丹麦	-3550
动摇	-3551
单位	-3552
四个	-3553
居住	-3554
常态	-3555
果断	-3556
此次	-3557
电网	-3558
秘书	-3559
米尔	-3560
绝望	-3561
认可	-3562
进而	-3563
颠覆	-3564
首要	-3565
ert	-3566
企业和	-3567
冲突的	-3568
无人机	-3569
是什么	-3570
的收入	-3571
碳排放	-3572
组织的	-3573
计算机	-3574
软实力	-3575
过去的	-3576
▁美国的	-3577
伊斯兰国	-3578
结构性改革	-3579
tu	-3580
▁·	-3581
上海	-3582
中美	-3583
出版	-3584
大众	-3585
太多	-3586
度的	-3587
引人	-3588
战后	-3589
效益	-3590
注定	-3591
焦点	-3592
也不能	-3593
伯克利	-3594
和公共	-3595
复杂的	-3596
提高了	-3597
的基本	-3598
的巨大	-3599
还可以	-3600
和西班牙	-3601
的基础上	-3602
年金融危机	-3603
▁总	-3604
严肃	-3605
乃至	-3606
低迷	-3607
便是	-3608
前进	-3609
奥斯	-3610
庞大	-3611
截然	-3612
挽救	-3613
探讨	-3614
掩盖	-3615
更强	-3616
沮丧	-3617
加剧了	-3618
参议员	-3619
另一种	-3620
很大的	-3621
心而论	-3622
深层次	-3623
的最后	-3624
肯定会	-3625
行为的	-3626
可持续性	-3627
国家主席	-3628
之春	-3629
争端	-3630
做得	-3631
制药	-3632
大于	-3633
检查	-3634
民间	-3635
狂热	-3636
而已	-3637
路径	-3638
遗产	-3639
不存在	-3640
之一是	-3641
亚洲的	-3642
其他人	-3643
削弱了	-3644
在今年	-3645
德国的	-3646
行业的	-3647
赢得了	-3648
都无法	-3649
所有国家	-3650
4.	-3651
习惯	-3652
今后	-3653
借助	-3654
免疫	-3655
始于	-3656
年初	-3657
活跃	-3658
的总	-3659
记忆	-3660
这位	-3661
防务	-3662
▁巴黎	-3663
中获益	-3664
再加上	-3665
变成了	-3666
年代的	-3667
清楚地	-3668
的资本	-3669
非常规	-3670
2003	-3671
个百分点	-3672
生态系统	-3673
▁在这样的	-3674
▁问题在于	-3675
克里姆林宫	-3676
不必	-3677
世贸	-3678
其对	-3679
剧烈	-3680
周边	-3681
哪里	-3682
恰当	-3683
手机	-3684
更少	-3685
犹豫	-3686
电话	-3687
病人	-3688
饥饿	-3689
ank	-3690
不愿意	-3691
其中的	-3692
养老金	-3693
办公室	-3694
实施了	-3695
批评者	-3696
的责任	-3697
第二次	-3698
董事会	-3699
任何时候	-3700
社交媒体	-3701
解决办法	-3702
转移支付	-3703
民粹主义者	-3704
▁反	-3705
▁每	-3706
万亿	-3707
不起	-3708
中小	-3709
他人	-3710
何时	-3711
作物	-3712
刑事	-3713
实在	-3714
将军	-3715
幸福	-3716
有望	-3717
极权	-3718
爆炸	-3719
现任	-3720
的年	-3721
运营	-3722
频繁	-3723
飓风	-3724
鼓舞	-3725
1.5	-3726
ill	-3727
了一场	-3728
供应链	-3729
出来的	-3730
塔利班	-3731
引发的	-3732
来自于	-3733
了这一点	-3734
6.	-3735
ge	-3736
中海	-3737
典型	-3738
危害	-3739
可谓	-3740
同一	-3741
太大	-3742
富人	-3743
展示	-3744
提案	-3745
撤军	-3746
智慧	-3747
最好	-3748
源自	-3749
父母	-3750
隔离	-3751
难度	-3752
90%	-3753
依赖于	-3754
出现的	-3755
印度的	-3756
取得的	-3757
基本面	-3758
安全的	-3759
我们在	-3760
最贫困	-3761
甚至是	-3762
的一次	-3763
的代价	-3764
纳税人	-3765
▁尤其是	-3766
亚洲国家	-3767
就业岗位	-3768
的领导人	-3769
金砖国家	-3770
he	-3771
举动	-3772
什叶	-3773
依据	-3774
免费	-3775
公路	-3776
切实	-3777
前任	-3778
动态	-3779
勃勃	-3780
多种	-3781
容忍	-3782
年到	-3783
房屋	-3784
抱怨	-3785
收紧	-3786
无所	-3787
时机	-3788
暗示	-3789
法规	-3790
长达	-3791
飙升	-3792
食物	-3793
▁任何	-3794
保守派	-3795
巴沙尔	-3796
是通过	-3797
犹太人	-3798
的信号	-3799
繁荣的	-3800
解释了	-3801
转变为	-3802
人道主义	-3803
取得成功	-3804
成员资格	-3805
研究表明	-3806
空气污染	-3807
自由民主	-3808
这种情况	-3809
即将到来的	-3810
In	-3811
人才	-3812
借口	-3813
前提	-3814
后代	-3815
审判	-3816
履行	-3817
已有	-3818
案例	-3819
模糊	-3820
的无	-3821
种子	-3822
而被	-3823
股价	-3824
能让	-3825
连接	-3826
逊尼	-3827
30%	-3828
ook	-3829
▁西方	-3830
▁这将	-3831
以上的	-3832
体系的	-3833
只有在	-3834
和技术	-3835
成为了	-3836
收益率	-3837
政治的	-3838
新技术	-3839
环境下	-3840
的一切	-3841
的好处	-3842
积极的	-3843
索马里	-3844
重大的	-3845
1997	-3846
不太可能	-3847
欧洲经济	-3848
欧盟国家	-3849
没有任何	-3850
英国退出	-3851
生产率增长	-3852
阿尔及利亚	-3853
可持续发展目标	-3854
▁"	-3855
之以	-3856
会对	-3857
依旧	-3858
侵略	-3859
偏好	-3860
决议	-3861
切尔	-3862
和对	-3863
均衡	-3864
婴儿	-3865
富有	-3866
授予	-3867
早就	-3868
沃尔	-3869
沟通	-3870
流离	-3871
环保	-3872
缩小	-3873
自愿	-3874
衰落	-3875
较低	-3876
远离	-3877
150	-3878
40%	-3879
▁一旦	-3880
也包括	-3881
也因此	-3882
分之二	-3883
和欧盟	-3884
接受的	-3885
标志着	-3886
模式的	-3887
独立的	-3888
的形式	-3889
行动的	-3890
观察家	-3891
▁在这个	-3892
单一市场	-3893
结构改革	-3894
该地区的	-3895
撒哈拉以南	-3896
欧洲领导人	-3897
阿拉伯之春	-3898
AR	-3899
ep	-3900
之比	-3901
倡议	-3902
各大	-3903
地的	-3904
失所	-3905
威慑	-3906
拉斯	-3907
日的	-3908
的小	-3909
站在	-3910
继承	-3911
表面	-3912
西欧	-3913
迎来	-3914
运输	-3915
间的	-3916
the	-3917
▁这场	-3918
危机中	-3919
即使是	-3920
反映出	-3921
地中海	-3922
来西亚	-3923
极大地	-3924
的事情	-3925
自由的	-3926
富裕国家	-3927
成为一个	-3928
生活水平	-3929
的影响力	-3930
穆巴拉克	-3931
▁另一方面	-3932
▁平心而论	-3933
▁我们需要	-3934
▁经济学家	-3935
发展中国家的	-3936
pe	-3937
一再	-3938
三大	-3939
上了	-3940
之际	-3941
侵犯	-3942
修复	-3943
就要	-3944
换取	-3945
毕业	-3946
焦虑	-3947
等于	-3948
裁决	-3949
里的	-3950
高管	-3951
60%	-3952
什叶派	-3953
以及对	-3954
克斯坦	-3955
创新的	-3956
劳动者	-3957
基督教	-3958
更容易	-3959
绝不是	-3960
老龄化	-3961
能够在	-3962
领导力	-3963
▁以色列	-3964
全民公决	-3965
在这方面	-3966
抵押贷款	-3967
毫不奇怪	-3968
经济衰退	-3969
巴勒斯坦人	-3970
▁那	-3971
中最	-3972
介入	-3973
仍是	-3974
以为	-3975
创建	-3976
力度	-3977
发出	-3978
塞浦	-3979
姆斯	-3980
寿命	-3981
局限	-3982
工会	-3983
干扰	-3984
很高	-3985
律师	-3986
所作	-3987
抵御	-3988
支柱	-3989
数千	-3990
斯基	-3991
海军	-3992
特里	-3993
理应	-3994
盈利	-3995
虚假	-3996
路斯	-3997
身体	-3998
采购	-3999
50%	-4000
▁这就	-4001
一世纪	-4002
价格的	-4003
布莱尔	-4004
比以往	-4005
灾难性	-4006
的机构	-4007
的谈判	-4008
破坏性	-4009
移民的	-4010
第二个	-4011
自动化	-4012
逊尼派	-4013
2018	-4014
发展援助	-4015
塞浦路斯	-4016
早些时候	-4017
流离失所	-4018
9%	-4019
CA	-4020
CE	-4021
st	-4022
▁都	-4023
专门	-4024
同事	-4025
将对	-4026
干旱	-4027
建造	-4028
文件	-4029
漏洞	-4030
独特	-4031
看作	-4032
股权	-4033
萨尔	-4034
课程	-4035
财产	-4036
通讯	-4037
也许会	-4038
变化的	-4039
密集型	-4040
巴尔干	-4041
改变了	-4042
根本性	-4043
死亡率	-4044
的国内	-4045
石油和	-4046
确定性	-4047
耐药性	-4048
脆弱性	-4049
被称为	-4050
这一切	-4051
▁意大利	-4052
三分之二	-4053
世界大战	-4054
公民社会	-4055
尤其是在	-4056
糟糕的是	-4057
这是一个	-4058
▁2015	-4059
到目前为止	-4060
发达国家的	-4061
商品和服务	-4062
非政府组织	-4063
PP	-4064
ow	-4065
▁J	-4066
之势	-4067
会上	-4068
农场	-4069
分离	-4070
别无	-4071
势头	-4072
呈现	-4073
地震	-4074
好像	-4075
妨碍	-4076
姿态	-4077
定居	-4078
巴布	-4079
布雷	-4080
年内	-4081
弥补	-4082
指引	-4083
日子	-4084
有害	-4085
气温	-4086
游说	-4087
著作	-4088
ate	-4089
con	-4090
东南亚	-4091
前总统	-4092
可以从	-4093
和国家	-4094
和教育	-4095
实施的	-4096
应该在	-4097
日本的	-4098
明显的	-4099
本世纪	-4100
来解决	-4101
的一种	-4102
类似于	-4103
货币的	-4104
合作伙伴	-4105
提供资金	-4106
组成部分	-4107
经济复苏	-4108
被认为是	-4109
贸易赤字	-4110
二十一世纪	-4111
气候变化的	-4112
▁两	-4113
一天	-4114
争夺	-4115
交换	-4116
仇恨	-4117
伯南	-4118
入了	-4119
却在	-4120
压制	-4121
只占	-4122
地下	-4123
将让	-4124
开启	-4125
所赐	-4126
攀升	-4127
特点	-4128
白宫	-4129
的中	-4130
知的	-4131
穷国	-4132
舞台	-4133
迈向	-4134
▁于是	-4135
▁否则	-4136
▁或许	-4137
▁的确	-4138
伯南克	-4139
减少了	-4140
和德国	-4141
国家和	-4142
实现的	-4143
我们对	-4144
是如何	-4145
有机会	-4146
的总统	-4147
系统性	-4148
起作用	-4149
tern	-4150
医疗保健	-4151
恐怖袭击	-4152
政府债券	-4153
的过程中	-4154
贸易伙伴	-4155
AI	-4156
▁正	-4157
代理	-4158
会有	-4159
南方	-4160
同情	-4161
周年	-4162
哪个	-4163
地理	-4164
急需	-4165
我在	-4166
时任	-4167
棘手	-4168
缩减	-4169
薪酬	-4170
让步	-4171
议定	-4172
黄金	-4173
ist	-4174
不知道	-4175
使用的	-4176
大量的	-4177
希拉里	-4178
技术和	-4179
有关的	-4180
服务的	-4181
而这些	-4182
项目的	-4183
世贸组织	-4184
俄罗斯的	-4185
告诉我们	-4186
四分之一	-4187
无法获得	-4188
极有可能	-4189
▁无论如何	-4190
英格兰银行	-4191
二氧化碳排放	-4192
22	-4193
CD	-4194
不容	-4195
事故	-4196
仔细	-4197
兰克	-4198
北非	-4199
吉亚	-4200
哪怕	-4201
围绕	-4202
大胆	-4203
废除	-4204
总量	-4205
所需	-4206
纪录	-4207
缓和	-4208
认知	-4209
软件	-4210
过多	-4211
进化	-4212
都被	-4213
600	-4214
ern	-4215
▁具体	-4216
▁由此	-4217
▁相比	-4218
人民的	-4219
国务卿	-4220
就已经	-4221
收入和	-4222
斯科尼	-4223
时间的	-4224
的商业	-4225
的城市	-4226
的时代	-4227
破坏了	-4228
遭到了	-4229
领导者	-4230
高质量	-4231
aceb	-4232
▁在这一	-4233
一带一路	-4234
工作岗位	-4235
紧张局势	-4236
艾滋病毒	-4237
通胀目标	-4238
欧元区国家	-4239
av	-4240
ou	-4241
也就	-4242
加利	-4243
发言	-4244
商界	-4245
坚决	-4246
堪称	-4247
多个	-4248
将被	-4249
小平	-4250
态势	-4251
愿望	-4252
抵抗	-4253
疗法	-4254
的海	-4255
竞赛	-4256
竭尽	-4257
红利	-4258
老年	-4259
误导	-4260
走出	-4261
轻易	-4262
遵循	-4263
预见	-4264
-20	-4265
▁St	-4266
▁直到	-4267
一方面	-4268
不平衡	-4269
和印度	-4270
和商业	-4271
多年的	-4272
控制的	-4273
根本上	-4274
的一份	-4275
的关注	-4276
稳定和	-4277
罗伯特	-4278
议定书	-4279
邓小平	-4280
▁但中国	-4281
一些国家	-4282
世界贸易	-4283
公共部门	-4284
其他地方	-4285
格鲁吉亚	-4286
欧洲大陆	-4287
经济表现	-4288
达成一致	-4289
acebook	-4290
▁被	-4291
▁阿	-4292
下一	-4293
专利	-4294
以外	-4295
克斯	-4296
免受	-4297
减弱	-4298
几周	-4299
分化	-4300
北部	-4301
区分	-4302
叛乱	-4303
圣战	-4304
年将	-4305
征税	-4306
德斯	-4307
慷慨	-4308
无视	-4309
日元	-4310
更低	-4311
洪水	-4312
游行	-4313
真主	-4314
稳步	-4315
自信	-4316
要在	-4317
设定	-4318
赢家	-4319
这条	-4320
适合	-4321
驱逐	-4322
195	-4323
▁必须	-4324
▁金融	-4325
下降了	-4326
他们对	-4327
就业和	-4328
是全球	-4329
独裁者	-4330
的使用	-4331
的信心	-4332
的立场	-4333
而言之	-4334
英国人	-4335
该计划	-4336
▁但如今	-4337
令人震惊	-4338
大规模的	-4339
所产生的	-4340
竞争力的	-4341
绝大部分	-4342
不及	-4343
主题	-4344
会被	-4345
但也	-4346
信念	-4347
再度	-4348
勇气	-4349
千年	-4350
受过	-4351
布里	-4352
带着	-4353
很好	-4354
报纸	-4355
旅游	-4356
最有	-4357
毛泽	-4358
渐进	-4359
满意	-4360
父亲	-4361
眼下	-4362
考察	-4363
议题	-4364
赞成	-4365
逮捕	-4366
铁路	-4367
间接	-4368
限度	-4369
麦肯	-4370
Mar	-4371
▁政治	-4372
下一个	-4373
不管是	-4374
即使在	-4375
在英国	-4376
年开始	-4377
总统的	-4378
成本的	-4379
扩大的	-4380
有必要	-4381
毛泽东	-4382
的选举	-4383
真主党	-4384
第一步	-4385
统治者	-4386
联盟的	-4387
需求的	-4388
▁the	-4389
不断增加	-4390
银行系统	-4391
非洲大陆	-4392
od	-4393
ry	-4394
▁前	-4395
▁或	-4396
上台	-4397
亚投	-4398
传递	-4399
分布	-4400
判决	-4401
反复	-4402
威尔	-4403
它将	-4404
对立	-4405
斯蒂	-4406
民营	-4407
民调	-4408
注重	-4409
流程	-4410
温度	-4411
生涯	-4412
着陆	-4413
细节	-4414
航空	-4415
行列	-4416
计价	-4417
风能	-4418
▁至于	-4419
令人惊	-4420
和发展	-4421
在国内	-4422
外国人	-4423
年代末	-4424
的一大	-4425
的协议	-4426
的比例	-4427
的策略	-4428
相结合	-4429
自由和	-4430
非正式	-4431
一段时间	-4432
公共卫生	-4433
增长模式	-4434
法国总统	-4435
自由主义	-4436
跨大西洋	-4437
的货币政策	-4438
不出	-4439
之急	-4440
亚太	-4441
偏见	-4442
内的	-4443
内阁	-4444
动用	-4445
北方	-4446
奥朗	-4447
将来	-4448
尊严	-4449
强迫	-4450
忘记	-4451
意志	-4452
打造	-4453
激发	-4454
灾害	-4455
监狱	-4456
盖茨	-4457
种植	-4458
继任	-4459
而对	-4460
诞生	-4461
足球	-4462
逃离	-4463
钢铁	-4464
随时	-4465
193	-4466
▁国家	-4467
▁就连	-4468
▁有人	-4469
一些人	-4470
不久前	-4471
中国对	-4472
伟大的	-4473
力量的	-4474
务之急	-4475
奥朗德	-4476
巴布韦	-4477
库尔德	-4478
是可以	-4479
演变为	-4480
的条件	-4481
的监管	-4482
的道路	-4483
至少在	-4484
莫斯科	-4485
该国的	-4486
起到了	-4487
银行业	-4488
令人担忧	-4489
并非如此	-4490
津巴布韦	-4491
竞争对手	-4492
其他国家的	-4493
29	-4494
三倍	-4495
之道	-4496
人心	-4497
份子	-4498
写道	-4499
创立	-4500
务实	-4501
半岛	-4502
卢旺	-4503
古老	-4504
吉尔	-4505
因而	-4506
圣地	-4507
大有	-4508
女孩	-4509
希特	-4510
日常	-4511
死于	-4512
沃斯	-4513
波斯	-4514
的名	-4515
穆尔	-4516
网站	-4517
聪明	-4518
致死	-4519
西斯	-4520
诸如	-4521
贝卢	-4522
远比	-4523
适当	-4524
长远	-4525
▁北京	-4526
▁埃及	-4527
与欧盟	-4528
主要的	-4529
了全球	-4530
健康的	-4531
再一次	-4532
卢旺达	-4533
在世界	-4534
在没有	-4535
就不会	-4536
来实现	-4537
每一个	-4538
的地位	-4539
都应该	-4540
麦肯锡	-4541
市场经济	-4542
的一系列	-4543
金融部门	-4544
不可避免的	-4545
NA	-4546
ah	-4547
ap	-4548
ub	-4549
丝绸	-4550
仍将	-4551
做了	-4552
充斥	-4553
国企	-4554
多大	-4555
它在	-4556
尼古	-4557
归咎	-4558
性恋	-4559
恶性	-4560
抨击	-4561
救助	-4562
无数	-4563
母亲	-4564
沉默	-4565
福祉	-4566
罪行	-4567
能为	-4568
能量	-4569
超出	-4570
趋同	-4571
转换	-4572
▁几乎	-4573
不扩散	-4574
不那么	-4575
但如果	-4576
借款人	-4577
去杠杆	-4578
和能源	-4579
在欧盟	-4580
我们所	-4581
政府对	-4582
显然是	-4583
民主和	-4584
民众的	-4585
水资源	-4586
活动的	-4587
简单的	-4588
结果是	-4589
让它们	-4590
▁但他们	-4591
▁欧洲的	-4592
产能过剩	-4593
实体经济	-4594
快速增长	-4595
我们应该	-4596
贝卢斯科尼	-4597
qu	-4598
便宜	-4599
信服	-4600
关联	-4601
前往	-4602
北美	-4603
反思	-4604
地将	-4605
培养	-4606
强力	-4607
意图	-4608
拉动	-4609
拉夫	-4610
支配	-4611
最多	-4612
有点	-4613
权衡	-4614
来到	-4615
测量	-4616
涵盖	-4617
源于	-4618
设置	-4619
详细	-4620
谋杀	-4621
辞职	-4622
过了	-4623
遥远	-4624
里根	-4625
阵线	-4626
首都	-4627
2.5	-4628
aul	-4629
und	-4630
▁但它	-4631
个世纪	-4632
什么样	-4633
传统的	-4634
似乎是	-4635
公平的	-4636
受欢迎	-4637
变得更	-4638
可靠的	-4639
和文化	-4640
多样化	-4641
教育的	-4642
没有人	-4643
的建议	-4644
短期内	-4645
达沃斯	-4646
近年来	-4647
这些人	-4648
▁土耳其	-4649
▁在中国	-4650
为基础的	-4651
公共债务	-4652
平均水平	-4653
当务之急	-4654
影响力的	-4655
欧元区的	-4656
监管机构	-4657
马来西亚	-4658
伊拉克战争	-4659
撒哈拉以南非洲	-4660
ov	-4661
不前	-4662
东京	-4663
中亚	-4664
件事	-4665
修订	-4666
先例	-4667
出人	-4668
加密	-4669
压迫	-4670
失灵	-4671
左派	-4672
强国	-4673
征收	-4674
扩展	-4675
接收	-4676
提到	-4677
教师	-4678
涌入	-4679
率的	-4680
看看	-4681
着眼	-4682
筛查	-4683
缺失	-4684
芬兰	-4685
长久	-4686
雇主	-4687
高出	-4688
194	-4689
SDG	-4690
▁对此	-4691
▁接着	-4692
▁这项	-4693
会带来	-4694
但我们	-4695
其实是	-4696
印度和	-4697
反对者	-4698
家庭的	-4699
就无法	-4700
归咎于	-4701
很好的	-4702
稳定性	-4703
著名的	-4704
规则的	-4705
都不会	-4706
丝绸之路	-4707
了一系列	-4708
全球化的	-4709
全球贸易	-4710
很可能会	-4711
解决问题	-4712
长期利率	-4713
变得越来越	-4714
阿拉伯世界	-4715
自由贸易协定	-4716
国家主席习近平	-4717
26	-4718
ak	-4719
ot	-4720
▁V	-4721
▁d	-4722
不变	-4723
也被	-4724
作家	-4725
厌恶	-4726
双重	-4727
可见	-4728
名为	-4729
城镇	-4730
大使	-4731
大力	-4732
将从	-4733
尼克	-4734
指望	-4735
提款	-4736
救援	-4737
无限	-4738
有益	-4739
此类	-4740
电厂	-4741
留下	-4742
破裂	-4743
谈论	-4744
辩护	-4745
适用	-4746
预料	-4747
预言	-4748
鲜明	-4749
70%	-4750
omm	-4751
▁伊朗	-4752
▁各国	-4753
了一份	-4754
共同体	-4755
办法是	-4756
和政策	-4757
和英国	-4758
大银行	-4759
安全和	-4760
核计划	-4761
活力的	-4762
的和平	-4763
的报告	-4764
的标准	-4765
需要在	-4766
▁为什么	-4767
▁全世界	-4768
▁在欧洲	-4769
▁大多数	-4770
作为一个	-4771
和俄罗斯	-4772
竭尽全力	-4773
这些措施	-4774
采取措施	-4775
奥巴马政府	-4776
经济增长的	-4777
联合国安理会	-4778
1/	-4779
2,	-4780
EC	-4781
▁年	-4782
一边	-4783
加深	-4784
劳工	-4785
勒庞	-4786
卡特	-4787
大气	-4788
学会	-4789
定期	-4790
尔斯	-4791
弗里	-4792
得出	-4793
或缺	-4794
报复	-4795
拖延	-4796
收购	-4797
效的	-4798
浮动	-4799
稀缺	-4800
纯粹	-4801
维奇	-4802
设法	-4803
诉讼	-4804
辛格	-4805
飞机	-4806
▁希腊	-4807
万美元	-4808
低成本	-4809
充满了	-4810
出口国	-4811
单方面	-4812
和企业	-4813
和资本	-4814
增加到	-4815
失败的	-4816
实力的	-4817
对欧盟	-4818
布里奇	-4819
希特勒	-4820
意义上	-4821
接受了	-4822
更广泛	-4823
最高的	-4824
现在的	-4825
生活的	-4826
的崛起	-4827
秘书长	-4828
程度的	-4829
罗斯福	-4830
美国对	-4831
别无选择	-4832
医疗服务	-4833
发展目标	-4834
好消息是	-4835
直接投资	-4836
▁2010	-4837
▁可以肯定	-4838
之间的关系	-4839
低收入国家	-4840
美国和欧洲	-4841
ia	-4842
不堪	-4843
不惜	-4844
不止	-4845
乌干	-4846
体验	-4847
促成	-4848
兴起	-4849
凝聚	-4850
升息	-4851
含义	-4852
家宝	-4853
展现	-4854
已是	-4855
待遇	-4856
探索	-4857
推高	-4858
提名	-4859
效仿	-4860
既然	-4861
米亚	-4862
虐待	-4863
论文	-4864
这笔	-4865
连任	-4866
风暴	-4867
▁从而	-4868
▁当前	-4869
▁确实	-4870
乌干达	-4871
了中国	-4872
只需要	-4873
国际法	-4874
在某些	-4875
工作者	-4876
是否能	-4877
有什么	-4878
极右翼	-4879
的任何	-4880
的传统	-4881
的因素	-4882
的趋势	-4883
的非洲	-4884
1998	-4885
▁伯克利	-4886
▁我们的	-4887
中央政府	-4888
其他地区	-4889
言论自由	-4890
财政刺激	-4891
▁到目前为止	-4892
▁更糟糕的是	-4893
Facebook	-4894
SA	-4895
▁.	-4896
两党	-4897
亦然	-4898
仅有	-4899
会晤	-4900
刚果	-4901
埔寨	-4902
基准	-4903
引用	-4904
扼杀	-4905
捐助	-4906
掌权	-4907
更广	-4908
有力	-4909
树立	-4910
模仿	-4911
流失	-4912
疫情	-4913
白人	-4914
盟国	-4915
目睹	-4916
管辖	-4917
精力	-4918
维尔	-4919
自主	-4920
重振	-4921
魅力	-4922
700	-4923
est	-4924
▁关于	-4925
下一次	-4926
不仅是	-4927
了欧洲	-4928
共同的	-4929
其经济	-4930
包容性	-4931
可以为	-4932
可以让	-4933
对这些	-4934
峰会上	-4935
普林斯	-4936
柬埔寨	-4937
理论上	-4938
的资产	-4939
的资源	-4940
的领域	-4941
第二大	-4942
警告说	-4943
▁习近平	-4944
不可或缺	-4945
共和党人	-4946
基地组织	-4947
年增长率	-4948
最严重的	-4949
特别提款	-4950
知识产权	-4951
货币贬值	-4952
这一观点	-4953
问题上的	-4954
中国和印度	-4955
总统奥巴马	-4956
的不确定性	-4957
国内生产总值	-4958
年全球金融危机	-4959
ie	-4960
▁坎	-4961
全体	-4962
加泰	-4963
地带	-4964
太过	-4965
好事	-4966
对比	-4967
平价	-4968
数学	-4969
数百	-4970
特区	-4971
特币	-4972
秘鲁	-4973
自杀	-4974
莫迪	-4975
警惕	-4976
身为	-4977
选战	-4978
通往	-4979
金钱	-4980
黑暗	-4981
ati	-4982
ell	-4983
上个月	-4984
上升到	-4985
加利福	-4986
加泰罗	-4987
危机前	-4988
可以用	-4989
就没有	-4990
很重要	-4991
想象的	-4992
温家宝	-4993
穆尔西	-4994
莫过于	-4995
被用于	-4996
西方的	-4997
选择了	-4998
里斯本	-4999
1989	-5000
▁阿根廷	-5001
一个新的	-5002
世界各国	-5003
十九世纪	-5004
强有力的	-5005
普林斯顿	-5006
灾难性的	-5007
社会保障	-5008
这一比例	-5009
▁2014	-5010
加利福尼亚	-5011
加泰罗尼亚	-5012
下台	-5013
两岸	-5014
代人	-5015
充当	-5016
到达	-5017
剩余	-5018
匹配	-5019
半年	-5020
否定	-5021
和不	-5022
子女	-5023
市长	-5024
所为	-5025
排斥	-5026
推出	-5027
明证	-5028
此后	-5029
浪潮	-5030
熟悉	-5031
生的	-5032
等等	-5033
纪律	-5034
组建	-5035
经理	-5036
置于	-5037
蛋白	-5038
这里	-5039
重复	-5040
ohn	-5041
▁on	-5042
▁应该	-5043
▁民主	-5044
也存在	-5045
内部的	-5046
就应该	-5047
性疾病	-5048
挑战的	-5049
政治和	-5050
的新兴	-5051
的概念	-5052
的第一	-5053
证明了	-5054
进入了	-5055
采取的	-5056
▁但尽管	-5057
不是一个	-5058
乌克兰的	-5059
出人意料	-5060
各成员国	-5061
总体而言	-5062
提高利率	-5063
新兴国家	-5064
经济危机	-5065
这一趋势	-5066
▁我们必须	-5067
的解决方案	-5068
75	-5069
东部	-5070
主持	-5071
住宅	-5072
侵蚀	-5073
出色	-5074
协会	-5075
卡塔	-5076
反恐	-5077
士兵	-5078
它是	-5079
差别	-5080
平面	-5081
摩洛	-5082
放任	-5083
敌对	-5084
易事	-5085
最快	-5086
有权	-5087
本来	-5088
耗尽	-5089
行事	-5090
赶超	-5091
转而	-5092
过早	-5093
邀请	-5094
重申	-5095
雇用	-5096
uro	-5097
▁另外	-5098
▁银行	-5099
不相同	-5100
他们将	-5101
令人瞩	-5102
充斥着	-5103
同性恋	-5104
在这一	-5105
年代初	-5106
并最终	-5107
排除在	-5108
提高到	-5109
摩洛哥	-5110
最新的	-5111
本质上	-5112
机构和	-5113
每个人	-5114
购买力	-5115
资本外	-5116
随之而	-5117
页岩气	-5118
马克思	-5119
借贷成本	-5120
更有可能	-5121
清洁能源	-5122
▁2012	-5123
5.	-5124
An	-5125
aw	-5126
ne	-5127
▁第	-5128
▁说	-5129
一道	-5130
京都	-5131
你的	-5132
卡扎	-5133
同等	-5134
吸烟	-5135
大概	-5136
将使	-5137
已久	-5138
折磨	-5139
挣扎	-5140
收支	-5141
数以	-5142
数的	-5143
既得	-5144
是以	-5145
杂志	-5146
激增	-5147
特权	-5148
萨达	-5149
街头	-5150
要让	-5151
误解	-5152
起着	-5153
这两	-5154
附近	-5155
▁按照	-5156
▁正在	-5157
不可少	-5158
了这些	-5159
二十年	-5160
会产生	-5161
储蓄率	-5162
创新和	-5163
占全球	-5164
困难的	-5165
地位的	-5166
城市化	-5167
实验室	-5168
已开始	-5169
所得税	-5170
欧洲和	-5171
此之外	-5172
环境中	-5173
现有的	-5174
的状况	-5175
等国家	-5176
而中国	-5177
▁从这个	-5178
中等收入	-5179
克里米亚	-5180
很快就会	-5181
必不可少	-5182
是正确的	-5183
替代方案	-5184
欧洲银行	-5185
社会主义	-5186
税收收入	-5187
美国国会	-5188
▁坎布里奇	-5189
▁相比之下	-5190
贸易和投资	-5191
石油和天然气	-5192
以使	-5193
以致	-5194
作者	-5195
前沿	-5196
区块	-5197
卡尔	-5198
叙事	-5199
容克	-5200
年里	-5201
异常	-5202
影子	-5203
描绘	-5204
旅行	-5205
期的	-5206
根深	-5207
检测	-5208
汲取	-5209
看待	-5210
算法	-5211
萎缩	-5212
葛兰	-5213
裁军	-5214
邪恶	-5215
面向	-5216
高涨	-5217
▁Ch	-5218
中获得	-5219
亚投行	-5220
全球性	-5221
助长了	-5222
史以来	-5223
合作的	-5224
周期性	-5225
在去年	-5226
引人注	-5227
总量的	-5228
或其他	-5229
普京的	-5230
根本不	-5231
欧元的	-5232
生产商	-5233
生育率	-5234
的人类	-5235
的教育	-5236
的数字	-5237
的错误	-5238
观察者	-5239
角度讲	-5240
让中国	-5241
调整的	-5242
还应该	-5243
▁不管是	-5244
不可能的	-5245
令人信服	-5246
俄罗斯和	-5247
恰恰相反	-5248
是错误的	-5249
有所下降	-5250
极端主义	-5251
难民危机	-5252
▁2013	-5253
金融市场的	-5254
▁更重要的是	-5255
DR	-5256
QE	-5257
ru	-5258
不知	-5259
主教	-5260
企图	-5261
军方	-5262
准入	-5263
准则	-5264
列为	-5265
创始	-5266
及时	-5267
吸取	-5268
和非	-5269
在了	-5270
声誉	-5271
奥运	-5272
学科	-5273
宣扬	-5274
对策	-5275
并为	-5276
开采	-5277
形容	-5278
戈尔	-5279
成年	-5280
指挥	-5281
捷克	-5282
日内	-5283
本应	-5284
每一	-5285
漫长	-5286
用水	-5287
筹集	-5288
管道	-5289
自治	-5290
衍生	-5291
西部	-5292
触发	-5293
输出	-5294
追溯	-5295
lob	-5296
▁布什	-5297
▁未来	-5298
▁某些	-5299
▁香港	-5300
中国将	-5301
依然是	-5302
公司和	-5303
区块链	-5304
它们在	-5305
对经济	-5306
已经有	-5307
年前的	-5308
德国和	-5309
有理由	-5310
比特币	-5311
深刻的	-5312
的讨论	-5313
的进步	-5314
还包括	-5315
远低于	-5316
Paul	-5317
▁The	-5318
世界上最	-5319
和平进程	-5320
国际贸易	-5321
如果没有	-5322
性别平等	-5323
的问题上	-5324
lobal	-5325
▁Part	-5326
特朗普政府	-5327
穆斯林兄弟	-5328
阿拉伯国家	-5329
Al	-5330
ik	-5331
io	-5332
临床	-5333
主动	-5334
也要	-5335
人所	-5336
优秀	-5337
会谈	-5338
但对	-5339
其所	-5340
友好	-5341
听到	-5342
子孙	-5343
巴斯	-5344
广场	-5345
排名	-5346
提前	-5347
朝着	-5348
未必	-5349
核电	-5350
正好	-5351
河流	-5352
海湾	-5353
祖国	-5354
累积	-5355
而又	-5356
范畴	-5357
蒂固	-5358
解除	-5359
转折	-5360
ber	-5361
ens	-5362
▁有时	-5363
之外的	-5364
也开始	-5365
些什么	-5366
公共和	-5367
危机后	-5368
和就业	-5369
和监管	-5370
国集团	-5371
城市的	-5372
增长了	-5373
大幅度	-5374
存在于	-5375
工人的	-5376
德拉吉	-5377
来源于	-5378
林斯潘	-5379
法西斯	-5380
的依赖	-5381
的信任	-5382
的暴力	-5383
的真正	-5384
结束了	-5385
而不能	-5386
贸易战	-5387
这也是	-5388
cial	-5389
▁在这种	-5390
▁而不是	-5391
人力资本	-5392
人均收入	-5393
巴黎气候	-5394
根深蒂固	-5395
格林斯潘	-5396
的支持者	-5397
金融系统	-5398
conom	-5399
不可持续的	-5400
和其他国家	-5401
总理默克尔	-5402
政治领导人	-5403
生物多样性	-5404
▁最重要的是	-5405
7.	-5406
ff	-5407
▁向	-5408
▁斯	-5409
乐部	-5410
也更	-5411
会计	-5412
公债	-5413
其反	-5414
同盟	-5415
和高	-5416
哈尼	-5417
奠定	-5418
宝贵	-5419
审视	-5420
富国	-5421
小心	-5422
当作	-5423
心脏	-5424
必将	-5425
推特	-5426
推移	-5427
揭露	-5428
是将	-5429
曾在	-5430
本土	-5431
架构	-5432
沿海	-5433
目光	-5434
直面	-5435
短短	-5436
约为	-5437
认同	-5438
迁徙	-5439
遗传	-5440
ess	-5441
ine	-5442
ran	-5443
也已经	-5444
二战后	-5445
体现在	-5446
俱乐部	-5447
卡扎菲	-5448
却没有	-5449
在许多	-5450
得多的	-5451
政权的	-5452
最大化	-5453
来应对	-5454
的严重	-5455
的决策	-5456
的创新	-5457
的合作	-5458
的实际	-5459
的教训	-5460
的比重	-5461
的程度	-5462
的英国	-5463
的过程	-5464
的预测	-5465
看到了	-5466
自由派	-5467
资本流	-5468
资源的	-5469
都知道	-5470
1970	-5471
债务重组	-5472
在政治上	-5473
民族国家	-5474
现在已经	-5475
的人来说	-5476
经济政策	-5477
罗马尼亚	-5478
自由市场	-5479
财政紧缩	-5480
资本账户	-5481
▁不仅如此	-5482
▁布鲁塞尔	-5483
欧盟领导人	-5484
的经济学家	-5485
经济和社会	-5486
中国人民银行	-5487
经常项目赤字	-5488
▁Econom	-5489
ES	-5490
oc	-5491
▁U	-5492
一倍	-5493
伴随	-5494
修建	-5495
制衡	-5496
塑料	-5497
大批	-5498
将于	-5499
尤为	-5500
幻想	-5501
指向	-5502
掌控	-5503
教科	-5504
新型	-5505
星期	-5506
极度	-5507
注册	-5508
猜测	-5509
缓冲	-5510
美军	-5511
苦难	-5512
苹果	-5513
轻松	-5514
重启	-5515
附加	-5516
顽固	-5517
高层	-5518
▁人类	-5519
▁新的	-5520
▁自从	-5521
中心的	-5522
决不能	-5523
制定了	-5524
我们将	-5525
新一轮	-5526
正常化	-5527
现实的	-5528
的个人	-5529
的产品	-5530
的前提	-5531
的外交	-5532
而美国	-5533
阻碍了	-5534
鲁哈尼	-5535
1991	-5536
▁但这种	-5537
价格上涨	-5538
停滞不前	-5539
所提出的	-5540
民主制度	-5541
的美国人	-5542
能够获得	-5543
奥巴马总统	-5544
ternational	-5545
一小	-5546
不想	-5547
中欧	-5548
临近	-5549
为时	-5550
他对	-5551
估值	-5552
出席	-5553
对象	-5554
将为	-5555
就连	-5556
很低	-5557
忍受	-5558
恶劣	-5559
悬崖	-5560
打开	-5561
揭示	-5562
撤出	-5563
撤销	-5564
显现	-5565
来为	-5566
果真	-5567
检察	-5568
比赛	-5569
混合	-5570
港口	-5571
瘫痪	-5572
的水	-5573
着手	-5574
蒙受	-5575
边际	-5576
遇到	-5577
顺差	-5578
▁可能	-5579
▁当今	-5580
▁第四	-5581
▁通常	-5582
▁需要	-5583
与欧洲	-5584
严格的	-5585
其自身	-5586
刺激了	-5587
并因此	-5588
很简单	-5589
所有权	-5590
控制权	-5591
数十年	-5592
更低的	-5593
海平面	-5594
给我们	-5595
都不是	-5596
高风险	-5597
债券市场	-5598
做好准备	-5599
其中包括	-5600
军事行动	-5601
子孙后代	-5602
永远不会	-5603
西方国家	-5604
这一事实	-5605
1,000	-5606
▁2011	-5607
不可避免地	-5608
指出的那样	-5609
提供了一个	-5610
政策制定者	-5611
美联储主席	-5612
hi	-5613
不复	-5614
不多	-5615
交给	-5616
低了	-5617
倒退	-5618
前者	-5619
区的	-5620
千万	-5621
呼声	-5622
大家	-5623
奇迹	-5624
就有	-5625
意的	-5626
愚蠢	-5627
成千	-5628
执法	-5629
接种	-5630
改造	-5631
新增	-5632
最小	-5633
期限	-5634
正统	-5635
此举	-5636
燃烧	-5637
禁令	-5638
美中	-5639
舆论	-5640
调节	-5641
里亚	-5642
音乐	-5643
颇具	-5644
CEO	-5645
Rob	-5646
sti	-5647
▁一种	-5648
▁历史	-5649
▁社会	-5650
与伊朗	-5651
付出的	-5652
会发生	-5653
创造出	-5654
可怕的	-5655
完全是	-5656
对那些	-5657
就开始	-5658
局限于	-5659
建立起	-5660
很好地	-5661
忽略了	-5662
所造成	-5663
日内瓦	-5664
的危机	-5665
的激励	-5666
的生产	-5667
的胜利	-5668
行动方	-5669
退休金	-5670
预见的	-5671
▁197	-5672
债务危机	-5673
大幅下降	-5674
委员会的	-5675
成为世界	-5676
既得利益	-5677
根本没有	-5678
的方式来	-5679
联邦政府	-5680
自由流动	-5681
▁好消息是	-5682
京都议定书	-5683
特别提款权	-5684
的全球经济	-5685
65	-5686
▁多	-5687
一词	-5688
业的	-5689
之地	-5690
买入	-5691
从中	-5692
作品	-5693
倡导	-5694
偏离	-5695
储量	-5696
元素	-5697
克鲁	-5698
免于	-5699
其余	-5700
出手	-5701
周围	-5702
和水	-5703
宪章	-5704
小说	-5705
居高	-5706
归根	-5707
得益	-5708
打算	-5709
有过	-5710
杀戮	-5711
炸弹	-5712
的事	-5713
科研	-5714
紧要	-5715
细菌	-5716
维也	-5717
而后	-5718
耐心	-5719
耗费	-5720
职务	-5721
西岸	-5722
评价	-5723
追踪	-5724
错了	-5725
降至	-5726
顶层	-5727
▁主要	-5728
▁但对	-5729
▁是的	-5730
三十年	-5731
世界最	-5732
人死亡	-5733
关注的	-5734
准备好	-5735
又一次	-5736
和货币	-5737
尼克松	-5738
已不再	-5739
巴塞尔	-5740
影响了	-5741
急需的	-5742
持有的	-5743
支出的	-5744
暴力的	-5745
的一致	-5746
的不同	-5747
的人均	-5748
的儿童	-5749
的制度	-5750
的损失	-5751
的时期	-5752
的规则	-5753
的证据	-5754
管理者	-5755
结束后	-5756
能带来	-5757
追随者	-5758
预计将	-5759
1000	-5760
ence	-5761
evel	-5762
▁即使在	-5763
也有可能	-5764
令人不安	-5765
令人失望	-5766
关键作用	-5767
核不扩散	-5768
根本无法	-5769
私营部门	-5770
行动起来	-5771
雄心勃勃	-5772
俄罗斯总统	-5773
政治和经济	-5774
▁中国领导人	-5775
大宗商品价格	-5776
穆斯林兄弟会	-5777
3,	-5778
Ch	-5779
ct	-5780
上市	-5781
不住	-5782
不大	-5783
不振	-5784
为首	-5785
举办	-5786
也为	-5787
也让	-5788
事关	-5789
五个	-5790
会让	-5791
体育	-5792
切地	-5793
前途	-5794
力和	-5795
因于	-5796
外债	-5797
奥尔	-5798
对付	-5799
对称	-5800
慢性	-5801
成绩	-5802
揽子	-5803
携带	-5804
政界	-5805
曝光	-5806
概率	-5807
此外	-5808
用途	-5809
的低	-5810
的那	-5811
科尔	-5812
结底	-5813
节目	-5814
论者	-5815
诚实	-5816
起义	-5817
较为	-5818
通信	-5819
那时	-5820
雇佣	-5821
颇为	-5822
高估	-5823
25%	-5824
iss	-5825
▁事实	-5826
▁关键	-5827
▁实现	-5828
▁然后	-5829
之后的	-5830
去年的	-5831
发展和	-5832
和债务	-5833
归因于	-5834
成千上	-5835
执行官	-5836
最近在	-5837
的不满	-5838
的信贷	-5839
的出口	-5840
的新闻	-5841
的规模	-5842
的需要	-5843
着眼于	-5844
继任者	-5845
维也纳	-5846
谈判的	-5847
▁Pro	-5848
▁乌克兰	-5849
▁但随着	-5850
▁让我们	-5851
世界秩序	-5852
充分利用	-5853
唯一一个	-5854
增长放缓	-5855
将在未来	-5856
归根结底	-5857
所作所为	-5858
最高法院	-5859
极端贫困	-5860
经济活动	-5861
近几年来	-5862
▁世界银行	-5863
很大一部分	-5864
欧洲一体化	-5865
▁本	-5866
之内	-5867
互换	-5868
减缓	-5869
医保	-5870
单独	-5871
合约	-5872
咨询	-5873
四年	-5874
国界	-5875
大坝	-5876
失误	-5877
奖励	-5878
并对	-5879
强加	-5880
强的	-5881
房产	-5882
推向	-5883
收回	-5884
政体	-5885
时报	-5886
是其	-5887
有意	-5888
现行	-5889
突出	-5890
签证	-5891
纽黑	-5892
给出	-5893
置疑	-5894
肥胖	-5895
花了	-5896
范式	-5897
许可	-5898
豁免	-5899
赞助	-5900
跨越	-5901
身处	-5902
轨迹	-5903
隐藏	-5904
250	-5905
son	-5906
▁还是	-5907
不在于	-5908
代表着	-5909
以及在	-5910
信息和	-5911
公众对	-5912
副总统	-5913
反对党	-5914
可以将	-5915
因素是	-5916
在亚洲	-5917
地认为	-5918
定义为	-5919
将带来	-5920
工程师	-5921
恢复力	-5922
惊人的	-5923
接近于	-5924
明智的	-5925
潜在的	-5926
理性的	-5927
的利率	-5928
的科学	-5929
的项目	-5930
私有化	-5931
纽黑文	-5932
萨达姆	-5933
贷款人	-5934
阻止了	-5935
高科技	-5936
▁但美国	-5937
▁马德里	-5938
中小企业	-5939
以色列的	-5940
几乎所有	-5941
加入欧盟	-5942
和叙利亚	-5943
如果我们	-5944
就是一个	-5945
我们已经	-5946
投资者的	-5947
石油价格	-5948
石油公司	-5949
财富基金	-5950
资本流入	-5951
重要作用	-5952
stitu	-5953
Robert	-5954
ex	-5955
▁无	-5956
上加	-5957
不像	-5958
也对	-5959
也门	-5960
他所	-5961
关押	-5962
军备	-5963
分担	-5964
切断	-5965
卷土	-5966
反抗	-5967
反腐	-5968
哈萨	-5969
增速	-5970
大臣	-5971
它所	-5972
就职	-5973
建国	-5974
开端	-5975
彼得	-5976
德曼	-5977
战术	-5978
捕捞	-5979
放大	-5980
海上	-5981
海啸	-5982
灭绝	-5983
生效	-5984
等同	-5985
级别	-5986
论证	-5987
轨道	-5988
远见	-5989
重来	-5990
韦斯	-5991
默德	-5992
▁解决	-5993
▁韩国	-5994
了大量	-5995
了许多	-5996
保持在	-5997
充分的	-5998
国务院	-5999
在最近	-6000
坏消息	-6001
外交官	-6002
大屠杀	-6003
应该被	-6004
感受到	-6005
数字化	-6006
是不是	-6007
是欧洲	-6008
有一些	-6009
有一天	-6010
比其他	-6011
比美国	-6012
注意到	-6013
灵活性	-6014
独立性	-6015
的冲突	-6016
的土地	-6017
的德国	-6018
的数量	-6019
的相关	-6020
的看法	-6021
的税收	-6022
的选民	-6023
研究者	-6024
衍生品	-6025
起来的	-6026
还不到	-6027
John	-6028
▁上个月	-6029
▁新德里	-6030
主导地位	-6031
刺激计划	-6032
前所未有	-6033
半个世纪	-6034
卫生组织	-6035
只不过是	-6036
可能成为	-6037
国内消费	-6038
就有可能	-6039
工业革命	-6040
这方面的	-6041
▁如果中国	-6042
外交政策的	-6043
联系在一起	-6044
▁再	-6045
▁若	-6046
与之	-6047
两极	-6048
但仍	-6049
公私	-6050
凭借	-6051
击败	-6052
加纳	-6053
名单	-6054
告终	-6055
国王	-6056
埃尔	-6057
复制	-6058
宇宙	-6059
实用	-6060
宽容	-6061
州和	-6062
已被	-6063
布拉	-6064
想想	-6065
成的	-6066
所做	-6067
托斯	-6068
机关	-6069
极限	-6070
比尔	-6071
疯狂	-6072
病例	-6073
神话	-6074
等国	-6075
编辑	-6076
羞辱	-6077
英雄	-6078
蓬勃	-6079
视角	-6080
论调	-6081
诽谤	-6082
还不	-6083
迫害	-6084
逃避	-6085
避难	-6086
阴影	-6087
面的	-6088
预示	-6089
iti	-6090
▁欧元	-6091
下来的	-6092
不信任	-6093
从而让	-6094
全新的	-6095
副作用	-6096
加入了	-6097
和平的	-6098
和支持	-6099
和贸易	-6100
和韩国	-6101
在这里	-6102
安全网	-6103
完成了	-6104
已经从	-6105
并且在	-6106
必然会	-6107
感兴趣	-6108
成立了	-6109
政府将	-6110
是对的	-6111
查韦斯	-6112
没什么	-6113
疾病的	-6114
的一步	-6115
的家庭	-6116
的难民	-6117
第三个	-6118
糟糕的	-6119
罕默德	-6120
詹姆斯	-6121
这么做	-6122
这就是	-6123
1979	-6124
1999	-6125
inan	-6126
▁即使是	-6127
▁如果你	-6128
▁这样做	-6129
几十年中	-6130
劳动力的	-6131
双边关系	-6132
发挥作用	-6133
央行行长	-6134
年代以来	-6135
总统大选	-6136
日益增加	-6137
紧缩政策	-6138
这场危机	-6139
金融服务	-6140
urope	-6141
▁2009	-6142
哈萨克斯坦	-6143
进一步恶化	-6144
首席执行官	-6145
美国总统奥巴马	-6146
CT	-6147
og	-6148
▁举	-6149
一无	-6150
三年	-6151
主体	-6152
事物	-6153
众所	-6154
伯格	-6155
克劳	-6156
兰卡	-6157
内贾	-6158
勇敢	-6159
升温	-6160
博弈	-6161
原子	-6162
回顾	-6163
在与	-6164
塑造	-6165
增值	-6166
学派	-6167
封闭	-6168
尽快	-6169
展望	-6170
峰值	-6171
席卷	-6172
当年	-6173
微妙	-6174
意思	-6175
报导	-6176
挂钩	-6177
牛津	-6178
理事	-6179
电池	-6180
直觉	-6181
破灭	-6182
荒谬	-6183
萨科	-6184
适得	-6185
防卫	-6186
阿里	-6187
隐私	-6188
霍乱	-6189
800	-6190
ind	-6191
▁基于	-6192
▁已经	-6193
▁我的	-6194
▁答案	-6195
▁面对	-6196
事件的	-6197
他们会	-6198
但这些	-6199
体现了	-6200
内贾德	-6201
再分配	-6202
历史的	-6203
双方都	-6204
因为在	-6205
在非洲	-6206
复杂性	-6207
很快就	-6208
忽视了	-6209
执政的	-6210
推动了	-6211
措施的	-6212
政府间	-6213
无法在	-6214
是非常	-6215
最重要	-6216
的主权	-6217
的有效	-6218
管理的	-6219
能获得	-6220
表面上	-6221
路线图	-6222
都已经	-6223
面临的	-6224
▁在这些	-6225
▁第二个	-6226
中东地区	-6227
商品价格	-6228
对中国的	-6229
寻求庇护	-6230
所有人的	-6231
政府必须	-6232
民意调查	-6233
生活方式	-6234
自身利益	-6235
试图通过	-6236
诺贝尔奖	-6237
跨太平洋	-6238
适得其反	-6239
2,000	-6240
全球经济的	-6241
的经济发展	-6242
evelop	-6243
9.	-6244
▁几	-6245
不顾	-6246
东道	-6247
中止	-6248
享有	-6249
优惠	-6250
但他	-6251
借钱	-6252
兑换	-6253
加哥	-6254
匮乏	-6255
十亿	-6256
协作	-6257
受访	-6258
后续	-6259
境地	-6260
将给	-6261
小型	-6262
年时	-6263
底层	-6264
当代	-6265
成百	-6266
截止	-6267
手术	-6268
方便	-6269
晋三	-6270
更新	-6271
有用	-6272
杀死	-6273
特色	-6274
症状	-6275
的非	-6276
经受	-6277
老牌	-6278
腺癌	-6279
节约	-6280
警方	-6281
诉求	-6282
谎言	-6283
这让	-6284
道而	-6285
雇员	-6286
▁传统	-6287
▁大约	-6288
▁来自	-6289
不利于	-6290
世界中	-6291
人民党	-6292
代表了	-6293
众所周	-6294
决定了	-6295
卡塔尔	-6296
可以被	-6297
可以说	-6298
同时又	-6299
和世界	-6300
回报率	-6301
将如何	-6302
将这些	-6303
就可能	-6304
往往会	-6305
持续的	-6306
来说是	-6307
痛苦的	-6308
的下降	-6309
的最高	-6310
的部分	-6311
的预期	-6312
相同的	-6313
美国家	-6314
能源和	-6315
脆弱的	-6316
芝加哥	-6317
违反了	-6318
长期的	-6319
2025	-6320
不幸的是	-6321
伊拉克的	-6322
债务负担	-6323
公共服务	-6324
军事力量	-6325
原因在于	-6326
国内政治	-6327
投资银行	-6328
政府官员	-6329
是否能够	-6330
的另一个	-6331
的必要性	-6332
英国政府	-6333
西班牙和	-6334
贸易协定	-6335
凯恩斯主义	-6336
DA	-6337
au	-6338
▁p	-6339
▁很	-6340
不错	-6341
代替	-6342
借此	-6343
光是	-6344
关塔	-6345
内政	-6346
单边	-6347
受损	-6348
各州	-6349
场合	-6350
场所	-6351
基石	-6352
增进	-6353
多德	-6354
够的	-6355
始终	-6356
安置	-6357
定位	-6358
对冲	-6359
小国	-6360
岁的	-6361
平稳	-6362
庆祝	-6363
应付	-6364
接管	-6365
政坛	-6366
新鲜	-6367
无从	-6368
极少	-6369
精确	-6370
英语	-6371
行使	-6372
资料	-6373
迈进	-6374
遗憾	-6375
采纳	-6376
阴谋	-6377
随机	-6378
SDR	-6379
ton	-6380
▁Re	-6381
▁也是	-6382
▁柏林	-6383
▁第一	-6384
▁认为	-6385
▁这次	-6386
▁针对	-6387
一致的	-6388
修正案	-6389
分析师	-6390
及其他	-6391
和地区	-6392
哲学家	-6393
多年前	-6394
奥运会	-6395
定居点	-6396
对这一	-6397
成百上	-6398
文化的	-6399
新常态	-6400
是一位	-6401
最严重	-6402
条件下	-6403
法国人	-6404
生产的	-6405
的争论	-6406
的想法	-6407
的目的	-6408
签署了	-6409
里兰卡	-6410
零利率	-6411
▁今天的	-6412
中国已经	-6413
加密货币	-6414
商业银行	-6415
安倍晋三	-6416
就是明证	-6417
总统选举	-6418
是不够的	-6419
极端分子	-6420
波斯尼亚	-6421
的不平等	-6422
越来越大	-6423
这一数字	-6424
远远不够	-6425
金融中心	-6426
2008—	-6427
时间的推移	-6428
uropean	-6429
比以往任何时候	-6430
▁国际货币基金组织	-6431
OM	-6432
az	-6433
up	-6434
▁中	-6435
上任	-6436
不去	-6437
与会	-6438
为期	-6439
交道	-6440
低下	-6441
内在	-6442
利时	-6443
占比	-6444
号召	-6445
向前	-6446
和谐	-6447
回避	-6448
在他	-6449
在近	-6450
境况	-6451
士顿	-6452
多重	-6453
大致	-6454
天的	-6455
头上	-6456
尖锐	-6457
很小	-6458
抵达	-6459
星球	-6460
机械	-6461
杀害	-6462
根除	-6463
正规	-6464
步伐	-6465
演化	-6466
燃煤	-6467
略有	-6468
眼中	-6469
眼前	-6470
短暂	-6471
职责	-6472
胜出	-6473
若干	-6474
萨斯	-6475
萨默	-6476
补助	-6477
话题	-6478
近乎	-6479
▁在我	-6480
▁普京	-6481
中扮演	-6482
会出现	-6483
凸显出	-6484
占据了	-6485
召开的	-6486
向美国	-6487
和长期	-6488
在我们	-6489
在整个	-6490
基础上	-6491
如果不	-6492
性武器	-6493
时间内	-6494
是不可	-6495
是我们	-6496
是时候	-6497
替代品	-6498
有限的	-6499
权利的	-6500
正确地	-6501
波士顿	-6502
环境的	-6503
的一年	-6504
的原则	-6505
的手段	-6506
的潜在	-6507
美国将	-6508
边缘化	-6509
运动的	-6510
邻国的	-6511
1992	-6512
▁198	-6513
▁Sch	-6514
▁但现在	-6515
任何一个	-6516
卷土重来	-6517
外交部长	-6518
应对措施	-6519
政府应该	-6520
政府支出	-6521
政治制度	-6522
数字技术	-6523
有史以来	-6524
根本性的	-6525
的增长率	-6526
穆罕默德	-6527
能源效率	-6528
英国首相	-6529
这些政策	-6530
需要一个	-6531
领导人的	-6532
▁毫不奇怪	-6533
在某种程度上	-6534
evelopment	-6535
8.	-6536
▁所	-6537
一段	-6538
上演	-6539
不清	-6540
东海	-6541
产物	-6542
会使	-6543
光明	-6544
外来	-6545
大体	-6546
大肆	-6547
将把	-6548
巨量	-6549
平息	-6550
并无	-6551
延伸	-6552
建制	-6553
得更	-6554
情感	-6555
护理	-6556
挤兑	-6557
提及	-6558
放眼	-6559
施压	-6560
无比	-6561
束缚	-6562
核能	-6563
牵涉	-6564
玻利	-6565
生计	-6566
疑虑	-6567
的可	-6568
的更	-6569
稳健	-6570
稳固	-6571
维和	-6572
股本	-6573
草案	-6574
营造	-6575
解读	-6576
贪婪	-6577
贿赂	-6578
配额	-6579
金正	-6580
阅读	-6581
阻力	-6582
难免	-6583
雷曼	-6584
骚乱	-6585
高等	-6586
,20	-6587
TPP	-6588
ang	-6589
ker	-6590
▁一位	-6591
▁但当	-6592
不公平	-6593
不能再	-6594
中国海	-6595
为代价	-6596
低估了	-6597
供应商	-6598
创新性	-6599
势力的	-6600
北朝鲜	-6601
四分之	-6602
回到了	-6603
在印度	-6604
在这些	-6605
对伊朗	-6606
对未来	-6607
强化了	-6608
德国人	-6609
打交道	-6610
无论是	-6611
时期的	-6612
是无法	-6613
有利的	-6614
桑德斯	-6615
的信用	-6616
的其他	-6617
的大幅	-6618
的批评	-6619
的最低	-6620
的理论	-6621
的组织	-6622
的道德	-6623
统一的	-6624
被广泛	-6625
视而不	-6626
解放军	-6627
谈判中	-6628
还不如	-6629
长期看	-6630
▁IMF	-6631
▁结果是	-6632
个成员国	-6633
从根本上	-6634
国家利益	-6635
数百万人	-6636
无关紧要	-6637
更进一步	-6638
都是如此	-6639
领导作用	-6640
万亿美元的	-6641
传染性疾病	-6642
做到这一点	-6643
欧洲理事会	-6644
世界经济论坛	-6645
36	-6646
▁把	-6647
▁谁	-6648
三国	-6649
不当	-6650
事态	-6651
他将	-6652
价还	-6653
停火	-6654
儿子	-6655
兴奋	-6656
制止	-6657
功于	-6658
十八	-6659
半数	-6660
召集	-6661
各类	-6662
哲学	-6663
商人	-6664
固然	-6665
土壤	-6666
在眉	-6667
坚挺	-6668
夺走	-6669
寡头	-6670
小学	-6671
尼黑	-6672
布尔	-6673
年在	-6674
当下	-6675
惊人	-6676
撰写	-6677
数额	-6678
无能	-6679
无需	-6680
机场	-6681
欺诈	-6682
的女	-6683
硅谷	-6684
确立	-6685
经典	-6686
肿瘤	-6687
胜任	-6688
要为	-6689
让他	-6690
让我	-6691
软弱	-6692
进攻	-6693
钓鱼	-6694
雅典	-6695
预警	-6696
风格	-6697
饮食	-6698
马尔	-6699
驾驶	-6700
▁不论	-6701
中东和	-6702
主导的	-6703
从现在	-6704
价还价	-6705
压力的	-6706
反应堆	-6707
发挥了	-6708
受益者	-6709
合适的	-6710
吸引了	-6711
和伊朗	-6712
和消费	-6713
在眉睫	-6714
外围国	-6715
天主教	-6716
媒体的	-6717
就业率	-6718
市场上	-6719
引起的	-6720
归功于	-6721
慕尼黑	-6722
所必须	-6723
扩大了	-6724
承诺的	-6725
接下来	-6726
是一场	-6727
显示出	-6728
正处于	-6729
的前景	-6730
的局面	-6731
该公司	-6732
贸易和	-6733
限制在	-6734
与俄罗斯	-6735
与美国的	-6736
中国正在	-6737
价格稳定	-6738
北爱尔兰	-6739
医疗保险	-6740
单一货币	-6741
南中国海	-6742
历史学家	-6743
取得进展	-6744
和以色列	-6745
和土耳其	-6746
和美国的	-6747
哈佛大学	-6748
如何应对	-6749
对美国的	-6750
将有助于	-6751
就意味着	-6752
并不一定	-6753
成为现实	-6754
所取得的	-6755
技术进步	-6756
持续下去	-6757
无法解决	-6758
研究人员	-6759
绝非易事	-6760
营养不良	-6761
讨价还价	-6762
跨国公司	-6763
这一结果	-6764
这一过程	-6765
迫在眉睫	-6766
迹象表明	-6767
▁在经历了	-6768
更重要的是	-6769
货币政策的	-6770
巴黎气候协定	-6771
欧元区成员国	-6772
stitute	-6773
BR	-6774
▁仅	-6775
▁巴	-6776
一方	-6777
之争	-6778
会给	-6779
但我	-6780
依存	-6781
偿债	-6782
决裂	-6783
卷入	-6784
原教	-6785
司机	-6786
增税	-6787
多次	-6788
家们	-6789
家园	-6790
寻常	-6791
屈服	-6792
巴巴	-6793
必需	-6794
总结	-6795
情愿	-6796
指令	-6797
指定	-6798
提交	-6799
援引	-6800
故意	-6801
整整	-6802
斯达	-6803
无意	-6804
无辜	-6805
是让	-6806
暂停	-6807
有其	-6808
格曼	-6809
歇尔	-6810
民选	-6811
流血	-6812
渗透	-6813
热衷	-6814
甲烷	-6815
界定	-6816
界限	-6817
看着	-6818
篮子	-6819
累计	-6820
纳米	-6821
罪名	-6822
节奏	-6823
血液	-6824
血腥	-6825
赞同	-6826
起点	-6827
ani	-6828
▁与此	-6829
▁其实	-6830
▁央行	-6831
▁此后	-6832
世纪的	-6833
丘吉尔	-6834
之前的	-6835
从而使	-6836
以来的	-6837
保持着	-6838
冲突和	-6839
加起来	-6840
原教旨	-6841
听起来	-6842
国家都	-6843
多元化	-6844
居高不	-6845
年全球	-6846
得益于	-6847
所带来	-6848
排放量	-6849
文化和	-6850
是世界	-6851
流行的	-6852
的人权	-6853
的故事	-6854
的民众	-6855
的结论	-6856
碳定价	-6857
社会和	-6858
获得者	-6859
规模的	-6860
较低的	-6861
达成了	-6862
通过了	-6863
避免的	-6864
金融业	-6865
随后的	-6866
马拉雅	-6867
1945	-6868
▁在一个	-6869
▁在未来	-6870
▁在英国	-6871
▁第一个	-6872
债务水平	-6873
充分就业	-6874
全世界的	-6875
公共财政	-6876
发生变化	-6877
同时也是	-6878
国家层面	-6879
国防部长	-6880
实际利率	-6881
少数民族	-6882
应该成为	-6883
恶性循环	-6884
成千上万	-6885
普遍认为	-6886
更重要的	-6887
消费者的	-6888
私人投资	-6889
股票市场	-6890
银行联盟	-6891
非常重要	-6892
▁2017	-6893
▁国际社会	-6894
▁简而言之	-6895
提高生产率	-6896
这些国家的	-6897
领导人必须	-6898
主权财富基金	-6899
千年发展目标	-6900
外国直接投资	-6901
32	-6902
ey	-6903
iv	-6904
▁9	-6905
一片	-6906
不难	-6907
中介	-6908
主管	-6909
亚努	-6910
亚哥	-6911
克制	-6912
加尔	-6913
加工	-6914
协商	-6915
受困	-6916
各样	-6917
吞并	-6918
命令	-6919
哪种	-6920
在新	-6921
地在	-6922
地点	-6923
处的	-6924
大林	-6925
头条	-6926
奉行	-6927
奏效	-6928
女童	-6929
妻子	-6930
安抚	-6931
定在	-6932
实证	-6933
开创	-6934
引领	-6935
弹性	-6936
忠诚	-6937
房子	-6938
掉了	-6939
文学	-6940
无情	-6941
更能	-6942
有趣	-6943
杀伤	-6944
权益	-6945
植物	-6946
次于	-6947
次级	-6948
欺骗	-6949
水和	-6950
治愈	-6951
清除	-6952
的分	-6953
礼物	-6954
神经	-6955
空中	-6956
罕见	-6957
罪犯	-6958
罪魁	-6959
美好	-6960
群岛	-6961
轰炸	-6962
野蛮	-6963
阐述	-6964
颁布	-6965
鲜有	-6966
了一些	-6967
付出了	-6968
会成为	-6969
但美国	-6970
全面的	-6971
利用其	-6972
前苏联	-6973
发布的	-6974
受访者	-6975
在他们	-6976
大衰退	-6977
大选中	-6978
尔多瓦	-6979
并不会	-6980
建筑业	-6981
恶化的	-6982
摆脱了	-6983
新一代	-6984
是一项	-6985
是完全	-6986
暴力和	-6987
有两个	-6988
有意义	-6989
来进行	-6990
硬着陆	-6991
科维奇	-6992
竞争性	-6993
经通胀	-6994
过去了	-6995
这表明	-6996
追溯到	-6997
限制了	-6998
预示着	-6999
▁Con	-7000
▁多年来	-7001
▁西班牙	-7002
▁这对于	-7003
从一开始	-7004
克鲁格曼	-7005
其中一个	-7006
喜马拉雅	-7007
圣地亚哥	-7008
很少有人	-7009
得到解决	-7010
教育程度	-7011
有足够的	-7012
果真如此	-7013
没有一个	-7014
生物燃料	-7015
的俄罗斯	-7016
的大部分	-7017
的经济学	-7018
视而不见	-7019
财政联盟	-7020
选举结果	-7021
造成严重	-7022
▁2001	-7023
▁2007	-7024
▁Comm	-7025
▁中国政府	-7026
▁我们应该	-7027
▁普林斯顿	-7028
之间的联系	-7029
带来巨大的	-7030
联合国大会	-7031
资本主义的	-7032
▁发展中国家	-7033
发展中经济体	-7034
经常项目盈余	-7035
European	-7036
两项	-7037
亚马	-7038
低效	-7039
倒台	-7040
内需	-7041
冻结	-7042
单纯	-7043
变迁	-7044
坐视	-7045
外资	-7046
如同	-7047
将近	-7048
已然	-7049
年和	-7050
并以	-7051
总裁	-7052
想起	-7053
抗击	-7054
拙劣	-7055
挫折	-7056
搜索	-7057
新生	-7058
早在	-7059
有序	-7060
有毒	-7061
本币	-7062
格局	-7063
氛围	-7064
海地	-7065
深深	-7066
潮流	-7067
热带	-7068
版本	-7069
理工	-7070
瓦解	-7071
的重	-7072
相近	-7073
眼光	-7074
短视	-7075
类的	-7076
系数	-7077
维克	-7078
肯尼	-7079
自豪	-7080
莱斯	-7081
说过	-7082
越大	-7083
较高	-7084
过时	-7085
迎接	-7086
这也	-7087
间谍	-7088
限额	-7089
隐含	-7090
难道	-7091
麻痹	-7092
TIP	-7093
all	-7094
arl	-7095
ort	-7096
▁他说	-7097
▁企业	-7098
▁智利	-7099
▁这对	-7100
▁随后	-7101
了经济	-7102
以外的	-7103
任总统	-7104
会议的	-7105
催生了	-7106
制造商	-7107
同一个	-7108
和创新	-7109
和管理	-7110
国内的	-7111
基因组	-7112
基础的	-7113
将这一	-7114
尼西亚	-7115
弗兰克	-7116
扩大到	-7117
拒绝了	-7118
数据的	-7119
更愿意	-7120
最终将	-7121
有很多	-7122
由美国	-7123
的健康	-7124
的印度	-7125
的解释	-7126
的预算	-7127
移民和	-7128
立法者	-7129
约翰逊	-7130
维持在	-7131
而在于	-7132
腐败的	-7133
该组织	-7134
远高于	-7135
集中于	-7136
1950	-7137
▁许多人	-7138
与以色列	-7139
个国家的	-7140
五分之一	-7141
人的生命	-7142
似乎已经	-7143
全世界最	-7144
吸引力的	-7145
国际合作	-7146
工作时间	-7147
年代中期	-7148
并不是说	-7149
提醒我们	-7150
摩尔多瓦	-7151
政府债务	-7152
政策利率	-7153
留在欧盟	-7154
的领导下	-7155
英国经济	-7156
认为自己	-7157
讽刺的是	-7158
货币操纵	-7159
超级大国	-7160
迫切需要	-7161
雷曼兄弟	-7162
▁气候变化	-7163
▁近几年来	-7164
和基础设施	-7165
收入不平等	-7166
世界其他国家	-7167
▁Development	-7168
37	-7169
Je	-7170
co	-7171
ew	-7172
上下	-7173
伐克	-7174
优质	-7175
使之	-7176
倾销	-7177
偏向	-7178
储存	-7179
储户	-7180
先锋	-7181
公务	-7182
内塔	-7183
出发	-7184
分钟	-7185
初级	-7186
可疑	-7187
各项	-7188
名昭	-7189
回合	-7190
塔赫	-7191
多尔	-7192
大相	-7193
失控	-7194
奢侈	-7195
就此	-7196
市值	-7197
德尔	-7198
急于	-7199
总部	-7200
戏剧	-7201
成分	-7202
批判	-7203
掠夺	-7204
族裔	-7205
明星	-7206
是要	-7207
枯竭	-7208
正当	-7209
派遣	-7210
清洗	-7211
清理	-7212
爱因	-7213
猛烈	-7214
种种	-7215
等到	-7216
约有	-7217
终极	-7218
经费	-7219
绑架	-7220
结算	-7221
股份	-7222
艰苦	-7223
花在	-7224
英里	-7225
裨益	-7226
要好	-7227
赌注	-7228
迈出	-7229
进来	-7230
远未	-7231
迪拜	-7232
门槛	-7233
高乐	-7234
鲁莽	-7235
黎加	-7236
齐聚	-7237
ain	-7238
end	-7239
enn	-7240
▁Al	-7241
▁Co	-7242
▁但我	-7243
▁投资	-7244
▁改革	-7245
▁长期	-7246
世纪初	-7247
个人的	-7248
亚马逊	-7249
价值链	-7250
例子中	-7251
做什么	-7252
决定性	-7253
可能被	-7254
哥斯达	-7255
在哪里	-7256
官员们	-7257
布雷顿	-7258
强调了	-7259
找到了	-7260
承诺要	-7261
推动力	-7262
放弃了	-7263
政客们	-7264
有任何	-7265
来支持	-7266
检察官	-7267
比利时	-7268
法塔赫	-7269
洛伐克	-7270
演讲中	-7271
漫长的	-7272
爆发的	-7273
的反对	-7274
的女性	-7275
的妇女	-7276
的意愿	-7277
的感觉	-7278
的持续	-7279
的文化	-7280
的气候	-7281
等同于	-7282
经济中	-7283
致命的	-7284
贸易的	-7285
还要多	-7286
额外的	-7287
马克里	-7288
▁一方面	-7289
▁叙利亚	-7290
▁在许多	-7291
▁该计划	-7292
仍然存在	-7293
保险公司	-7294
公共投资	-7295
出口导向	-7296
可以获得	-7297
大幅增加	-7298
奥巴马的	-7299
将进一步	-7300
尤其如此	-7301
工作人员	-7302
弗里德曼	-7303
所引发的	-7304
才能实现	-7305
斯里兰卡	-7306
更深层次	-7307
死亡人数	-7308
爱因斯坦	-7309
的支持率	-7310
经济学的	-7311
联系起来	-7312
▁但这样的	-7313
▁具体而言	-7314
哥斯达黎加	-7315
恐怖主义的	-7316
数十亿美元	-7317
欧洲央行的	-7318
民族主义者	-7319
民粹主义的	-7320
的基础设施	-7321
经济和政治	-7322
麦肯锡全球	-7323
合作伙伴关系	-7324
DI	-7325
与此	-7326
世卫	-7327
东北	-7328
之久	-7329
仅为	-7330
他信	-7331
伤亡	-7332
何处	-7333
傲慢	-7334
减免	-7335
包装	-7336
去了	-7337
可用	-7338
听证	-7339
回忆	-7340
学的	-7341
安德	-7342
小儿	-7343
州的	-7344
径庭	-7345
微弱	-7346
悖论	-7347
想到	-7348
愈演	-7349
愈烈	-7350
感谢	-7351
战场	-7352
拨款	-7353
携手	-7354
撤离	-7355
收到	-7356
收获	-7357
核武	-7358
正面	-7359
治国	-7360
洞见	-7361
海峡	-7362
游击	-7363
猩猩	-7364
生意	-7365
百姓	-7366
缴纳	-7367
罚款	-7368
聚焦	-7369
药方	-7370
输家	-7371
过高	-7372
邮件	-7373
霍尔	-7374
顶尖	-7375
顶峰	-7376
顺利	-7377
额度	-7378
首位	-7379
15%	-7380
▁Le	-7381
▁就在	-7382
▁很多	-7383
▁能源	-7384
▁这也	-7385
上一次	-7386
不具备	-7387
不清楚	-7388
与西方	-7389
丰富的	-7390
也正在	-7391
使他们	-7392
受益于	-7393
可能对	-7394
和保护	-7395
和实施	-7396
在那里	-7397
大国的	-7398
小布什	-7399
居住在	-7400
年美国	-7401
戴高乐	-7402
所做的	-7403
找不到	-7404
把自己	-7405
改革和	-7406
方法是	-7407
标准的	-7408
欧洲在	-7409
理解的	-7410
生产者	-7411
的保护	-7412
的存在	-7413
的恐惧	-7414
的贷款	-7415
监管和	-7416
第一大	-7417
等问题	-7418
臭名昭	-7419
英国将	-7420
落后于	-7421
表现得	-7422
规则和	-7423
货币和	-7424
资产的	-7425
钓鱼岛	-7426
麻痹症	-7427
▁Res	-7428
▁但即便	-7429
▁决策者	-7430
▁如果不	-7431
不受欢迎	-7432
也是一个	-7433
令人沮丧	-7434
债权人的	-7435
全球气候	-7436
军事干预	-7437
去杠杆化	-7438
可以帮助	-7439
国民阵线	-7440
在阿富汗	-7441
增长最快	-7442
大相径庭	-7443
少数群体	-7444
愈演愈烈	-7445
成为全球	-7446
所提供的	-7447
有所不同	-7448
玻利维亚	-7449
讽刺意味	-7450
财政状况	-7451
资本流动	-7452
还有其他	-7453
,2015	-7454
亚努科维奇	-7455
发展中世界	-7456
大西洋两岸	-7457
布雷顿森林	-7458
方面取得了	-7459
最重要的是	-7460
部分是因为	-7461
ission	-7462
▁欧盟委员会	-7463
世界其他地区	-7464
基础设施建设	-7465
▁在这种情况下	-7466
▁Economic	-7467
cy	-7468
ht	-7469
▁1	-7470
▁t	-7471
▁人	-7472
一大	-7473
下行	-7474
不动	-7475
不已	-7476
丧生	-7477
中学	-7478
事项	-7479
亚于	-7480
他是	-7481
住了	-7482
假定	-7483
别人	-7484
到期	-7485
动乱	-7486
原理	-7487
反犹	-7488
可观	-7489
启发	-7490
和大	-7491
商务	-7492
四大	-7493
回事	-7494
垃圾	-7495
太少	-7496
夸大	-7497
奋斗	-7498
尊敬	-7499
就被	-7500
崩离	-7501
布朗	-7502
年长	-7503
彰显	-7504
微观	-7505
截至	-7506
托克	-7507
挑衅	-7508
据说	-7509
接纳	-7510
撒冷	-7511
日趋	-7512
更像	-7513
标题	-7514
格尔	-7515
检验	-7516
欧美	-7517
海域	-7518
灌溉	-7519
理所	-7520
留给	-7521
直升	-7522
真理	-7523
知名	-7524
竭力	-7525
简直	-7526
结局	-7527
耶伦	-7528
耶路	-7529
自贸	-7530
花钱	-7531
让它	-7532
记住	-7533
货物	-7534
违背	-7535
逆差	-7536
邻居	-7537
部落	-7538
重回	-7539
饥荒	-7540
驱使	-7541
鸦片	-7542
0.5	-7543
▁Ag	-7544
▁Un	-7545
▁in	-7546
▁他在	-7547
▁市场	-7548
一定会	-7549
下跌了	-7550
东道国	-7551
仍然在	-7552
会造成	-7553
俄国的	-7554
充足的	-7555
关键性	-7556
发生过	-7557
和他的	-7558
和增长	-7559
和平与	-7560
和民主	-7561
在一定	-7562
女性的	-7563
威胁要	-7564
宏大的	-7565
对我们	-7566
崩离析	-7567
得到的	-7568
所有者	-7569
撒切尔	-7570
改善了	-7571
斯大林	-7572
有多少	-7573
服务于	-7574
比方说	-7575
毕业生	-7576
永久性	-7577
温和派	-7578
温和的	-7579
的公民	-7580
的失败	-7581
的学生	-7582
的斗争	-7583
的生命	-7584
的系统	-7585
的联盟	-7586
的障碍	-7587
监管的	-7588
范围的	-7589
萨默斯	-7590
要求的	-7591
转折点	-7592
辅之以	-7593
这不是	-7594
这可能	-7595
通常是	-7596
阿尔巴	-7597
1994	-7598
▁欧盟的	-7599
▁这两个	-7600
不良贷款	-7601
专业人士	-7602
也不可能	-7603
全球性的	-7604
共同利益	-7605
农村地区	-7606
压力测试	-7607
另外一个	-7608
可能需要	-7609
国际金融	-7610
帝国主义	-7611
当选总统	-7612
我们正在	-7613
摆脱贫困	-7614
政治联盟	-7615
欧盟预算	-7616
没有理由	-7617
环境保护	-7618
甚至可以	-7619
相当大的	-7620
研究中心	-7621
经济学奖	-7622
耶路撒冷	-7623
联合国的	-7624
臭名昭著	-7625
过度负债	-7626
还有一个	-7627
3,000	-7628
ility	-7629
▁2016	-7630
▁也就是说	-7631
▁发自伦敦	-7632
▁如果没有	-7633
▁更不用说	-7634
外国投资者	-7635
小儿麻痹症	-7636
意味着什么	-7637
的增长模式	-7638
随之而来的	-7639
高收入国家	-7640
▁Party	-7641
欧盟成员资格	-7642
德国总理默克尔	-7643
BM	-7644
PI	-7645
Th	-7646
ut	-7647
▁受	-7648
一件	-7649
一支	-7650
不合	-7651
乌托	-7652
仅占	-7653
今日	-7654
克森	-7655
冒着	-7656
则在	-7657
初衷	-7658
利于	-7659
十二	-7660
发射	-7661
史上	-7662
名字	-7663
噩梦	-7664
圣诞	-7665
在对	-7666
多久	-7667
大部	-7668
夸张	-7669
娱乐	-7670
徒劳	-7671
得上	-7672
徘徊	-7673
心态	-7674
招募	-7675
挑起	-7676
摩擦	-7677
时所	-7678
未知	-7679
未经	-7680
法的	-7681
波罗	-7682
浓缩	-7683
电动	-7684
监禁	-7685
看出	-7686
空白	-7687
简化	-7688
米兰	-7689
纺织	-7690
聚集	-7691
肆虐	-7692
自上	-7693
花旗	-7694
董事	-7695
薄弱	-7696
被人	-7697
规避	-7698
论点	-7699
较少	-7700
重蹈	-7701
陷于	-7702
麻省	-7703
黑客	-7704
ord	-7705
ric	-7706
ron	-7707
ust	-7708
▁不久	-7709
一无二	-7710
一样的	-7711
世界杯	-7712
两国的	-7713
为自己	-7714
主要由	-7715
乌托邦	-7716
他们也	-7717
任何人	-7718
债券的	-7719
具体的	-7720
准备金	-7721
几乎是	-7722
几年的	-7723
创纪录	-7724
可以以	-7725
和法国	-7726
在政治	-7727
太多的	-7728
将决定	-7729
尼系数	-7730
局限性	-7731
希望的	-7732
帮助下	-7733
年期间	-7734
并通过	-7735
建设性	-7736
很少有	-7737
战争中	-7738
控制着	-7739
支持率	-7740
显著的	-7741
核试验	-7742
活动家	-7743
流行病	-7744
潜力的	-7745
留下的	-7746
的人群	-7747
的人道	-7748
的工具	-7749
的思想	-7750
的状态	-7751
的话说	-7752
的重点	-7753
知识和	-7754
等其他	-7755
组织和	-7756
背道而	-7757
财政和	-7758
贫困和	-7759
都不能	-7760
▁但欧洲	-7761
▁最近的	-7762
▁而中国	-7763
▁而尽管	-7764
▁这一点	-7765
不复存在	-7766
之间存在	-7767
亚太地区	-7768
从而导致	-7769
令人惊讶	-7770
做出反应	-7771
受到威胁	-7772
只是一个	-7773
只有一个	-7774
国家政府	-7775
国民收入	-7776
安全问题	-7777
家庭收入	-7778
有意义的	-7779
比较优势	-7780
独一无二	-7781
的年轻人	-7782
继续下去	-7783
美元贬值	-7784
背道而驰	-7785
资本外逃	-7786
达成协议	-7787
▁我们可以	-7788
实现这一点	-7789
房地产泡沫	-7790
社会和经济	-7791
解决的问题	-7792
解决问题的	-7793
阿尔巴尼亚	-7794
本月早些时候	-7795
联合国气候变化	-7796
亚洲基础设施投资	-7797
33	-7798
7,	-7799
AA	-7800
▁4	-7801
▁Y	-7802
▁三	-7803
▁高	-7804
一日	-7805
一来	-7806
上周	-7807
不善	-7808
也比	-7809
买单	-7810
五大	-7811
会将	-7812
侵入	-7813
偏远	-7814
催化	-7815
几十	-7816
分割	-7817
利昂	-7818
加勒	-7819
协力	-7820
南美	-7821
卜杜	-7822
受伤	-7823
右派	-7824
合物	-7825
哈里	-7826
囚犯	-7827
增量	-7828
大军	-7829
存活	-7830
家人	-7831
富豪	-7832
尔尼	-7833
岛屿	-7834
常任	-7835
广播	-7836
必定	-7837
意在	-7838
抗药	-7839
抱有	-7840
攻势	-7841
斯诺	-7842
新政	-7843
比索	-7844
民党	-7845
汽油	-7846
海岸	-7847
涌现	-7848
源泉	-7849
溢出	-7850
演说	-7851
照顾	-7852
留欧	-7853
策划	-7854
精心	-7855
结婚	-7856
而出	-7857
背叛	-7858
良机	-7859
蒙特	-7860
虚拟	-7861
覆辙	-7862
见证	-7863
设想	-7864
贩毒	-7865
赤裸	-7866
过分	-7867
靠拢	-7868
120	-7869
MDG	-7870
age	-7871
▁但他	-7872
▁俄国	-7873
▁公司	-7874
▁教育	-7875
▁现实	-7876
▁这类	-7877
下一代	-7878
五年中	-7879
代表的	-7880
会议员	-7881
军事实	-7882
凝聚力	-7883
包括了	-7884
原材料	-7885
因为其	-7886
国家在	-7887
增值税	-7888
大得多	-7889
实现其	-7890
将面临	-7891
就在于	-7892
并以此	-7893
急切地	-7894
恰恰是	-7895
新政府	-7896
昂贵的	-7897
是他们	-7898
最后的	-7899
最终会	-7900
殖民地	-7901
消费的	-7902
生产性	-7903
的信念	-7904
的信誉	-7905
的腐败	-7906
秩序的	-7907
等领域	-7908
算不上	-7909
美尼亚	-7910
而没有	-7911
菲尔德	-7912
萨科齐	-7913
表明了	-7914
这使得	-7915
选举的	-7916
选择的	-7917
选民们	-7918
通胀的	-7919
避免了	-7920
那以后	-7921
那里的	-7922
都表明	-7923
难民营	-7924
革命的	-7925
▁它们的	-7926
▁新加坡	-7927
▁有些人	-7928
▁而这一	-7929
一直以来	-7930
他们必须	-7931
公共支出	-7932
其自身的	-7933
分崩离析	-7934
可能造成	-7935
基金利率	-7936
当今世界	-7937
所导致的	-7938
明确表示	-7939
最有可能	-7940
武装力量	-7941
白俄罗斯	-7942
目前正在	-7943
知识分子	-7944
美元计价	-7945
财政整合	-7946
贸易顺差	-7947
5,000	-7948
▁归根结底	-7949
▁我们希望	-7950
▁除此之外	-7951
中国共产党	-7952
企业家精神	-7953
华盛顿共识	-7954
寻求庇护者	-7955
截然不同的	-7956
经济增长率	-7957
通货膨胀率	-7958
经常账户赤字	-7959
诺贝尔经济学奖	-7960
2°	-7961
EA	-7962
FS	-7963
Ge	-7964
MR	-7965
▁来	-7966
一番	-7967
一百	-7968
一部	-7969
之举	-7970
之多	-7971
买卖	-7972
亲密	-7973
付诸	-7974
会面	-7975
传达	-7976
体面	-7977
作战	-7978
保加	-7979
信奉	-7980
借鉴	-7981
凯蒂	-7982
出路	-7983
助推	-7984
占了	-7985
卫星	-7986
参考	-7987
古典	-7988
只在	-7989
可供	-7990
可怜	-7991
吸毒	-7992
和人	-7993
地图	-7994
坚守	-7995
塞拉	-7996
备受	-7997
多极	-7998
头寸	-7999
密尔	-8000
巧妙	-8001
带有	-8002
广义	-8003
开战	-8004
得主	-8005
恐怕	-8006
捕获	-8007
搜集	-8008
放宽	-8009
教徒	-8010
旁观	-8011
春天	-8012
是无	-8013
更深	-8014
最不	-8015
最具	-8016
月初	-8017
月底	-8018
格里	-8019
每次	-8020
沃伦	-8021
法德	-8022
流通	-8023
清醒	-8024
溢价	-8025
爱的	-8026
现今	-8027
生机	-8028
省份	-8029
矿产	-8030
缩短	-8031
脱盟	-8032
节省	-8033
蓝图	-8034
西兰	-8035
让其	-8036
赞扬	-8037
起草	-8038
越多	-8039
轴心	-8040
较小	-8041
这与	-8042
这座	-8043
迟早	-8044
都市	-8045
配合	-8046
队伍	-8047
随处	-8048
ach	-8049
lim	-8050
mer	-8051
ner	-8052
ood	-8053
▁为何	-8054
▁为此	-8055
▁原因	-8056
▁如何	-8057
▁支持	-8058
▁既然	-8059
▁每年	-8060
▁这里	-8061
一百万	-8062
不住脚	-8063
不作为	-8064
不足为	-8065
中东的	-8066
中受益	-8067
为他们	-8068
为欧洲	-8069
为美国	-8070
举行了	-8071
了一种	-8072
仅限于	-8073
但这一	-8074
决定的	-8075
化合物	-8076
发行的	-8077
受影响	-8078
和公司	-8079
困扰着	-8080
对英国	-8081
将增加	-8082
尼亚胡	-8083
常常被	-8084
影响着	-8085
往往是	-8086
成立的	-8087
或许会	-8088
报告中	-8089
教训是	-8090
条约的	-8091
特定的	-8092
独立党	-8093
甚至在	-8094
的办法	-8095
的工人	-8096
的独立	-8097
的限制	-8098
税收和	-8099
经历过	-8100
结束的	-8101
统治的	-8102
而受到	-8103
能够让	-8104
财富的	-8105
较高的	-8106
达尔富	-8107
道导弹	-8108
那样的	-8109
锋相对	-8110
1960	-8111
1973	-8112
2019	-8113
TTIP	-8114
▁000	-8115
▁但它们	-8116
▁如果说	-8117
▁比如说	-8118
▁纽黑文	-8119
▁美国人	-8120
▁而如果	-8121
亚美尼亚	-8122
付出代价	-8123
保加利亚	-8124
其中一些	-8125
可以成为	-8126
可以提供	-8127
哪个国家	-8128
在伊拉克	-8129
在此期间	-8130
在经历了	-8131
坚持认为	-8132
就不可能	-8133
形成一个	-8134
截然不同	-8135
拉美国家	-8136
日本银行	-8137
是否应该	-8138
普通民众	-8139
极端天气	-8140
生产率的	-8141
的原因是	-8142
的目标是	-8143
经济问题	-8144
联合起来	-8145
这些因素	-8146
重大影响	-8147
需要时间	-8148
麻省理工	-8149
▁2005	-8150
▁发自剑桥	-8151
中国经济的	-8152
内塔尼亚胡	-8153
杀伤性武器	-8154
的主要原因	-8155
果真如此的话	-8156
联合国秘书长	-8157
联邦基金利率	-8158
中国国家主席习近平	-8159
International	-8160
34	-8161
38	-8162
NP	-8163
不乏	-8164
业绩	-8165
买家	-8166
了吗	-8167
事先	-8168
于此	-8169
代孕	-8170
们在	-8171
共担	-8172
几天	-8173
出一	-8174
分类	-8175
到处	-8176
制作	-8177
剥削	-8178
占到	-8179
危及	-8180
压低	-8181
反馈	-8182
反驳	-8183
可比	-8184
吃惊	-8185
基文	-8186
境内	-8187
委托	-8188
它与	-8189
客观	-8190
对华	-8191
将比	-8192
尽量	-8193
州长	-8194
庄稼	-8195
当成	-8196
微小	-8197
所欲	-8198
技巧	-8199
振奋	-8200
敌意	-8201
教皇	-8202
既有	-8203
本位	-8204
校园	-8205
淘汰	-8206
渔业	-8207
游客	-8208
爱国	-8209
的近	-8210
真空	-8211
确切	-8212
社团	-8213
神圣	-8214
结盟	-8215
而其	-8216
职能	-8217
肉类	-8218
背负	-8219
致使	-8220
营销	-8221
表态	-8222
走势	-8223
迎合	-8224
远景	-8225
迷你	-8226
选出	-8227
避税	-8228
阻挡	-8229
降临	-8230
骄傲	-8231
Ben	-8232
ian	-8233
▁Sh	-8234
▁Tr	-8235
▁举例	-8236
▁但从	-8237
▁预计	-8238
一揽子	-8239
上加霜	-8240
为目标	-8241
了一次	-8242
人类的	-8243
仅次于	-8244
他们就	-8245
他们是	-8246
但没有	-8247
促成了	-8248
做出的	-8249
制造了	-8250
包含了	-8251
印度洋	-8252
参与了	-8253
另一场	-8254
和资源	-8255
在德国	-8256
宣布了	-8257
对他们	-8258
将会是	-8259
将无法	-8260
市场和	-8261
并不像	-8262
引入了	-8263
当时的	-8264
必须以	-8265
性力量	-8266
成员的	-8267
数量的	-8268
涉及到	-8269
清算所	-8270
潘基文	-8271
的交易	-8272
的人数	-8273
的发生	-8274
的方向	-8275
的现象	-8276
的理念	-8277
的竞争	-8278
的结构	-8279
的调查	-8280
的财富	-8281
皮凯蒂	-8282
直升机	-8283
示威者	-8284
科尔宾	-8285
站出来	-8286
肯尼迪	-8287
让欧洲	-8288
说明了	-8289
那么它	-8290
都认为	-8291
▁但对于	-8292
▁但由于	-8293
▁墨西哥	-8294
▁相当于	-8295
也不应该	-8296
以色列和	-8297
做些什么	-8298
化学武器	-8299
发展趋势	-8300
发现自己	-8301
可持续的	-8302
四分之三	-8303
国内经济	-8304
国际货币	-8305
基尼系数	-8306
塞拉利昂	-8307
布什总统	-8308
收入水平	-8309
整个欧洲	-8310
更多的人	-8311
站不住脚	-8312
而不能倒	-8313
资本管制	-8314
问题在于	-8315
雪上加霜	-8316
高级官员	-8317
▁2003	-8318
▁美国剑桥	-8319
▁这是因为	-8320
中国的经济	-8321
人民币汇率	-8322
总统候选人	-8323
世界贸易组织	-8324
所面临的挑战	-8325
首相安倍晋三	-8326
美国总统特朗普	-8327
比以往任何时候都	-8328
44	-8329
sh	-8330
▁拉	-8331
一届	-8332
丰厚	-8333
为人	-8334
为数	-8335
之重	-8336
乐于	-8337
亨利	-8338
健全	-8339
克的	-8340
冲动	-8341
划定	-8342
利斯	-8343
区区	-8344
南极	-8345
卢拉	-8346
原油	-8347
可图	-8348
同行	-8349
和更	-8350
奴隶	-8351
存量	-8352
它对	-8353
宏大	-8354
对方	-8355
局部	-8356
崇拜	-8357
已故	-8358
巴以	-8359
幻觉	-8360
开明	-8361
弊端	-8362
得起	-8363
恐吓	-8364
悲惨	-8365
惊讶	-8366
我所	-8367
手里	-8368
托尼	-8369
报酬	-8370
接入	-8371
教堂	-8372
旧的	-8373
普尔	-8374
普罗	-8375
智库	-8376
最坏	-8377
服用	-8378
服装	-8379
本书	-8380
本次	-8381
李克	-8382
极低	-8383
水电	-8384
法则	-8385
法特	-8386
派系	-8387
物流	-8388
甚远	-8389
申根	-8390
的主	-8391
的好	-8392
缔造	-8393
缩水	-8394
耗资	-8395
范例	-8396
营商	-8397
被捕	-8398
记得	-8399
该党	-8400
说辞	-8401
象棋	-8402
赋权	-8403
赫尔	-8404
迁移	-8405
逃脱	-8406
通用	-8407
闻名	-8408
靠近	-8409
350	-8410
ODA	-8411
erv	-8412
▁18	-8413
▁气候	-8414
▁而是	-8415
▁自由	-8416
▁这在	-8417
不一样	-8418
不允许	-8419
不断地	-8420
专家们	-8421
为我们	-8422
主权的	-8423
争议的	-8424
以失败	-8425
以避免	-8426
会继续	-8427
创造性	-8428
制定的	-8429
前总理	-8430
可不是	-8431
可信度	-8432
启动了	-8433
和市场	-8434
因为他	-8435
因如此	-8436
国家中	-8437
在所有	-8438
埃克森	-8439
大数据	-8440
如何在	-8441
实在在	-8442
帝国的	-8443
应有的	-8444
应该将	-8445
庸置疑	-8446
强硬派	-8447
或许是	-8448
持有人	-8449
日本人	-8450
有许多	-8451
有超过	-8452
本国的	-8453
桑托斯	-8454
欧盟和	-8455
欧盟在	-8456
比例的	-8457
环境和	-8458
的控制	-8459
的言论	-8460
的认识	-8461
的重大	-8462
看到的	-8463
穷人的	-8464
给美国	-8465
能产生	-8466
贫困线	-8467
资源和	-8468
迈克尔	-8469
金正恩	-8470
非洲人	-8471
1995	-8472
ance	-8473
arry	-8474
▁首先是	-8475
一切代价	-8476
不同的是	-8477
不负责任	-8478
九十年代	-8479
值得注意	-8480
全球市场	-8481
公共政策	-8482
医疗体系	-8483
可能出现	-8484
可能带来	-8485
和阿富汗	-8486
因为这些	-8487
固定汇率	-8488
实实在在	-8489
少数族裔	-8490
常任理事	-8491
年轻人的	-8492
弹道导弹	-8493
朝鲜半岛	-8494
理所当然	-8495
甚至可能	-8496
的世界中	-8497
的大多数	-8498
的投资者	-8499
竞选活动	-8500
认真对待	-8501
负面影响	-8502
达尔富尔	-8503
这个数字	-8504
这些挑战	-8505
这样一种	-8506
进一步的	-8507
重新思考	-8508
重要性的	-8509
阿拉法特	-8510
需要的是	-8511
领土主张	-8512
ative	-8513
▁发自纽约	-8514
▁巴基斯坦	-8515
▁而事实上	-8516
不断扩大的	-8517
中央银行的	-8518
民族主义的	-8519
清楚地表明	-8520
越来越大的	-8521
Global	-8522
国民生产总值	-8523
基础设施项目	-8524
遏制气候变化	-8525
欧盟委员会主席	-8526
2008—2009	-8527
亚洲基础设施投资银行	-8528
4,	-8529
95	-8530
FT	-8531
gr	-8532
uc	-8533
yn	-8534
▁?	-8535
▁b	-8536
一座	-8537
不相	-8538
世行	-8539
东扩	-8540
东方	-8541
也很	-8542
了近	-8543
人选	-8544
仍未	-8545
会说	-8546
光靠	-8547
入学	-8548
分为	-8549
利比	-8550
加索	-8551
名叫	-8552
后面	-8553
品牌	-8554
哈迈	-8555
回来	-8556
坚信	-8557
培育	-8558
多人	-8559
多项	-8560
审计	-8561
宽带	-8562
将以	-8563
已在	-8564
市政	-8565
带领	-8566
开罗	-8567
弥合	-8568
惠及	-8569
感受	-8570
成效	-8571
打消	-8572
抬头	-8573
拓展	-8574
摇摆	-8575
攫取	-8576
权势	-8577
杰夫	-8578
标签	-8579
混淆	-8580
瑟夫	-8581
的三	-8582
的自	-8583
着重	-8584
离岸	-8585
科奇	-8586
考量	-8587
能使	-8588
脸书	-8589
蔑视	-8590
薄熙	-8591
视频	-8592
触及	-8593
赚取	-8594
过往	-8595
这对	-8596
那次	-8597
重创	-8598
重心	-8599
铭记	-8600
闹剧	-8601
降到	-8602
顶级	-8603
顾虑	-8604
飞行	-8605
▁但要	-8606
▁出于	-8607
▁现代	-8608
▁该国	-8609
不安全	-8610
不过是	-8611
中间派	-8612
为中国	-8613
产品的	-8614
代理人	-8615
传统上	-8616
似乎在	-8617
债务人	-8618
债权国	-8619
公共品	-8620
公正的	-8621
加勒比	-8622
努力的	-8623
可能将	-8624
合法化	-8625
和医疗	-8626
和自由	-8627
在其他	-8628
大公司	-8629
妇女和	-8630
它们所	-8631
对这个	-8632
对这种	-8633
将产生	-8634
将受到	-8635
小部分	-8636
崩溃的	-8637
工作和	-8638
开放的	-8639
强制性	-8640
强烈的	-8641
形成的	-8642
心协力	-8643
必须与	-8644
必须是	-8645
成年人	-8646
托马斯	-8647
执政党	-8648
效率的	-8649
斯坦福	-8650
旅游业	-8651
最基本	-8652
月以来	-8653
有一种	-8654
来帮助	-8655
极少数	-8656
核裁军	-8657
热衷于	-8658
的根源	-8659
的统治	-8660
的角度	-8661
的转型	-8662
的选票	-8663
结束时	-8664
罗姆尼	-8665
艾哈迈	-8666
讲话中	-8667
评论家	-8668
达成的	-8669
还是在	-8670
金本位	-8671
预测的	-8672
预算的	-8673
马德里	-8674
▁中国在	-8675
▁但即使	-8676
▁全球化	-8677
▁在这里	-8678
▁投资者	-8679
▁阿富汗	-8680
不足为奇	-8681
与欧盟的	-8682
中国必须	-8683
也有助于	-8684
他们认为	-8685
众所周知	-8686
全球金融	-8687
利比里亚	-8688
发展战略	-8689
发生改变	-8690
可预见的	-8691
各不相同	-8692
在经济上	-8693
就业创造	-8694
拒绝接受	-8695
收入分配	-8696
政治动荡	-8697
是否真的	-8698
晚些时候	-8699
更广泛的	-8700
正在经历	-8701
的劳动力	-8702
的欧元区	-8703
相关利益	-8704
研究发现	-8705
社会福利	-8706
经济转型	-8707
美联储的	-8708
能够实现	-8709
能源价格	-8710
能源需求	-8711
自然灾害	-8712
苏联解体	-8713
资产泡沫	-8714
远远超过	-8715
退出欧盟	-8716
降低利率	-8717
,2008	-8718
,2014	-8719
▁其他国家	-8720
劳动生产率	-8721
已经取得了	-8722
社会和政治	-8723
主权债务危机	-8724
在一定程度上	-8725
应对气候变化	-8726
讽刺意味的是	-8727
意大利和西班牙	-8728
大规模杀伤性武器	-8729
48	-8730
IS	-8731
ib	-8732
▁5	-8733
▁各	-8734
▁美	-8735
一批	-8736
不定	-8737
中位	-8738
中立	-8739
他说	-8740
以内	-8741
公里	-8742
再到	-8743
军官	-8744
刑讯	-8745
剩下	-8746
动议	-8747
包围	-8748
十字	-8749
厄瓜	-8750
参选	-8751
又在	-8752
又是	-8753
可言	-8754
听众	-8755
哈特	-8756
因果	-8757
塞夫	-8758
外包	-8759
多名	-8760
大卫	-8761
大笔	-8762
孕育	-8763
宗派	-8764
定向	-8765
宣告	-8766
尽力	-8767
并论	-8768
幽灵	-8769
征服	-8770
很久	-8771
心的	-8772
志愿	-8773
想的	-8774
戴维	-8775
承包	-8776
把它	-8777
投向	-8778
教学	-8779
教条	-8780
无不	-8781
暴行	-8782
某一	-8783
根于	-8784
梅德	-8785
残暴	-8786
汇款	-8787
泛美	-8788
流出	-8789
测算	-8790
源头	-8791
特拉	-8792
的老	-8793
盯住	-8794
相提	-8795
穿越	-8796
罗德	-8797
肮脏	-8798
解雇	-8799
询问	-8800
贝利	-8801
购物	-8802
赌博	-8803
越发	-8804
这份	-8805
违法	-8806
逃税	-8807
都对	-8808
酝酿	-8809
采访	-8810
重演	-8811
金属	-8812
错的	-8813
阿布	-8814
频率	-8815
额的	-8816
首尔	-8817
麦克	-8818
Jos	-8819
eal	-8820
▁中东	-8821
▁尤其	-8822
一代人	-8823
不会在	-8824
不同于	-8825
乳腺癌	-8826
交易所	-8827
以及与	-8828
伊朗核	-8829
低通胀	-8830
体系中	-8831
债务和	-8832
假新闻	-8833
公众的	-8834
兰克林	-8835
兰克福	-8836
农业和	-8837
创造力	-8838
削减了	-8839
卡特尔	-8840
发布了	-8841
可支配	-8842
和荷兰	-8843
处不在	-8844
富有的	-8845
将中国	-8846
将达到	-8847
差不多	-8848
并确保	-8849
建立的	-8850
我认为	-8851
手中的	-8852
扩张性	-8853
技术上	-8854
投票权	-8855
方面都	-8856
有些人	-8857
机会的	-8858
来维持	-8859
理由是	-8860
的人的	-8861
的份额	-8862
的优势	-8863
的合理	-8864
的希望	-8865
的援助	-8866
的结束	-8867
的联系	-8868
的过度	-8869
积极地	-8870
竞争的	-8871
而且还	-8872
而后者	-8873
肺结核	-8874
能够为	-8875
能够以	-8876
被允许	-8877
贡献了	-8878
赤裸裸	-8879
集团的	-8880
驱动的	-8881
1993	-8882
orge	-8883
▁无论是	-8884
▁这不是	-8885
▁阿拉伯	-8886
不断上升	-8887
主要来自	-8888
似乎正在	-8889
保守主义	-8890
储备货币	-8891
军备竞赛	-8892
创造一个	-8893
包括美国	-8894
反恐战争	-8895
多个国家	-8896
完全没有	-8897
就是如此	-8898
已经证明	-8899
建设性的	-8900
很难想象	-8901
才有可能	-8902
执政联盟	-8903
政府已经	-8904
更有效地	-8905
每个国家	-8906
毫无意义	-8907
没有得到	-8908
法兰克福	-8909
消费支出	-8910
物价指数	-8911
物价稳定	-8912
现代化的	-8913
生活质量	-8914
的背景下	-8915
相提并论	-8916
种族隔离	-8917
移民问题	-8918
约束力的	-8919
经济改革	-8920
美国家庭	-8921
联合政府	-8922
联邦储备	-8923
脱离欧盟	-8924
行动计划	-8925
贫困人口	-8926
达成共识	-8927
退休基金	-8928
银行贷款	-8929
领导人在	-8930
,2013	-8931
ction	-8932
▁2000	-8933
▁即便如此	-8934
▁圣地亚哥	-8935
▁特别是在	-8936
▁美国总统	-8937
▁这些国家	-8938
▁这些问题	-8939
▁长期以来	-8940
和世界银行	-8941
已经达到了	-8942
房地产市场	-8943
的研究表明	-8944
的经济衰退	-8945
不惜一切代价	-8946
世界卫生组织	-8947
西班牙和意大利	-8948
▁在这样的背景下	-8949
▁Institute	-8950
39	-8951
ss	-8952
▁Z	-8953
▁西	-8954
一战	-8955
一群	-8956
三角	-8957
不力	-8958
两家	-8959
个别	-8960
为零	-8961
也正	-8962
亏损	-8963
仇外	-8964
从前	-8965
们的	-8966
余地	-8967
便已	-8968
偶尔	-8969
党内	-8970
入狱	-8971
典范	-8972
内伊	-8973
冷静	-8974
几次	-8975
几百	-8976
分支	-8977
利差	-8978
前例	-8979
剔除	-8980
劣势	-8981
匿名	-8982
卡因	-8983
又会	-8984
反常	-8985
名列	-8986
品质	-8987
哈梅	-8988
困惑	-8989
夫人	-8990
对峙	-8991
将由	-8992
尴尬	-8993
并被	-8994
异见	-8995
强人	-8996
很长	-8997
微软	-8998
掣肘	-8999
收拾	-9000
无知	-9001
是被	-9002
月在	-9003
木材	-9004
权重	-9005
村庄	-9006
极具	-9007
枪支	-9008
查德	-9009
桥梁	-9010
沙漠	-9011
沿着	-9012
浮现	-9013
深思	-9014
添加	-9015
清单	-9016
澄清	-9017
王朝	-9018
相去	-9019
相符	-9020
碎片	-9021
神社	-9022
福音	-9023
笔者	-9024
绝不	-9025
者是	-9026
而有	-9027
耻辱	-9028
节能	-9029
营利	-9030
装备	-9031
要走	-9032
规律	-9033
讲述	-9034
贫富	-9035
跟踪	-9036
过热	-9037
进了	-9038
铺平	-9039
阈值	-9040
隐瞒	-9041
集权	-9042
预先	-9043
Jam	-9044
▁危机	-9045
▁另一	-9046
▁报告	-9047
▁最新	-9048
▁此次	-9049
▁财政	-9050
一个人	-9051
上世纪	-9052
不一定	-9053
不相信	-9054
与发展	-9055
两年前	-9056
中指出	-9057
为世界	-9058
之上的	-9059
五年前	-9060
人权和	-9061
以实现	-9062
会认为	-9063
体制的	-9064
供给侧	-9065
先进的	-9066
公民的	-9067
六个月	-9068
关键的	-9069
又一个	-9070
发展出	-9071
和地方	-9072
和宗教	-9073
和收入	-9074
和治疗	-9075
在中东	-9076
它必须	-9077
实质性	-9078
密尔顿	-9079
对国家	-9080
并将其	-9081
并要求	-9082
心脏病	-9083
情形中	-9084
成本和	-9085
执行的	-9086
支持了	-9087
教科书	-9088
无前例	-9089
更有效	-9090
更重要	-9091
最小化	-9092
最贫穷	-9093
朝鲜的	-9094
李克强	-9095
源自于	-9096
激进的	-9097
的一位	-9098
的时刻	-9099
的理解	-9100
的真实	-9101
的美元	-9102
的还有	-9103
研究的	-9104
研究院	-9105
第三大	-9106
第三方	-9107
等方面	-9108
简单地	-9109
给出了	-9110
罗姆人	-9111
而欧洲	-9112
自上而	-9113
英国在	-9114
达尔文	-9115
那些在	-9116
金融和	-9117
阿巴斯	-9118
预防性	-9119
Mich	-9120
▁Cor	-9121
▁一开始	-9122
▁共和党	-9123
▁所谓的	-9124
▁近年来	-9125
▁这不仅	-9126
一个世纪	-9127
世卫组织	-9128
中国需要	-9129
也就是说	-9130
产业政策	-9131
从来没有	-9132
全球增长	-9133
创造就业	-9134
变得日益	-9135
合法性的	-9136
名义利率	-9137
周年纪念	-9138
哈梅内伊	-9139
固定资产	-9140
国际能源	-9141
多样化的	-9142
多边主义	-9143
大幅提高	-9144
存款保险	-9145
实现经济	-9146
家庭消费	-9147
将在今年	-9148
市场准入	-9149
必须得到	-9150
政治家们	-9151
是世界上	-9152
未来几年	-9153
极权主义	-9154
正好相反	-9155
武装冲突	-9156
民营企业	-9157
的成员国	-9158
的支持下	-9159
的经济和	-9160
种族主义	-9161
绿色能源	-9162
美国人的	-9163
萨尔科奇	-9164
蓬勃发展	-9165
调查显示	-9166
货币市场	-9167
贸易壁垒	-9168
这一方针	-9169
这些目标	-9170
长期增长	-9171
阿富汗和	-9172
陷入困境	-9173
集体行动	-9174
▁Bank	-9175
▁中国经济	-9176
▁如果欧洲	-9177
习近平主席	-9178
亿美元用于	-9179
叙利亚难民	-9180
国际社会的	-9181
基础设施和	-9182
新兴市场的	-9183
的经济政策	-9184
的问题在于	-9185
而不仅仅是	-9186
规模最大的	-9187
创造就业机会	-9188
越来越多的人	-9189
▁果真如此的话	-9190
inancial	-9191
58	-9192
HI	-9193
if	-9194
ip	-9195
ld	-9196
▁7	-9197
▁m	-9198
▁非	-9199
一度	-9200
一心	-9201
万个	-9202
万名	-9203
上学	-9204
下令	-9205
与他	-9206
与否	-9207
两名	-9208
为由	-9209
之又	-9210
之旅	-9211
之门	-9212
乌斯	-9213
也从	-9214
五倍	-9215
亚历	-9216
亚的	-9217
任由	-9218
倒塌	-9219
入盟	-9220
军力	-9221
减支	-9222
出去	-9223
制品	-9224
勉强	-9225
卫队	-9226
原始	-9227
反击	-9228
同步	-9229
名誉	-9230
向来	-9231
和我	-9232
四倍	-9233
坚实	-9234
多于	-9235
大脑	-9236
天安	-9237
婚姻	-9238
宁愿	-9239
它也	-9240
室内	-9241
富翁	-9242
市民	-9243
平静	-9244
年会	-9245
年所	-9246
弗拉	-9247
强度	-9248
总共	-9249
把持	-9250
把握	-9251
抗菌	-9252
抽象	-9253
捐赠	-9254
掩饰	-9255
明天	-9256
普世	-9257
本能	-9258
束手	-9259
格雷	-9260
森堡	-9261
比喻	-9262
没了	-9263
深陷	-9264
滑向	-9265
演变	-9266
火箭	-9267
甚于	-9268
电信	-9269
界线	-9270
略微	-9271
的纳	-9272
的马	-9273
监测	-9274
离婚	-9275
管齐	-9276
糖尿	-9277
网上	-9278
罪恶	-9279
翻番	-9280
而生	-9281
职场	-9282
胡锦	-9283
自从	-9284
般的	-9285
色彩	-9286
落入	-9287
行之	-9288
言辞	-9289
警示	-9290
超导	-9291
输送	-9292
近来	-9293
这部	-9294
连锁	-9295
造就	-9296
遍布	-9297
遗留	-9298
重获	-9299
野生	-9300
钻石	-9301
验证	-9302
高峰	-9303
黑人	-9304
1.4	-9305
are	-9306
row	-9307
▁仅仅	-9308
▁冷战	-9309
▁当局	-9310
▁拥有	-9311
▁放眼	-9312
▁无法	-9313
▁正是	-9314
▁此前	-9315
▁眼下	-9316
不喜欢	-9317
不足的	-9318
为导向	-9319
为核心	-9320
了一半	-9321
了我们	-9322
交易的	-9323
低下的	-9324
债务国	-9325
健康和	-9326
公务员	-9327
其国内	-9328
军政府	-9329
农产品	-9330
出口商	-9331
切尔诺	-9332
创始人	-9333
十年期	-9334
即便是	-9335
却依然	-9336
原则上	-9337
发表了	-9338
可行性	-9339
呈现出	-9340
和东欧	-9341
和中东	-9342
和国内	-9343
和疟疾	-9344
在法国	-9345
地方的	-9346
如果你	-9347
实践中	-9348
尼古丁	-9349
希腊的	-9350
常见的	-9351
年之前	-9352
开始了	-9353
慢性病	-9354
我们也	-9355
战略的	-9356
所产生	-9357
所说的	-9358
持不同	-9359
持久的	-9360
挑战是	-9361
曾经是	-9362
有大量	-9363
来推动	-9364
梅德韦	-9365
甚至连	-9366
电视台	-9367
的分析	-9368
的医疗	-9369
的可能	-9370
的机制	-9371
的法国	-9372
的灾难	-9373
的西方	-9374
相关性	-9375
看不到	-9376
约瑟夫	-9377
给他们	-9378
罗塞夫	-9379
老年人	-9380
胡锦涛	-9381
被证明	-9382
观察到	-9383
转向了	-9384
这方面	-9385
进程的	-9386
通常会	-9387
问题时	-9388
阿卜杜	-9389
高技能	-9390
1996	-9391
5000	-9392
avid	-9393
▁伊拉克	-9394
▁其中的	-9395
▁对中国	-9396
▁我认为	-9397
▁说到底	-9398
▁这表明	-9399
事实证明	-9400
公共资金	-9401
军事实力	-9402
决定性的	-9403
决策者的	-9404
厄瓜多尔	-9405
双边贸易	-9406
叙利亚和	-9407
可能会在	-9408
可能已经	-9409
史无前例	-9410
和葡萄牙	-9411
基本收入	-9412
外部需求	-9413
完全可以	-9414
富兰克林	-9415
引人注目	-9416
必须通过	-9417
想象一下	-9418
成立一个	-9419
我们能够	-9420
无法实现	-9421
更加严重	-9422
更有效的	-9423
正在发生	-9424
民主刚果	-9425
汉密尔顿	-9426
独裁政权	-9427
职业生涯	-9428
认为美国	-9429
资本要求	-9430
这一挑战	-9431
这个世界	-9432
通货紧缩	-9433
都有可能	-9434
重点放在	-9435
金融改革	-9436
针锋相对	-9437
陷入停滞	-9438
高速公路	-9439
—2008	-9440
▁恰恰相反	-9441
主要经济体	-9442
切尔诺贝利	-9443
的经济复苏	-9444
美国和英国	-9445
金融危机的	-9446
George	-9447
limate	-9448
是显而易见的	-9449
的经济和政治	-9450
解决这一问题	-9451
俄罗斯总统普京	-9452
政府间气候变化	-9453
第二次世界大战	-9454
iz	-9455
▁6	-9456
▁c	-9457
▁拜	-9458
一只	-9459
一块	-9460
一如	-9461
一笔	-9462
不时	-9463
中印	-9464
临界	-9465
主办	-9466
之计	-9467
书籍	-9468
于衷	-9469
人人	-9470
亿万	-9471
任职	-9472
僵尸	-9473
先决	-9474
克罗	-9475
克莱	-9476
减小	-9477
减贫	-9478
制的	-9479
刻意	-9480
前瞻	-9481
加息	-9482
医药	-9483
同僚	-9484
同比	-9485
同胞	-9486
听取	-9487
和反	-9488
哥拉	-9489
唯有	-9490
基点	-9491
处境	-9492
处方	-9493
安南	-9494
封锁	-9495
尼尔	-9496
常见	-9497
年均	-9498
年末	-9499
年被	-9500
并使	-9501
建成	-9502
异于	-9503
归结	-9504
忙于	-9505
忧心	-9506
扣除	-9507
找出	-9508
抵挡	-9509
拖入	-9510
挖掘	-9511
据此	-9512
斯塔	-9513
昂山	-9514
有待	-9515
本周	-9516
朴槿	-9517
杀人	-9518
欧亚	-9519
步入	-9520
残忍	-9521
沉迷	-9522
治下	-9523
沿岸	-9524
消化	-9525
潜艇	-9526
特的	-9527
现存	-9528
用了	-9529
男子	-9530
称的	-9531
维系	-9532
而来	-9533
自行	-9534
被动	-9535
解散	-9536
论据	-9537
诊所	-9538
车臣	-9539
里程	-9540
重的	-9541
霸主	-9542
骗局	-9543
鸿沟	-9544
黯淡	-9545
FDI	-9546
OMC	-9547
ald	-9548
eth	-9549
ina	-9550
▁唯一	-9551
▁导致	-9552
▁建立	-9553
▁没人	-9554
▁真正	-9555
▁确保	-9556
▁风险	-9557
一半的	-9558
下半年	-9559
不足道	-9560
两位数	-9561
严厉的	-9562
中左翼	-9563
也非常	-9564
众多的	-9565
会增加	-9566
信息的	-9567
信用卡	-9568
凸显了	-9569
出口的	-9570
利率的	-9571
动于衷	-9572
发现了	-9573
发电厂	-9574
同时还	-9575
和南非	-9576
和机构	-9577
地使用	-9578
大革命	-9579
如此之	-9580
安哥拉	-9581
寄希望	-9582
将美国	-9583
将需要	-9584
就像是	-9585
就是在	-9586
崛起的	-9587
年中国	-9588
开始时	-9589
很长的	-9590
情报局	-9591
我们有	-9592
战略性	-9593
抵押品	-9594
拥有了	-9595
损害了	-9596
描述为	-9597
政党的	-9598
是多么	-9599
最多的	-9600
有时候	-9601
朴槿惠	-9602
机制的	-9603
核国家	-9604
每一次	-9605
激起了	-9606
生产和	-9607
的公众	-9608
的大型	-9609
的平均	-9610
的日本	-9611
的某些	-9612
的贡献	-9613
的迹象	-9614
社会党	-9615
竞争者	-9616
签署的	-9617
管理和	-9618
管理层	-9619
篇文章	-9620
类型的	-9621
而应该	-9622
而这一	-9623
至少是	-9624
蛋白质	-9625
认为的	-9626
该协议	-9627
这个词	-9628
银行在	-9629
饮用水	-9630
1930	-9631
▁Pol	-9632
▁但正如	-9633
▁在最近	-9634
▁没有人	-9635
▁爱尔兰	-9636
▁看起来	-9637
▁美国在	-9638
▁这需要	-9639
与中国的	-9640
也越来越	-9641
他们可以	-9642
做出贡献	-9643
先决条件	-9644
全球基金	-9645
几乎肯定	-9646
只有通过	-9647
可以作为	-9648
和平协议	-9649
商界领袖	-9650
因为我们	-9651
国际组织	-9652
在中国的	-9653
在全世界	-9654
外围国家	-9655
如果不是	-9656
对以色列	-9657
将取决于	-9658
居高不下	-9659
市场力量	-9660
并不总是	-9661
强烈反对	-9662
微不足道	-9663
我们现在	-9664
承担责任	-9665
技术创新	-9666
技术官僚	-9667
提供融资	-9668
支付系统	-9669
收入差距	-9670
政府可以	-9671
政治上的	-9672
欧盟必须	-9673
正在进行	-9674
民主党人	-9675
特朗普在	-9676
的全球化	-9677
的最重要	-9678
统计数据	-9679
议会选举	-9680
资产购买	-9681
还有可能	-9682
金融动荡	-9683
高等教育	-9684
▁他们认为	-9685
▁全球经济	-9686
▁讽刺的是	-9687
不平等状况	-9688
世界领导人	-9689
印度尼西亚	-9690
可以追溯到	-9691
埃博拉病毒	-9692
委员会主席	-9693
已经超过了	-9694
常任理事国	-9695
法国和德国	-9696
美国和中国	-9697
劳动力市场的	-9698
新兴市场国家	-9699
经通胀调整的	-9700
▁美国总统奥巴马	-9701
31	-9702
47	-9703
49	-9704
HP	-9705
KP	-9706
PR	-9707
Tw	-9708
▁2	-9709
▁v	-9710
▁能	-9711
一是	-9712
上帝	-9713
不公	-9714
为之	-9715
主意	-9716
之不	-9717
也已	-9718
仪式	-9719
会把	-9720
伴侣	-9721
位居	-9722
借入	-9723
倾斜	-9724
其后	-9725
几位	-9726
初始	-9727
南北	-9728
占总	-9729
却不	-9730
原先	-9731
双轨	-9732
叛军	-9733
告知	-9734
图书	-9735
多万	-9736
多黎	-9737
大门	-9738
头脑	-9739
奥塞	-9740
威廉	-9741
宏伟	-9742
巨型	-9743
布斯	-9744
平常	-9745
年份	-9746
年就	-9747
并把	-9748
并让	-9749
广受	-9750
广大	-9751
应急	-9752
弗朗	-9753
归属	-9754
得不	-9755
德克	-9756
悠久	-9757
愉快	-9758
戈登	-9759
或少	-9760
战线	-9761
扎克	-9762
打败	-9763
拥抱	-9764
挑选	-9765
摇摇	-9766
无序	-9767
明了	-9768
暗中	-9769
末日	-9770
极高	-9771
根基	-9772
格达	-9773
欲坠	-9774
残疾	-9775
激活	-9776
犯下	-9777
看成	-9778
砍伐	-9779
空袭	-9780
第五	-9781
级的	-9782
终身	-9783
苦苦	-9784
莱坞	-9785
螺旋	-9786
观众	-9787
观看	-9788
视作	-9789
词汇	-9790
说的	-9791
说话	-9792
读者	-9793
调和	-9794
足迹	-9795
跻身	-9796
转让	-9797
轻微	-9798
输入	-9799
远程	-9800
防范	-9801
降雨	-9802
1.3	-9803
900	-9804
AMR	-9805
ath	-9806
ins	-9807
ism	-9808
▁令人	-9809
▁剑桥	-9810
▁多数	-9811
▁成功	-9812
一小撮	-9813
不亚于	-9814
不符合	-9815
为一个	-9816
为全球	-9817
了一切	-9818
人来说	-9819
从中国	-9820
以换取	-9821
以防止	-9822
会不会	-9823
做好了	-9824
关系到	-9825
卢森堡	-9826
却无法	-9827
变革的	-9828
各自为	-9829
告诉我	-9830
和其它	-9831
和腐败	-9832
国神社	-9833
在危机	-9834
在当前	-9835
天安门	-9836
央行的	-9837
它已经	-9838
将最终	-9839
巴西的	-9840
平等的	-9841
平衡的	-9842
应该为	-9843
德意志	-9844
必要性	-9845
战争和	-9846
拥有的	-9847
措施来	-9848
无限期	-9849
昂山素	-9850
有责任	-9851
来衡量	-9852
核电站	-9853
核设施	-9854
正在向	-9855
正面临	-9856
每年的	-9857
民主化	-9858
波多黎	-9859
现实中	-9860
生活中	-9861
的人才	-9862
的潜力	-9863
的石油	-9864
的表现	-9865
硬实力	-9866
第一位	-9867
糖尿病	-9868
绝不会	-9869
能得到	-9870
至少有	-9871
舞台上	-9872
观点的	-9873
计划和	-9874
让自己	-9875
说服力	-9876
调查局	-9877
资本和	-9878
超国家	-9879
还不够	-9880
还有待	-9881
这是个	-9882
进行过	-9883
错误地	-9884
韩国的	-9885
预见到	-9886
风险和	-9887
ency	-9888
▁GDP	-9889
▁但是在	-9890
▁欧洲人	-9891
▁而随着	-9892
严重依赖	-9893
中国官员	-9894
中国股市	-9895
也面临着	-9896
代表大会	-9897
任何国家	-9898
依然存在	-9899
做出选择	-9900
几十年的	-9901
出口增长	-9902
制造业和	-9903
因为美国	-9904
实现这一	-9905
寄希望于	-9906
平均而言	-9907
所发生的	-9908
所采取的	-9909
摇摇欲坠	-9910
政治领袖	-9911
无动于衷	-9912
无处不在	-9913
无所作为	-9914
更加难以	-9915
更多的钱	-9916
最低工资	-9917
有利可图	-9918
有所增加	-9919
构建一个	-9920
欧盟内部	-9921
欧盟机构	-9922
私人消费	-9923
经济利益	-9924
英国选民	-9925
评级机构	-9926
货币宽松	-9927
贸易协议	-9928
资本重组	-9929
还有很多	-9930
这场战争	-9931
长期停滞	-9932
阿里巴巴	-9933
领导人们	-9934
高速增长	-9935
▁2004	-9936
▁总而言之	-9937
▁这一方针	-9938
▁这一过程	-9939
不断增长的	-9940
之间的冲突	-9941
付出的代价	-9942
以失败告终	-9943
劳动力成本	-9944
劳动密集型	-9945
华盛顿特区	-9946
太阳能电池	-9947
富裕国家的	-9948
所说的那样	-9949
社会安全网	-9950
这样的国家	-9951
哥伦比亚革命	-9952
宏观经济政策	-9953
所指出的那样	-9954
欧洲央行行长	-9955
泛美开发银行	-9956
▁这就是为什么	-9957
,6	-9958
OP	-9959
uk	-9960
▁卡	-9961
三十	-9962
下属	-9963
不佳	-9964
不敢	-9965
不禁	-9966
两难	-9967
中断	-9968
中日	-9969
举债	-9970
也曾	-9971
仅靠	-9972
他还	-9973
付款	-9974
优化	-9975
位列	-9976
余额	-9977
侯赛	-9978
偶然	-9979
入主	-9980
入境	-9981
六年	-9982
内亚	-9983
农地	-9984
冷漠	-9985
创设	-9986
初期	-9987
压抑	-9988
受制	-9989
合并	-9990
名言	-9991
听闻	-9992
善意	-9993
在该	-9994
外币	-9995
够了	-9996
大为	-9997
天堂	-9998
奖金	-9999
学位	-10000
宝座	-10001
审议	-10002
家长	-10003
对他	-10004
将要	-10005
小于	-10006
尔摩	-10007
就算	-10008
局长	-10009
巨资	-10010
常识	-10011
延迟	-10012
弗雷	-10013
弹劾	-10014
惨重	-10015
或多	-10016
拿马	-10017
挥霍	-10018
振兴	-10019
摩根	-10020
擅长	-10021
救济	-10022
方济	-10023
是与	-10024
普斯	-10025
景象	-10026
更迭	-10027
替罪	-10028
月中	-10029
本已	-10030
杀手	-10031
权宜	-10032
枢纽	-10033
格拉	-10034
殆尽	-10035
每月	-10036
波及	-10037
波特	-10038
点燃	-10039
环节	-10040
男人	-10041
的后	-10042
的国	-10043
益处	-10044
真是	-10045
确信	-10046
祖先	-10047
稀土	-10048
纲领	-10049
纸币	-10050
绕过	-10051
老板	-10052
而未	-10053
脱贫	-10054
脱钩	-10055
莫拉	-10056
萨拉	-10057
裁定	-10058
裁量	-10059
视野	-10060
谈话	-10061
费舍	-10062
赔偿	-10063
赫特	-10064
走了	-10065
转化	-10066
辅助	-10067
运气	-10068
近邻	-10069
还未	-10070
远超	-10071
追加	-10072
避开	-10073
防空	-10074
除外	-10075
隐性	-10076
零和	-10077
面目	-10078
0.3	-10079
1.7	-10080
180	-10081
3.5	-10082
Con	-10083
DNA	-10084
Jer	-10085
ann	-10086
ary	-10087
ass	-10088
one	-10089
▁一项	-10090
▁仍然	-10091
▁他还	-10092
▁具有	-10093
▁到了	-10094
▁我在	-10095
▁而当	-10096
▁超过	-10097
下一步	-10098
下降至	-10099
不对称	-10100
不要说	-10101
丧失了	-10102
中之重	-10103
中国与	-10104
主席国	-10105
也十分	-10106
享受到	-10107
亿人口	-10108
以一种	-10109
依然在	-10110
停留在	-10111
公司将	-10112
加强了	-10113
加强对	-10114
古老的	-10115
另一项	-10116
可以使	-10117
可能比	-10118
合作和	-10119
向中国	-10120
和台湾	-10121
和未来	-10122
和繁荣	-10123
和非洲	-10124
因素的	-10125
图书馆	-10126
地球上	-10127
基辛格	-10128
复杂化	-10129
多大的	-10130
失去的	-10131
威胁的	-10132
将军们	-10133
将自己	-10134
将超过	-10135
少数派	-10136
层面的	-10137
届政府	-10138
工人和	-10139
已久的	-10140
已经是	-10141
希拉克	-10142
应用于	-10143
应该由	-10144
建制派	-10145
性问题	-10146
才开始	-10147
批准了	-10148
承担了	-10149
技能和	-10150
拉动型	-10151
指出的	-10152
控制了	-10153
描述的	-10154
提供者	-10155
政客和	-10156
斯诺登	-10157
方济各	-10158
施罗德	-10159
时间和	-10160
暴露出	-10161
最需要	-10162
有组织	-10163
柏林墙	-10164
深远的	-10165
生产国	-10166
生物学	-10167
的一体	-10168
的中心	-10169
的内容	-10170
的声音	-10171
的外部	-10172
的总体	-10173
的方针	-10174
的空间	-10175
的精英	-10176
相似的	-10177
社会中	-10178
答案是	-10179
绝不能	-10180
缅甸的	-10181
而他们	-10182
而感到	-10183
而那些	-10184
肯定的	-10185
被忽视	-10186
西方人	-10187
计划中	-10188
让世界	-10189
让经济	-10190
设计的	-10191
资金的	-10192
超出了	-10193
路要走	-10194
这两种	-10195
遇到了	-10196
都存在	-10197
里程碑	-10198
降低到	-10199
1982	-10200
berg	-10201
orld	-10202
▁人民币	-10203
▁在某些	-10204
▁慕尼黑	-10205
▁我们在	-10206
▁换言之	-10207
不仅限于	-10208
不断扩大	-10209
之处在于	-10210
他们应该	-10211
令人印象	-10212
关税联盟	-10213
决定因素	-10214
劳动收入	-10215
包括中国	-10216
变得更为	-10217
可能不会	-10218
各种各样	-10219
和他们的	-10220
商业模式	-10221
国际刑事	-10222
增长速度	-10223
外国投资	-10224
大大增加	-10225
实质性的	-10226
容易受到	-10227
对他们的	-10228
导弹防御	-10229
将注意力	-10230
应该得到	-10231
影子银行	-10232
投资基金	-10233
抗议活动	-10234
拒绝承认	-10235
拥有一个	-10236
数据表明	-10237
核心利益	-10238
欧洲各国	-10239
永远无法	-10240
治理结构	-10241
波多黎各	-10242
波罗的海	-10243
的受害者	-10244
的政治家	-10245
的环境中	-10246
破坏性的	-10247
经济繁荣	-10248
美元升值	-10249
萎靡不振	-10250
认识到了	-10251
边境调节	-10252
都面临着	-10253
采取任何	-10254
随处可见	-10255
齐心协力	-10256
David	-10257
itter	-10258
▁2006	-10259
▁Fund	-10260
▁总体而言	-10261
▁这些政策	-10262
不确定性的	-10263
令人瞩目的	-10264
几乎不可能	-10265
大部分地区	-10266
10,000	-10267
太大而不能倒	-10268
政策制定者们	-10269
欧洲货币联盟	-10270
解释了为什么	-10271
国内生产总值的	-10272
新兴市场经济体	-10273
随着时间的推移	-10274
非常规货币政策	-10275
▁Commission	-10276
AC	-10277
Sh	-10278
lo	-10279
ph	-10280
▁同	-10281
一贯	-10282
万事	-10283
三种	-10284
不啻	-10285
个性	-10286
为主	-10287
乌里	-10288
于事	-10289
仍旧	-10290
仍能	-10291
但从	-10292
侵害	-10293
修补	-10294
免遭	-10295
公然	-10296
关门	-10297
军费	-10298
几千	-10299
分水	-10300
则会	-10301
别处	-10302
化解	-10303
卖出	-10304
又能	-10305
变动	-10306
合格	-10307
呼吸	-10308
商店	-10309
处置	-10310
外长	-10311
多达	-10312
契合	-10313
好转	-10314
子里	-10315
对该	-10316
小农	-10317
尔特	-10318
开设	-10319
引向	-10320
得太	-10321
拉低	-10322
掀起	-10323
提炼	-10324
提起	-10325
放射	-10326
政见	-10327
斯堪	-10328
无效	-10329
无穷	-10330
既是	-10331
时就	-10332
旷日	-10333
是很	-10334
更小	-10335
来临	-10336
欠缺	-10337
次贷	-10338
死去	-10339
每周	-10340
气氛	-10341
沙龙	-10342
法外	-10343
法定	-10344
派别	-10345
涅拉	-10346
深受	-10347
激动	-10348
特性	-10349
独自	-10350
甘地	-10351
甚微	-10352
申科	-10353
直至	-10354
眼里	-10355
磋商	-10356
祸首	-10357
秋天	-10358
结成	-10359
老化	-10360
自利	-10361
节节	-10362
菲永	-10363
被判	-10364
装置	-10365
西非	-10366
要做	-10367
要高	-10368
计的	-10369
诺斯	-10370
财阀	-10371
贩卖	-10372
超额	-10373
跌幅	-10374
身边	-10375
辐射	-10376
迅猛	-10377
这套	-10378
这就	-10379
迷失	-10380
金斯	-10381
风力	-10382
饭店	-10383
骚扰	-10384
鼓动	-10385
1/3	-10386
75%	-10387
ack	-10388
ant	-10389
ash	-10390
com	-10391
ect	-10392
eph	-10393
ris	-10394
tic	-10395
uel	-10396
unc	-10397
▁不断	-10398
▁两国	-10399
▁似乎	-10400
▁家庭	-10401
▁有了	-10402
▁网络	-10403
▁贸易	-10404
▁这与	-10405
一个新	-10406
不关心	-10407
不同意	-10408
不属于	-10409
为那些	-10410
乌里韦	-10411
也不太	-10412
也因为	-10413
也随之	-10414
了超过	-10415
仍有待	-10416
从美国	-10417
以每年	-10418
伊朗和	-10419
会如何	-10420
但现在	-10421
低增长	-10422
信任的	-10423
公司在	-10424
公司税	-10425
准确地	-10426
几年前	-10427
出生的	-10428
占世界	-10429
压倒性	-10430
去监管	-10431
反移民	-10432
发生后	-10433
和城市	-10434
和工作	-10435
和移民	-10436
国内外	-10437
国外的	-10438
在应对	-10439
基米尔	-10440
大面积	-10441
媒体和	-10442
孩子的	-10443
它可以	-10444
对其他	-10445
对政府	-10446
对银行	-10447
将不会	-10448
将它们	-10449
将通过	-10450
小企业	-10451
层面上	-10452
巩固了	-10453
已经将	-10454
开启了	-10455
总体上	-10456
我们就	-10457
或者是	-10458
所需要	-10459
才能够	-10460
扮演着	-10461
推出了	-10462
掩盖了	-10463
援助的	-10464
斯特恩	-10465
是一次	-10466
是不会	-10467
有价值	-10468
有没有	-10469
有足够	-10470
服务和	-10471
案例中	-10472
植根于	-10473
沉重的	-10474
演变成	-10475
然而然	-10476
牵涉到	-10477
的事件	-10478
的亚洲	-10479
的假设	-10480
的口号	-10481
的商品	-10482
的大学	-10483
的大选	-10484
的改变	-10485
的模式	-10486
的活动	-10487
的转变	-10488
的通胀	-10489
的革命	-10490
皮涅拉	-10491
看作是	-10492
紧迫性	-10493
经济上	-10494
经验的	-10495
能力和	-10496
蔓延到	-10497
融资的	-10498
规定的	-10499
让所有	-10500
让英国	-10501
负利率	-10502
贫困的	-10503
贷款的	-10504
资本的	-10505
轻易地	-10506
过渡期	-10507
过程的	-10508
这导致	-10509
通过的	-10510
道理的	-10511
BRCA	-10512
FOMC	-10513
eter	-10514
▁再加上	-10515
▁另一种	-10516
▁据估计	-10517
▁而美国	-10518
▁肯尼亚	-10519
▁问题是	-10520
与土耳其	-10521
两极分化	-10522
中国企业	-10523
中的作用	-10524
人们认为	-10525
令人瞩目	-10526
令人难以	-10527
令人鼓舞	-10528
低碳能源	-10529
信息技术	-10530
债券购买	-10531
债务上限	-10532
全民医疗	-10533
全球气温	-10534
八十年代	-10535
公开市场	-10536
减少贫困	-10537
利益相关	-10538
刺激经济	-10539
只有不到	-10540
可以自由	-10541
和其他人	-10542
商业周期	-10543
在短期内	-10544
实际上是	-10545
对俄罗斯	-10546
应该通过	-10547
应该采取	-10548
强劲增长	-10549
我们无法	-10550
或多或少	-10551
投资者和	-10552
政治意愿	-10553
整个地区	-10554
无论如何	-10555
智能手机	-10556
最大限度	-10557
欧元债券	-10558
欧元危机	-10559
正面临着	-10560
毋庸置疑	-10561
气候政策	-10562
浮动汇率	-10563
激励机制	-10564
特朗普和	-10565
环境问题	-10566
的第二个	-10567
相去甚远	-10568
科学家们	-10569
税收制度	-10570
经济制裁	-10571
美元汇率	-10572
能够通过	-10573
自然而然	-10574
资源配置	-10575
过剩产能	-10576
这一局面	-10577
这些风险	-10578
迷你电网	-10579
重新谈判	-10580
野生动物	-10581
阿富汗的	-10582
阿拉伯人	-10583
需要进行	-10584
▁其结果是	-10585
▁如果美国	-10586
▁巴勒斯坦	-10587
出口导向型	-10588
基础设施的	-10589
完成的任务	-10590
工业化国家	-10591
弗拉基米尔	-10592
必须认识到	-10593
扮演的角色	-10594
欧洲和美国	-10595
欧洲经济区	-10596
特朗普总统	-10597
的政策制定	-10598
的新兴市场	-10599
经济和金融	-10600
联邦调查局	-10601
自由贸易区	-10602
许多国家的	-10603
越来越多地	-10604
这一问题的	-10605
这个问题的	-10606
进一步加剧	-10607
里斯本条约	-10608
Joseph	-10609
世界其他地方	-10610
固定资产投资	-10611
所面临的问题	-10612
经合组织国家	-10613
阿拉伯世界的	-10614
非传染性疾病	-10615
100,000	-10616
ability	-10617
▁从某种程度上	-10618
National	-10619
跨大西洋贸易和投资	-10620
跨太平洋合作伙伴关系	-10621
2/	-10622
42	-10623
ET	-10624
ID	-10625
UN	-10626
af	-10627
ud	-10628
▁则	-10629
▁四	-10630
▁给	-10631
一同	-10632
一张	-10633
下调	-10634
下限	-10635
不休	-10636
不快	-10637
与日	-10638
中叶	-10639
也最	-10640
亲眼	-10641
亿吨	-10642
仿佛	-10643
伊始	-10644
优点	-10645
会是	-10646
低廉	-10647
佛罗	-10648
保住	-10649
保卫	-10650
免税	-10651
公立	-10652
共存	-10653
关乎	-10654
冠军	-10655
凌驾	-10656
分销	-10657
到位	-10658
勘探	-10659
十个	-10660
十倍	-10661
半叶	-10662
协同	-10663
卓越	-10664
发病	-10665
发酵	-10666
变量	-10667
只需	-10668
叫做	-10669
可归	-10670
名词	-10671
君主	-10672
和最	-10673
国大	-10674
图景	-10675
在为	-10676
塞内	-10677
壮大	-10678
处决	-10679
备忘	-10680
外流	-10681
多哈	-10682
天才	-10683
天赋	-10684
天鹅	-10685
女儿	-10686
她在	-10687
如是	-10688
巧合	-10689
幕后	-10690
开来	-10691
引力	-10692
引渡	-10693
强奸	-10694
总数	-10695
悲哀	-10696
憧憬	-10697
战士	-10698
指南	-10699
收取	-10700
改良	-10701
放心	-10702
救命	-10703
斯拉	-10704
无策	-10705
旱灾	-10706
是他	-10707
显露	-10708
暴政	-10709
暴涨	-10710
曲线	-10711
更糟	-10712
最优	-10713
有损	-10714
注资	-10715
潜能	-10716
激怒	-10717
瓦纳	-10718
用作	-10719
监视	-10720
神秘	-10721
突发	-10722
竟然	-10723
符号	-10724
算盘	-10725
纯属	-10726
美德	-10727
能给	-10728
良性	-10729
菲尔	-10730
要对	-10731
警报	-10732
认清	-10733
许诺	-10734
设在	-10735
赖以	-10736
走私	-10737
路上	-10738
蹂躏	-10739
辉煌	-10740
达赖	-10741
返回	-10742
连贯	-10743
选区	-10744
那摩	-10745
里约	-10746
重现	-10747
错配	-10748
领衔	-10749
颇有	-10750
1.8	-10751
1.9	-10752
12%	-10753
CDS	-10754
ear	-10755
ett	-10756
ork	-10757
per	-10758
ren	-10759
unt	-10760
▁al	-10761
▁也有	-10762
▁假设	-10763
▁利用	-10764
▁国会	-10765
▁外国	-10766
▁安倍	-10767
▁总统	-10768
▁数字	-10769
▁更加	-10770
▁瑞典	-10771
▁移民	-10772
▁能够	-10773
一个由	-10774
不仅要	-10775
与世界	-10776
与合作	-10777
与政府	-10778
为中心	-10779
为首的	-10780
也只是	-10781
也能够	-10782
了一倍	-10783
了一套	-10784
五规划	-10785
产出的	-10786
人们所	-10787
仍处于	-10788
以来最	-10789
侯赛因	-10790
催化剂	-10791
儿童的	-10792
决策的	-10793
分水岭	-10794
剥夺了	-10795
十年后	-10796
友好的	-10797
反周期	-10798
取消了	-10799
受制于	-10800
只能在	-10801
可信的	-10802
可预测	-10803
后者的	-10804
向世界	-10805
和平奖	-10806
和组织	-10807
因此而	-10808
国政府	-10809
国际化	-10810
备忘录	-10811
夜之间	-10812
大城市	-10813
孩子们	-10814
它们对	-10815
将会在	-10816
将欧洲	-10817
岁以下	-10818
并导致	-10819
强化的	-10820
必须将	-10821
必须由	-10822
怀疑派	-10823
怎么做	-10824
怎样的	-10825
愤怒的	-10826
或者说	-10827
所创造	-10828
所采取	-10829
抑制了	-10830
持续了	-10831
排放的	-10832
提供商	-10833
教科文	-10834
斯拉夫	-10835
无助于	-10836
无条件	-10837
是确保	-10838
替罪羊	-10839
有用的	-10840
标志性	-10841
核扩散	-10842
比现在	-10843
没有在	-10844
治下的	-10845
法律的	-10846
游击队	-10847
理查德	-10848
癌细胞	-10849
的人都	-10850
的多数	-10851
的最好	-10852
的群体	-10853
的领袖	-10854
的高度	-10855
目标和	-10856
眼中的	-10857
稳定与	-10858
经济区	-10859
而欧盟	-10860
自己在	-10861
表达了	-10862
规模和	-10863
误导性	-10864
迅速地	-10865
过时的	-10866
还存在	-10867
透明的	-10868
采用了	-10869
非国家	-10870
高加索	-10871
3000	-10872
ital	-10873
▁在全球	-10874
▁有鉴于	-10875
▁而如今	-10876
▁而这些	-10877
▁而这种	-10878
严重问题	-10879
他们自己	-10880
健康状况	-10881
共同努力	-10882
关于如何	-10883
关塔那摩	-10884
关键问题	-10885
出口市场	-10886
前工业化	-10887
十分困难	-10888
和爱尔兰	-10889
和联合国	-10890
国会议员	-10891
国民债务	-10892
国际关系	-10893
国际秩序	-10894
在叙利亚	-10895
在最近的	-10896
大多数人	-10897
大幅降低	-10898
大部分人	-10899
如果他们	-10900
它们可以	-10901
宏观审慎	-10902
尤其重要	-10903
市场份额	-10904
并不容易	-10905
并不足以	-10906
弱势群体	-10907
很长时间	-10908
成百上千	-10909
我们这个	-10910
投资组合	-10911
报告显示	-10912
按揭贷款	-10913
提供帮助	-10914
数据显示	-10915
是全世界	-10916
更加糟糕	-10917
束手无策	-10918
某些国家	-10919
某种形式	-10920
核武器的	-10921
正在改变	-10922
民主体制	-10923
法治精神	-10924
泡沫破裂	-10925
消极影响	-10926
溢出效应	-10927
物理学家	-10928
现实主义	-10929
积极影响	-10930
粮食安全	-10931
统计数字	-10932
罪魁祸首	-10933
美国政治	-10934
莫拉莱斯	-10935
蒙受损失	-10936
认为这是	-10937
贫困国家	-10938
这一决定	-10939
这一情况	-10940
这一点上	-10941
这种说法	-10942
进行合作	-10943
进行谈判	-10944
通胀压力	-10945
遗憾的是	-10946
重新分配	-10947
重新考虑	-10948
金融企业	-10949
银行监管	-10950
长久以来	-10951
靖国神社	-10952
领导地位	-10953
鲜明对比	-10954
,2016	-10955
meric	-10956
▁几十年来	-10957
▁埃尔多安	-10958
▁如果他们	-10959
▁布什政府	-10960
▁我们知道	-10961
▁正因如此	-10962
▁迄今为止	-10963
▁这一观点	-10964
不可或缺的	-10965
产品和服务	-10966
从一开始就	-10967
充满活力的	-10968
印度和中国	-10969
发生了变化	-10970
发达国家和	-10971
巴基斯坦的	-10972
建立了一个	-10973
必不可少的	-10974
提出了一个	-10975
民主国家的	-10976
法西斯主义	-10977
的一个重要	-10978
的经济危机	-10979
边境调节税	-10980
退出欧元区	-10981
面临的挑战	-10982
▁所有这些都	-10983
中低收入国家	-10984
加利福尼亚州	-10985
在发展中国家	-10986
核不扩散条约	-10987
的政治和经济	-10988
诺贝尔和平奖	-10989
麻省理工学院	-10990
▁但这并不意味着	-10991
55	-10992
68	-10993
GI	-10994
II	-10995
▁3	-10996
▁博	-10997
▁按	-10998
▁梅	-10999
一波	-11000
一面	-11001
丈夫	-11002
上来	-11003
不被	-11004
不见	-11005
不计	-11006
不该	-11007
不通	-11008
中全	-11009
中华	-11010
中被	-11011
之手	-11012
也与	-11013
付费	-11014
代议	-11015
代际	-11016
仲裁	-11017
任的	-11018
伪善	-11019
借债	-11020
偏执	-11021
先发	-11022
光荣	-11023
光诚	-11024
兴旺	-11025
养活	-11026
冒犯	-11027
写入	-11028
冰川	-11029
出任	-11030
出租	-11031
分五	-11032
切特	-11033
列宁	-11034
初步	-11035
化肥	-11036
北极	-11037
区间	-11038
半球	-11039
卢卡	-11040
压缩	-11041
原料	-11042
双相	-11043
吉拉	-11044
同期	-11045
向下	-11046
含量	-11047
和他	-11048
和在	-11049
回国	-11050
增大	-11051
多家	-11052
多米	-11053
天真	-11054
女权	-11055
定律	-11056
定罪	-11057
审核	-11058
宣战	-11059
尔邦	-11060
尖端	-11061
巴罗	-11062
布勒	-11063
希尔	-11064
年才	-11065
幸存	-11066
废止	-11067
废水	-11068
往常	-11069
德哥	-11070
总和	-11071
恰好	-11072
恶意	-11073
所言	-11074
手笔	-11075
扎伊	-11076
护士	-11077
推测	-11078
推理	-11079
推荐	-11080
撤退	-11081
教会	-11082
敢于	-11083
整顿	-11084
斯库	-11085
无一	-11086
更难	-11087
期刊	-11088
杀虫	-11089
来了	-11090
正逢	-11091
比作	-11092
民兵	-11093
没完	-11094
流的	-11095
海默	-11096
深感	-11097
激起	-11098
灵丹	-11099
炮制	-11100
照片	-11101
熟虑	-11102
牢固	-11103
理智	-11104
瓶颈	-11105
穆沙	-11106
突变	-11107
筹资	-11108
简称	-11109
累累	-11110
累进	-11111
考试	-11112
能对	-11113
自给	-11114
良多	-11115
蔬菜	-11116
行径	-11117
诗人	-11118
赞美	-11119
赞赏	-11120
赶上	-11121
起初	-11122
趋向	-11123
跟上	-11124
躲避	-11125
过的	-11126
这三	-11127
通道	-11128
道歉	-11129
量子	-11130
长足	-11131
革新	-11132
11%	-11133
AKP	-11134
ARC	-11135
ail	-11136
ice	-11137
lan	-11138
umm	-11139
ure	-11140
▁10	-11141
▁12	-11142
▁An	-11143
▁de	-11144
▁不但	-11145
▁东京	-11146
▁保护	-11147
▁公共	-11148
▁可是	-11149
▁地球	-11150
▁增加	-11151
▁据说	-11152
▁改变	-11153
▁是否	-11154
▁科学	-11155
▁近期	-11156
一致性	-11157
不具有	-11158
不动产	-11159
不完全	-11160
不断的	-11161
与其说	-11162
与英国	-11163
与过去	-11164
中右翼	-11165
之又少	-11166
也应当	-11167
人听闻	-11168
以保护	-11169
以应对	-11170
但只有	-11171
但对于	-11172
低工资	-11173
使用了	-11174
俄关系	-11175
再融资	-11176
凌驾于	-11177
几内亚	-11178
出现过	-11179
利益和	-11180
发生时	-11181
发言权	-11182
各自的	-11183
和个人	-11184
和希腊	-11185
和开发	-11186
和银行	-11187
国家间	-11188
在伊朗	-11189
增长到	-11190
失败了	-11191
奠定了	-11192
奥斯本	-11193
威尔逊	-11194
小规模	-11195
已经对	-11196
年时间	-11197
年轻的	-11198
思想的	-11199
我们会	-11200
所表明	-11201
手段来	-11202
把这一	-11203
投票率	-11204
抛弃了	-11205
控制和	-11206
推动的	-11207
数十万	-11208
数据库	-11209
新总统	-11210
新经济	-11211
方案的	-11212
方面也	-11213
是人类	-11214
是政治	-11215
暴露了	-11216
更强的	-11217
最初的	-11218
有一点	-11219
有多么	-11220
本身的	-11221
来决定	-11222
此前的	-11223
法律和	-11224
波动性	-11225
消费量	-11226
爆发了	-11227
爆发后	-11228
的不是	-11229
的利润	-11230
的大量	-11231
的就业	-11232
的年度	-11233
的政客	-11234
的服务	-11235
的身份	-11236
约旦河	-11237
结构的	-11238
而不会	-11239
而易举	-11240
腐败和	-11241
茨瓦纳	-11242
被用来	-11243
被要求	-11244
要实现	-11245
解决的	-11246
试图将	-11247
费舍尔	-11248
迈出了	-11249
运动员	-11250
这件事	-11251
都是在	-11252
陈光诚	-11253
非洲和	-11254
1962	-11255
1967	-11256
ound	-11257
rans	-11258
▁今年的	-11259
▁但事实	-11260
▁但许多	-11261
▁同样地	-11262
▁最新的	-11263
▁类似的	-11264
▁这使得	-11265
▁这正是	-11266
一个重要	-11267
不可逆转	-11268
不稳定的	-11269
与其说是	-11270
亿万富翁	-11271
仍然没有	-11272
公平竞争	-11273
共同货币	-11274
几个国家	-11275
刺激增长	-11276
危机期间	-11277
可以用来	-11278
各自为政	-11279
和投资者	-11280
商业领袖	-11281
在这样的	-11282
太阳能和	-11283
孤立主义	-11284
宪法条约	-11285
将是一个	-11286
少之又少	-11287
并不十分	-11288
德哥尔摩	-11289
意义上的	-11290
成为可能	-11291
我们不能	-11292
执政期间	-11293
投资项目	-11294
排除在外	-11295
提供支持	-11296
提供更多	-11297
改革计划	-11298
政府机构	-11299
政治精英	-11300
数以百万	-11301
斯洛伐克	-11302
方向发展	-11303
暴力冲突	-11304
更加复杂	-11305
来自中国	-11306
深思熟虑	-11307
特里赫特	-11308
的不信任	-11309
的世界里	-11310
的国家的	-11311
的纳维亚	-11312
监管措施	-11313
直到最近	-11314
短期利率	-11315
社会民主	-11316
穆沙拉夫	-11317
结构调整	-11318
财政调整	-11319
轻而易举	-11320
过程中的	-11321
这是因为	-11322
这种方法	-11323
这种状况	-11324
远远没有	-11325
采取更加	-11326
重新定义	-11327
重新评估	-11328
银行体系	-11329
,2010	-11330
ealth	-11331
▁但是如果	-11332
▁哥伦比亚	-11333
▁我们已经	-11334
▁显而易见	-11335
他们自己的	-11336
发生了什么	-11337
叙利亚内战	-11338
所做的那样	-11339
收入和财富	-11340
教科文组织	-11341
某种形式的	-11342
某种意义上	-11343
根本不可能	-11344
的一个关键	-11345
的经济表现	-11346
的财政政策	-11347
穆斯林世界	-11348
▁这并不是说	-11349
可预见的未来	-11350
官方发展援助	-11351
马斯特里赫特	-11352
▁Global	-11353
▁从这个角度讲	-11354
-7	-11355
62	-11356
BI	-11357
EM	-11358
gl	-11359
▁亲	-11360
一书	-11361
一党	-11362
一周	-11363
不一	-11364
不均	-11365
不成	-11366
不无	-11367
严酷	-11368
中去	-11369
之年	-11370
乎其	-11371
了他	-11372
了在	-11373
代之	-11374
仿效	-11375
但又	-11376
低位	-11377
信托	-11378
俱增	-11379
公认	-11380
兼并	-11381
写照	-11382
冰岛	-11383
出不	-11384
划分	-11385
列入	-11386
则被	-11387
剧变	-11388
加倍	-11389
加德	-11390
加斯	-11391
加紧	-11392
卓著	-11393
单个	-11394
反射	-11395
反美	-11396
取缔	-11397
取而	-11398
另有	-11399
含糊	-11400
吸纳	-11401
和前	-11402
地面	-11403
大获	-11404
夭折	-11405
失效	-11406
好了	-11407
好比	-11408
孱弱	-11409
安慰	-11410
家里	-11411
将与	-11412
将此	-11413
当权	-11414
快于	-11415
思路	-11416
拥护	-11417
挽回	-11418
捐款	-11419
推断	-11420
摄氏	-11421
斯托	-11422
时常	-11423
明日	-11424
景气	-11425
更别	-11426
更长	-11427
曾说	-11428
权限	-11429
栖息	-11430
格利	-11431
殴打	-11432
民用	-11433
没错	-11434
泄漏	-11435
法拉	-11436
流亡	-11437
渺茫	-11438
演员	-11439
火车	-11440
热门	-11441
特雷	-11442
登记	-11443
皇家	-11444
看护	-11445
私下	-11446
科夫	-11447
科斯	-11448
紧随	-11449
终止	-11450
罗毕	-11451
美孚	-11452
肥料	-11453
脱节	-11454
自相	-11455
荣誉	-11456
薪水	-11457
裂痕	-11458
订立	-11459
讨厌	-11460
评判	-11461
起源	-11462
轮值	-11463
运河	-11464
逍遥	-11465
通知	-11466
采伐	-11467
金额	-11468
防治	-11469
须知	-11470
马丁	-11471
高盛	-11472
1.2	-11473
160	-11474
35%	-11475
4.5	-11476
ael	-11477
avi	-11478
olf	-11479
our	-11480
ven	-11481
▁不难	-11482
▁发展	-11483
▁在其	-11484
▁大量	-11485
▁她们	-11486
▁曾经	-11487
▁有关	-11488
▁美元	-11489
一次性	-11490
不会有	-11491
不可及	-11492
与会者	-11493
东北亚	-11494
为实现	-11495
也不愿	-11496
事务上	-11497
什么是	-11498
代人的	-11499
以支持	-11500
伊斯坦	-11501
伙伴国	-11502
但中国	-11503
但如今	-11504
但是在	-11505
作为其	-11506
作用的	-11507
保持了	-11508
储蓄者	-11509
全欧洲	-11510
全要素	-11511
减少对	-11512
分五裂	-11513
分析家	-11514
加入到	-11515
十年内	-11516
占中国	-11517
危机和	-11518
历史性	-11519
原子能	-11520
参与到	-11521
只关注	-11522
可以是	-11523
后不久	-11524
和埃及	-11525
和瑞典	-11526
和福利	-11527
国有化	-11528
国防部	-11529
在一些	-11530
在今天	-11531
在任何	-11532
在国家	-11533
婴儿潮	-11534
学术界	-11535
安全感	-11536
实行的	-11537
实际的	-11538
家可归	-11539
巴拿马	-11540
巴格达	-11541
年危机	-11542
并试图	-11543
怎么办	-11544
总额的	-11545
患者的	-11546
想起了	-11547
抗菌素	-11548
持有者	-11549
支持下	-11550
政府都	-11551
无异于	-11552
明智地	-11553
是基于	-11554
有更多	-11555
杀虫剂	-11556
杠杆率	-11557
来确保	-11558
框架下	-11559
激烈的	-11560
独特的	-11561
的一场	-11562
的上升	-11563
的人士	-11564
的农业	-11565
的农民	-11566
的出现	-11567
的复苏	-11568
的爆发	-11569
的相对	-11570
的网络	-11571
的话题	-11572
结论是	-11573
给自己	-11574
维持了	-11575
美国与	-11576
而不必	-11577
而是在	-11578
聚焦于	-11579
能实现	-11580
茨海默	-11581
讨论的	-11582
该如何	-11583
这两大	-11584
这只是	-11585
都拥有	-11586
释放出	-11587
附加值	-11588
面对的	-11589
驱动力	-11590
100%	-11591
Mart	-11592
ners	-11593
▁一些人	-11594
▁但这个	-11595
▁凯恩斯	-11596
▁唐纳德	-11597
▁埃博拉	-11598
▁对美国	-11599
▁很多人	-11600
▁第三个	-11601
一个问题	-11602
万亿欧元	-11603
万美元的	-11604
专业知识	-11605
中国可以	-11606
也意味着	-11607
也适用于	-11608
人类活动	-11609
仍然需要	-11610
债务融资	-11611
公司治理	-11612
其中之一	-11613
几个世纪	-11614
几乎完全	-11615
利益集团	-11616
制度改革	-11617
制药公司	-11618
医疗卫生	-11619
即将到来	-11620
双相障碍	-11621
反腐运动	-11622
取而代之	-11623
可以实现	-11624
向全世界	-11625
四分五裂	-11626
在欧元区	-11627
增长战略	-11628
增长潜力	-11629
外交手段	-11630
多元化的	-11631
将不得不	-11632
将人民币	-11633
工资增长	-11634
已不再是	-11635
已经不再	-11636
并不令人	-11637
形成一致	-11638
恐怖组织	-11639
接下来的	-11640
接近于零	-11641
支持这一	-11642
数字货币	-11643
整个世界	-11644
方面发挥	-11645
无法通过	-11646
是巨大的	-11647
最佳实践	-11648
欧洲需要	-11649
正在迅速	-11650
没完没了	-11651
游戏规则	-11652
生机勃勃	-11653
的候选人	-11654
的前提下	-11655
福利国家	-11656
科学家和	-11657
移动电话	-11658
空气质量	-11659
紧张关系	-11660
纳米技术	-11661
经验表明	-11662
结构转型	-11663
解决这些	-11664
财政规则	-11665
贸易盈余	-11666
资本外流	-11667
这些公司	-11668
这种方式	-11669
重大挑战	-11670
领导下的	-11671
4,000	-11672
James	-11673
▁1997	-11674
▁举例来讲	-11675
▁尤其是在	-11676
▁有鉴于此	-11677
▁直到最近	-11678
叙利亚总统	-11679
和安全政策	-11680
在发达国家	-11681
埃克森美孚	-11682
大部分国家	-11683
巴勒斯坦国	-11684
是不可能的	-11685
机构投资者	-11686
梅德韦杰夫	-11687
欧元区危机	-11688
的人道主义	-11689
的必要条件	-11690
经济学家的	-11691
长期存在的	-11692
阿尔茨海默	-11693
亚洲金融危机	-11694
值得注意的是	-11695
很长的路要走	-11696
是不可持续的	-11697
Twitter	-11698
▁Climate	-11699
▁在这样的情况下	-11700
43	-11701
IT	-11702
ST	-11703
ai	-11704
de	-11705
▁s	-11706
▁先	-11707
▁十	-11708
一本	-11709
一看	-11710
三次	-11711
上诉	-11712
下定	-11713
不决	-11714
不幸	-11715
不懈	-11716
不明	-11717
个中	-11718
之力	-11719
也都	-11720
了两	-11721
二次	-11722
互惠	-11723
亚尔	-11724
亚当	-11725
伎俩	-11726
会令	-11727
会员	-11728
伦斯	-11729
伯利	-11730
但不	-11731
作俑	-11732
侮辱	-11733
倒是	-11734
假说	-11735
充其	-11736
全方	-11737
公告	-11738
公顷	-11739
关切	-11740
其与	-11741
内陆	-11742
军人	-11743
前列	-11744
前夕	-11745
力求	-11746
博客	-11747
印钞	-11748
却被	-11749
原有	-11750
又有	-11751
取向	-11752
变异	-11753
叫停	-11754
史蒂	-11755
咖啡	-11756
因其	-11757
地与	-11758
场景	-11759
坏事	-11760
坦桑	-11761
多了	-11762
大错	-11763
天后	-11764
它还	-11765
对应	-11766
对我	-11767
小额	-11768
就得	-11769
库存	-11770
思议	-11771
想让	-11772
愈加	-11773
才华	-11774
抑或	-11775
抑郁	-11776
拘留	-11777
拿破	-11778
损伤	-11779
无非	-11780
日报	-11781
朔伊	-11782
松散	-11783
极化	-11784
构想	-11785
构筑	-11786
样本	-11787
样板	-11788
水准	-11789
浓度	-11790
淹没	-11791
灵感	-11792
点的	-11793
热烈	-11794
热病	-11795
熟练	-11796
牲畜	-11797
现已	-11798
男女	-11799
疏远	-11800
碳氢	-11801
禁运	-11802
种类	-11803
税基	-11804
红线	-11805
纳恰	-11806
细分	-11807
联网	-11808
能将	-11809
自满	-11810
获利	-11811
菲利	-11812
虚弱	-11813
街道	-11814
补救	-11815
被杀	-11816
要将	-11817
规格	-11818
论断	-11819
调动	-11820
贯彻	-11821
赚钱	-11822
走到	-11823
越是	-11824
这段	-11825
迟迟	-11826
都比	-11827
酒店	-11828
阳性	-11829
面包	-11830
0.0	-11831
1.6	-11832
7.5	-11833
ARP	-11834
CCS	-11835
ECB	-11836
ham	-11837
ive	-11838
lam	-11839
mad	-11840
res	-11841
▁Di	-11842
▁一份	-11843
▁二战	-11844
▁但其	-11845
▁公众	-11846
▁后来	-11847
▁女性	-11848
▁官方	-11849
▁就算	-11850
▁旨在	-11851
▁波兰	-11852
▁牛津	-11853
▁而非	-11854
▁这份	-11855
▁部分	-11856
一个更	-11857
一年的	-11858
上半年	-11859
不可靠	-11860
与政治	-11861
与社会	-11862
两年的	-11863
个基点	-11864
中东欧	-11865
乎其微	-11866
也不再	-11867
也知道	-11868
产量的	-11869
人心的	-11870
代议制	-11871
以前的	-11872
以适应	-11873
但至少	-11874
假消息	-11875
充其量	-11876
全方位	-11877
其政治	-11878
内罗毕	-11879
农作物	-11880
制度和	-11881
参与率	-11882
参加了	-11883
发表的	-11884
可卡因	-11885
各地的	-11886
合法的	-11887
听上去	-11888
和人权	-11889
和出口	-11890
和巴西	-11891
和控制	-11892
和波兰	-11893
国大党	-11894
在短期	-11895
地指出	-11896
大约有	-11897
好莱坞	-11898
始作俑	-11899
宣布的	-11900
对人类	-11901
对它们	-11902
就不能	-11903
就变得	-11904
工具和	-11905
年以后	-11906
年后的	-11907
并开始	-11908
很难说	-11909
恢复了	-11910
悬而未	-11911
所导致	-11912
承担起	-11913
承认了	-11914
把他们	-11915
投入到	-11916
报告的	-11917
拿破仑	-11918
改变其	-11919
数十亿	-11920
无法再	-11921
是否是	-11922
是欧盟	-11923
是没有	-11924
有多大	-11925
有问题	-11926
来管理	-11927
查尔斯	-11928
格利茨	-11929
正在为	-11930
沉迷于	-11931
治疗的	-11932
物理学	-11933
理想的	-11934
电动车	-11935
留下了	-11936
的一面	-11937
的不良	-11938
的命运	-11939
的大国	-11940
的对比	-11941
的开始	-11942
的排放	-11943
的日子	-11944
的早期	-11945
的普及	-11946
的治疗	-11947
的直接	-11948
的范围	-11949
的衰退	-11950
的费用	-11951
的辩论	-11952
的那些	-11953
破坏力	-11954
竞选中	-11955
第二轮	-11956
管齐下	-11957
精神病	-11958
结构和	-11959
美好的	-11960
而如果	-11961
而这种	-11962
薄熙来	-11963
要求在	-11964
规划署	-11965
解释是	-11966
该条约	-11967
软着陆	-11968
较大的	-11969
运行的	-11970
还为时	-11971
这不仅	-11972
都可能	-11973
都同意	-11974
需要对	-11975
风险是	-11976
首先是	-11977
驱逐出	-11978
鲁纳恰	-11979
黄热病	-11980
FARC	-11981
Jean	-11982
roup	-11983
▁Act	-11984
▁也许是	-11985
▁他们在	-11986
▁但上述	-11987
▁但因为	-11988
▁加拿大	-11989
▁在一些	-11990
▁在整个	-11991
▁失业率	-11992
▁当我们	-11993
一致同意	-11994
不是为了	-11995
与日俱增	-11996
主权国家	-11997
从长期看	-11998
价值观和	-11999
价值观的	-12000
使用武力	-12001
克里斯蒂	-12002
刚刚开始	-12003
十分重要	-12004
单边主义	-12005
南斯拉夫	-12006
卫生设施	-12007
历史上看	-12008
及其盟友	-12009
反过来又	-12010
受到影响	-12011
叙利亚的	-12012
和墨西哥	-12013
和太阳能	-12014
国内储蓄	-12015
国内需求	-12016
坦桑尼亚	-12017
增长率为	-12018
大不相同	-12019
尼古拉斯	-12020
左翼联盟	-12021
得出结论	-12022
微乎其微	-12023
必要条件	-12024
必须成为	-12025
怀疑态度	-12026
总统任期	-12027
悬而未决	-12028
意大利的	-12029
提供援助	-12030
支出削减	-12031
无家可归	-12032
朔伊布勒	-12033
未来十年	-12034
欧盟应该	-12035
每一美元	-12036
民间团体	-12037
治理体系	-12038
的伊斯兰	-12039
的全球性	-12040
的受访者	-12041
的欧洲人	-12042
研究成果	-12043
碳排放量	-12044
社会动荡	-12045
种族灭绝	-12046
管理人员	-12047
经济上的	-12048
经济体的	-12049
经济体系	-12050
继续保持	-12051
而是因为	-12052
能源安全	-12053
获得成功	-12054
裔美国人	-12055
财政悬崖	-12056
跨国企业	-12057
转移到了	-12058
这一进程	-12059
这些数字	-12060
透明度和	-12061
重中之重	-12062
金融监管	-12063
银行家们	-12064
除此之外	-12065
ocial	-12066
▁Summ	-12067
▁人工智能	-12068
▁哥本哈根	-12069
▁在我看来	-12070
▁这种情况	-12071
▁随着中国	-12072
世界各国的	-12073
世界各地的	-12074
严重的问题	-12075
中央情报局	-12076
主要原因是	-12077
充分的理由	-12078
各国领导人	-12079
和其他地区	-12080
哈佛大学的	-12081
喜马拉雅山	-12082
国有企业和	-12083
安倍经济学	-12084
捷克共和国	-12085
斯蒂格利茨	-12086
欧盟和美国	-12087
灾难性后果	-12088
的国家之一	-12089
盖茨基金会	-12090
美国财政部	-12091
自己的国家	-12092
购买力平价	-12093
远远超过了	-12094
▁英格兰银行	-12095
全民医疗覆盖	-12096
全球金融市场	-12097
吞并克里米亚	-12098
的资产负债表	-12099
▁可以肯定的是	-12100
许多发展中国家	-12101
跨大西洋贸易和投资伙伴关系	-12102
,5	-12103
CB	-12104
ED	-12105
Ed	-12106
Me	-12107
Ph	-12108
▁’	-12109
▁却	-12110
▁因	-12111
▁小	-12112
一句	-12113
一股	-12114
不入	-12115
丧命	-12116
中非	-12117
之于	-12118
之行	-12119
乌兹	-12120
从于	-12121
仰仗	-12122
供水	-12123
假装	-12124
僵化	-12125
公职	-12126
六个	-12127
内心	-12128
切莱	-12129
创伤	-12130
力更	-12131
卓识	-12132
厄运	-12133
原来	-12134
参拜	-12135
向其	-12136
吞噬	-12137
喇嘛	-12138
回收	-12139
国和	-12140
地亚	-12141
坏账	-12142
塞族	-12143
壳牌	-12144
复仇	-12145
复燃	-12146
大亨	-12147
大小	-12148
大楼	-12149
天皇	-12150
失调	-12151
头巾	-12152
奴役	-12153
妓女	-12154
嫌疑	-12155
它能	-12156
家中	-12157
就不	-12158
工薪	-12159
已成	-12160
巴乔	-12161
带动	-12162
带头	-12163
并向	-12164
并由	-12165
废墟	-12166
废物	-12167
度和	-12168
强权	-12169
强行	-12170
性价	-12171
悄悄	-12172
感情	-12173
战火	-12174
担当	-12175
拉拉	-12176
拥挤	-12177
据称	-12178
提倡	-12179
救世	-12180
斯克	-12181
无休	-12182
无遗	-12183
时日	-12184
易斯	-12185
昔日	-12186
曙光	-12187
更早	-12188
曼纽	-12189
术语	-12190
次要	-12191
欢呼	-12192
毁掉	-12193
水坝	-12194
水域	-12195
泄露	-12196
流量	-12197
消亡	-12198
消退	-12199
漂亮	-12200
演习	-12201
濒临	-12202
火灾	-12203
版图	-12204
球队	-12205
生长	-12206
由来	-12207
电气	-12208
男孩	-12209
的要	-12210
真心	-12211
知情	-12212
福岛	-12213
空军	-12214
立足	-12215
等级	-12216
精明	-12217
素质	-12218
纳摩	-12219
绩效	-12220
缺点	-12221
罹患	-12222
美分	-12223
而当	-12224
聆听	-12225
胜过	-12226
脚步	-12227
航天	-12228
落在	-12229
血红	-12230
要把	-12231
见到	-12232
见解	-12233
警钟	-12234
试点	-12235
谋求	-12236
财长	-12237
较弱	-12238
迁往	-12239
过上	-12240
这家	-12241
退化	-12242
送到	-12243
那场	-12244
邦的	-12245
邮报	-12246
重负	-12247
阿什	-12248
降级	-12249
集合	-12250
震荡	-12251
顺序	-12252
首个	-12253
马杜	-12254
高中	-12255
高官	-12256
高额	-12257
0.8	-12258
2.8	-12259
And	-12260
HIV	-12261
Ste	-12262
ark	-12263
ast	-12264
hip	-12265
ith	-12266
lin	-12267
rag	-12268
rug	-12269
—20	-12270
▁En	-12271
▁Mo	-12272
▁上周	-12273
▁东亚	-12274
▁东盟	-12275
▁人口	-12276
▁但该	-12277
▁增长	-12278
▁总之	-12279
▁扩大	-12280
▁整个	-12281
▁约翰	-12282
▁这笔	-12283
上升的	-12284
不超过	-12285
与我们	-12286
两年中	-12287
中只有	-12288
中的一	-12289
乌兹别	-12290
也认为	-12291
习惯于	-12292
了一位	-12293
事件中	-12294
亚洲和	-12295
代表团	-12296
以美国	-12297
似乎也	-12298
低水平	-12299
公布的	-12300
出不穷	-12301
利用了	-12302
前主席	-12303
包括在	-12304
北约的	-12305
南苏丹	-12306
卡尔德	-12307
印度人	-12308
危机时	-12309
另一些	-12310
只能是	-12311
可用于	-12312
和增加	-12313
和家庭	-12314
和行动	-12315
哪怕是	-12316
圣诞节	-12317
在埃及	-12318
地区性	-12319
坚定的	-12320
基督徒	-12321
奥斯曼	-12322
它们是	-12323
它应该	-12324
它能够	-12325
对世界	-12326
将因此	-12327
将很快	-12328
尽一切	-12329
工程和	-12330
已经为	-12331
市场对	-12332
希望在	-12333
常常会	-12334
年之后	-12335
年代和	-12336
年达到	-12337
彰显出	-12338
必需的	-12339
思想家	-12340
总人口	-12341
恐惧和	-12342
恰当的	-12343
我们能	-12344
所提出	-12345
承包商	-12346
描述了	-12347
提供给	-12348
摧毁了	-12349
数据和	-12350
明年的	-12351
显示了	-12352
暂时的	-12353
更长的	-12354
曼纽尔	-12355
最紧迫	-12356
期间的	-12357
权利和	-12358
来取代	-12359
极高的	-12360
毁灭性	-12361
消费品	-12362
特征是	-12363
甚至比	-12364
略高于	-12365
疾病和	-12366
的不断	-12367
的伤害	-12368
的全部	-12369
的全面	-12370
的则是	-12371
的对策	-12372
的成员	-12373
的收益	-12374
的政权	-12375
的来说	-12376
的比率	-12377
的消息	-12378
的理想	-12379
的短期	-12380
的繁荣	-12381
的访问	-12382
目的地	-12383
矛盾的	-12384
研究中	-12385
确保了	-12386
究竟是	-12387
继续在	-12388
综合性	-12389
翻一番	-12390
而我们	-12391
而无法	-12392
能提供	-12393
自民党	-12394
艺术家	-12395
解决了	-12396
计划在	-12397
认为是	-12398
设计和	-12399
谈判桌	-12400
责任的	-12401
足以让	-12402
这一步	-12403
这对于	-12404
这部分	-12405
进口国	-12406
道德的	-12407
部长们	-12408
限制的	-12409
集中的	-12410
领导下	-12411
高级别	-12412
1.5°	-12413
1929	-12414
Thom	-12415
able	-12416
anke	-12417
ight	-12418
ower	-12419
▁Ind	-12420
▁不久前	-12421
▁他认为	-12422
▁但这是	-12423
▁我相信	-12424
▁或者说	-12425
▁理论上	-12426
▁该报告	-12427
▁那就是	-12428
一个事实	-12429
一直处于	-12430
一种新的	-12431
下降趋势	-12432
不必要的	-12433
不难理解	-12434
中国国内	-12435
也出现了	-12436
人口比例	-12437
今年夏天	-12438
以及一个	-12439
保持稳定	-12440
偿还债务	-12441
共同市场	-12442
共和国的	-12443
关塔纳摩	-12444
关键领域	-12445
其他任何	-12446
军事冲突	-12447
创造新的	-12448
制定一个	-12449
北欧国家	-12450
可能发生	-12451
和平谈判	-12452
困难重重	-12453
国际发展	-12454
塞内加尔	-12455
大幅削减	-12456
大幅贬值	-12457
层出不穷	-12458
巴黎协定	-12459
希望看到	-12460
库尔德人	-12461
应该如何	-12462
心理学家	-12463
必须找到	-12464
感到失望	-12465
成为美国	-12466
我们应当	-12467
才能确保	-12468
教育体系	-12469
新的全球	-12470
新闻报道	-12471
最主要的	-12472
最后一个	-12473
有更多的	-12474
构成威胁	-12475
标准普尔	-12476
正在快速	-12477
潜在增长	-12478
环境破坏	-12479
理由认为	-12480
电子商务	-12481
的一体化	-12482
相互依存	-12483
相对较小	-12484
真实利率	-12485
税收改革	-12486
精英阶层	-12487
美国银行	-12488
能够带来	-12489
能源供应	-12490
融资平台	-12491
解决之道	-12492
解释为何	-12493
让人感到	-12494
财政收入	-12495
货币交易	-12496
贫穷国家	-12497
这项任务	-12498
进口商品	-12499
远见卓识	-12500
远远低于	-12501
重新开始	-12502
重要角色	-12503
领先地位	-12504
风险管理	-12505
,2011	-12506
,2012	-12507
,2017	-12508
arles	-12509
▁Bern	-12510
▁Cent	-12511
▁在此期间	-12512
▁在过去的	-12513
▁我们现在	-12514
▁这个问题	-12515
世界银行的	-12516
严峻的挑战	-12517
中国的崛起	-12518
人民币贬值	-12519
伊斯坦布尔	-12520
会发生什么	-12521
出人意料地	-12522
原教旨主义	-12523
可持续性的	-12524
国有企业的	-12525
国民收入的	-12526
已经过去了	-12527
成百上千万	-12528
最大经济体	-12529
最大限度地	-12530
深远的影响	-12531
相关利益方	-12532
社会民主党	-12533
预算办公室	-12534
Martin	-12535
▁欧洲领导人	-12536
人道主义援助	-12537
刺激经济增长	-12538
前工业化水平	-12539
太阳能电池板	-12540
斯堪的纳维亚	-12541
民族主义情绪	-12542
的经济和社会	-12543
经常账户盈余	-12544
阿尔茨海默症	-12545
▁同样重要的是	-12546
二氧化碳排放量	-12547
达沃斯世界经济论坛	-12548
哥伦比亚革命武装力量	-12549
1—	-12550
BA	-12551
GP	-12552
ez	-12553
ji	-12554
▁后	-12555
▁达	-12556
上面	-12557
不抵	-12558
为负	-12559
之和	-12560
之战	-12561
之源	-12562
之苦	-12563
争相	-12564
些许	-12565
优越	-12566
会以	-12567
伪装	-12568
佛教	-12569
像是	-12570
先行	-12571
光耀	-12572
克格	-12573
全都	-12574
共有	-12575
共鸣	-12576
减记	-12577
出国	-12578
列强	-12579
卡尼	-12580
卡车	-12581
印刷	-12582
参照	-12583
友谊	-12584
受灾	-12585
可笑	-12586
名声	-12587
启示	-12588
周刊	-12589
四处	-12590
囤积	-12591
国籍	-12592
土库	-12593
地域	-12594
堆积	-12595
堡垒	-12596
外科	-12597
多位	-12598
大声	-12599
夺回	-12600
套利	-12601
存储	-12602
季节	-12603
实例	-12604
对新	-12605
带到	-12606
延缓	-12607
忌惮	-12608
打下	-12609
抗拒	-12610
抹杀	-12611
招聘	-12612
捕捉	-12613
收容	-12614
收费	-12615
效力	-12616
斯密	-12617
斯顿	-12618
新疆	-12619
新高	-12620
无常	-12621
既定	-12622
日期	-12623
旧金	-12624
曾是	-12625
杉矶	-12626
杜绝	-12627
条例	-12628
板球	-12629
此时	-12630
水库	-12631
法制	-12632
洪森	-12633
流氓	-12634
海牙	-12635
热点	-12636
照护	-12637
牢记	-12638
物馆	-12639
猖獗	-12640
现场	-12641
的书	-12642
的净	-12643
皮诺	-12644
直言	-12645
相形	-12646
离心	-12647
税务	-12648
筹码	-12649
纳维	-12650
罗格	-12651
置信	-12652
美金	-12653
老人	-12654
自私	-12655
苛刻	-12656
英法	-12657
萨诸	-12658
表决	-12659
裕仁	-12660
话语	-12661
调停	-12662
贝鲁	-12663
转为	-12664
辨别	-12665
辩解	-12666
这在	-12667
连串	-12668
递交	-12669
那就	-12670
陌生	-12671
降息	-12672
随意	-12673
隔绝	-12674
领海	-12675
马琳	-12676
高调	-12677
默许	-12678
140	-12679
230	-12680
95%	-12681
You	-12682
ace	-12683
air	-12684
emy	-12685
icy	-12686
ild	-12687
min	-12688
ond	-12689
▁Mc	-12690
▁Me	-12691
▁to	-12692
▁不是	-12693
▁与其	-12694
▁个人	-12695
▁债务	-12696
▁允许	-12697
▁反之	-12698
▁想想	-12699
▁战争	-12700
▁明年	-12701
▁更为	-12702
▁经过	-12703
▁要么	-12704
一定的	-12705
一年前	-12706
上涨了	-12707
不但要	-12708
不抵债	-12709
丝毫不	-12710
两个月	-12711
两者的	-12712
临时性	-12713
也有所	-12714
也确实	-12715
了大约	-12716
了道路	-12717
产生于	-12718
人们在	-12719
他人的	-12720
他们还	-12721
件好事	-12722
会选择	-12723
似乎都	-12724
但他的	-12725
作出了	-12726
你可以	-12727
使它们	-12728
促进了	-12729
保护的	-12730
保证金	-12731
先发制	-12732
克格勃	-12733
共同点	-12734
关注点	-12735
其影响	-12736
出租车	-12737
出资者	-12738
剩下的	-12739
力更生	-12740
占据着	-12741
却未能	-12742
发出了	-12743
发言人	-12744
可能给	-12745
可能让	-12746
司法部	-12747
否决了	-12748
和外部	-12749
和维持	-12750
和越南	-12751
土库曼	-12752
在西方	-12753
在那些	-12754
坚定地	-12755
大体上	-12756
大气中	-12757
女性在	-12758
宗教和	-12759
官员的	-12760
宣布将	-12761
对政治	-12762
对环境	-12763
对金融	-12764
就一直	-12765
已经使	-12766
巴乔夫	-12767
市场化	-12768
年年中	-12769
并同时	-12770
幸福感	-12771
延伸到	-12772
很显然	-12773
心理学	-12774
必须的	-12775
性价比	-12776
意思是	-12777
手段的	-12778
承诺将	-12779
抗氧化	-12780
推翻了	-12781
推行的	-12782
提到了	-12783
无疑是	-12784
旧金山	-12785
是否在	-12786
是这一	-12787
是这些	-12788
最脆弱	-12789
月中旬	-12790
月开始	-12791
有一半	-12792
李光耀	-12793
来完成	-12794
某些人	-12795
核协议	-12796
比以前	-12797
污染的	-12798
泛欧洲	-12799
泡沫的	-12800
注定要	-12801
洛杉矶	-12802
流向了	-12803
消费税	-12804
犯下的	-12805
生命的	-12806
由中国	-12807
的一代	-12808
的一篇	-12809
的人物	-12810
的传播	-12811
的共识	-12812
的具体	-12813
的冲击	-12814
的决心	-12815
的前任	-12816
的就是	-12817
的快速	-12818
的情绪	-12819
的意见	-12820
的愤怒	-12821
的报道	-12822
的条款	-12823
的消费	-12824
的痛苦	-12825
的运动	-12826
确实是	-12827
科学的	-12828
管辖权	-12829
精英们	-12830
给中国	-12831
罗纳德	-12832
至今日	-12833
艺术品	-12834
英国和	-12835
萨诸塞	-12836
让这些	-12837
该政策	-12838
该项目	-12839
货币化	-12840
还可能	-12841
还远未	-12842
这一幕	-12843
这三个	-12844
这样说	-12845
进入到	-12846
遭受了	-12847
都是由	-12848
重点是	-12849
随时间	-12850
非理性	-12851
非银行	-12852
面对着	-12853
马杜罗	-12854
IPCC	-12855
ange	-12856
oham	-12857
▁For	-12858
▁但现实	-12859
▁但目前	-12860
▁克林顿	-12861
▁委员会	-12862
▁对欧洲	-12863
▁民主党	-12864
▁经济学	-12865
▁美国和	-12866
▁而对于	-12867
▁而现在	-12868
▁而由于	-12869
▁该地区	-12870
▁这可能	-12871
不再需要	-12872
不可思议	-12873
不断加剧	-12874
不断变化	-12875
两个国家	-12876
中国人民	-12877
中的一个	-12878
之一就是	-12879
交易成本	-12880
人们开始	-12881
人民币的	-12882
他们需要	-12883
令人振奋	-12884
任何人都	-12885
侵犯人权	-12886
克罗地亚	-12887
公共利益	-12888
公司税率	-12889
公私合作	-12890
再次发生	-12891
加沙地带	-12892
包容性的	-12893
博茨瓦纳	-12894
可以带来	-12895
可能无法	-12896
和菲律宾	-12897
因果关系	-12898
团结起来	-12899
国际机构	-12900
大幅上升	-12901
始作俑者	-12902
它们必须	-12903
实际情况	-12904
就是为了	-12905
工作机会	-12906
已经存在	-12907
已经导致	-12908
希望通过	-12909
德克萨斯	-12910
总统普京	-12911
我们认为	-12912
或许可以	-12913
扎克伯格	-12914
把注意力	-12915
提供一个	-12916
政府正在	-12917
政治人物	-12918
政治权力	-12919
施加压力	-12920
昂山素季	-12921
暴力活动	-12922
更强大的	-12923
最后一次	-12924
权宜之计	-12925
极低利率	-12926
柔性力量	-12927
欧洲安全	-12928
欧盟成员	-12929
正在日益	-12930
毫不犹豫	-12931
民主联盟	-12932
民间社会	-12933
消除贫困	-12934
爆发以来	-12935
特别是对	-12936
犹豫不决	-12937
独立性的	-12938
的失业率	-12939
的新技术	-12940
的领导者	-12941
相似之处	-12942
离开欧盟	-12943
竞争优势	-12944
经济停滞	-12945
网络攻击	-12946
美国公司	-12947
美国已经	-12948
能够确保	-12949
能源政策	-12950
自力更生	-12951
自动化的	-12952
菲尔普斯	-12953
财政大臣	-12954
财政契约	-12955
货币升值	-12956
货币战争	-12957
资不抵债	-12958
这一状况	-12959
退休年龄	-12960
重新获得	-12961
银行账户	-12962
长期债券	-12963
长期投资	-12964
阿鲁纳恰	-12965
8,000	-12966
▁但中国的	-12967
▁特朗普的	-12968
▁英国退欧	-12969
▁这一趋势	-12970
不平等现象	-12971
世界经济的	-12972
中东和北非	-12973
之间的差距	-12974
也同样如此	-12975
取得了成功	-12976
引人注目的	-12977
总理温家宝	-12978
戈尔巴乔夫	-12979
房地产价格	-12980
日益严重的	-12981
欧盟国家的	-12982
生活在一个	-12983
生活水平的	-12984
的一份报告	-12985
的意识形态	-12986
的政治意愿	-12987
的最佳方式	-12988
经济学家们	-12989
经济的发展	-12990
许多人认为	-12991
这样的结果	-12992
Thomas	-12993
▁Found	-12994
▁埃塞俄比亚	-12995
加入世贸组织	-12996
带来了巨大的	-12997
抗菌素耐药性	-12998
解决这个问题	-12999
解决这些问题	-13000
量化宽松政策	-13001
▁中国人民银行	-13002
▁现在的问题是	-13003
公开市场委员会	-13004
至关重要的作用	-13005
减少温室气体排放	-13006
马斯特里赫特条约	-13007
▁Partners	-13008
▁Foundation	-13009
,4	-13010
,7	-13011
Am	-13012
Cl	-13013
ME	-13014
St	-13015
ky	-13016
ok	-13017
ug	-13018
▁f	-13019
▁五	-13020
▁会	-13021
▁只	-13022
▁哈	-13023
▁安	-13024
▁时	-13025
▁波	-13026
▁科	-13027
三方	-13028
上游	-13029
上风	-13030
不对	-13031
专员	-13032
主人	-13033
乱象	-13034
产值	-13035
人体	-13036
会为	-13037
会见	-13038
佩克	-13039
借用	-13040
僧侣	-13041
元首	-13042
公寓	-13043
公海	-13044
出访	-13045
出身	-13046
则为	-13047
制衣	-13048
劫持	-13049
勾结	-13050
化了	-13051
匹马	-13052
单枪	-13053
博科	-13054
又被	-13055
发声	-13056
受助	-13057
可控	-13058
合乎	-13059
吉斯	-13060
名的	-13061
和海	-13062
回落	-13063
国库	-13064
在我	-13065
在最	-13066
堕落	-13067
增幅	-13068
处罚	-13069
多拉	-13070
大权	-13071
太高	-13072
夫妇	-13073
奉献	-13074
它会	-13075
安装	-13076
宪政	-13077
寥寥	-13078
对准	-13079
将它	-13080
小麦	-13081
少量	-13082
尼泊	-13083
山大	-13084
干脆	-13085
平庸	-13086
并从	-13087
度过	-13088
异议	-13089
彩票	-13090
影片	-13091
忘了	-13092
快乐	-13093
怨恨	-13094
怪异	-13095
患有	-13096
患病	-13097
我和	-13098
所要	-13099
打着	-13100
投诉	-13101
抵扣	-13102
拿到	-13103
挤压	-13104
挫败	-13105
推销	-13106
搁置	-13107
撒钱	-13108
收买	-13109
数年	-13110
断层	-13111
无误	-13112
早教	-13113
是从	-13114
曾被	-13115
机动	-13116
构造	-13117
查理	-13118
样子	-13119
核弹	-13120
案中	-13121
桑比	-13122
款项	-13123
步履	-13124
每人	-13125
泛滥	-13126
泰勒	-13127
洛夫	-13128
海滩	-13129
涨幅	-13130
深圳	-13131
渔民	-13132
温床	-13133
滞后	-13134
演进	-13135
犯了	-13136
珍视	-13137
理顺	-13138
病患	-13139
病菌	-13140
的地	-13141
的钱	-13142
盈率	-13143
盲目	-13144
相悖	-13145
眼看	-13146
矛头	-13147
神奇	-13148
穆兄	-13149
穆特	-13150
空洞	-13151
童工	-13152
笼罩	-13153
签字	-13154
线索	-13155
绝佳	-13156
缔约	-13157
罢工	-13158
美丽	-13159
者都	-13160
腾讯	-13161
自称	-13162
自足	-13163
舒适	-13164
船只	-13165
艾伦	-13166
芯片	-13167
英尺	-13168
表演	-13169
表述	-13170
袖手	-13171
要低	-13172
认证	-13173
说他	-13174
说出	-13175
课税	-13176
贫民	-13177
赞誉	-13178
足联	-13179
较大	-13180
过滤	-13181
还债	-13182
远非	-13183
退步	-13184
透露	-13185
遴选	-13186
重返	-13187
钞票	-13188
铁幕	-13189
错失	-13190
问及	-13191
闲置	-13192
陈词	-13193
非盟	-13194
韧性	-13195
预定	-13196
高位	-13197
鬼城	-13198
2.1	-13199
2.7	-13200
ver	-13201
▁11	-13202
▁21	-13203
▁不要	-13204
▁加强	-13205
▁反对	-13206
▁推动	-13207
▁改善	-13208
▁本周	-13209
▁每天	-13210
▁监管	-13211
▁直接	-13212
▁研究	-13213
▁简单	-13214
▁而对	-13215
▁要求	-13216
▁谷歌	-13217
▁这让	-13218
▁降低	-13219
一定要	-13220
三个月	-13221
不仅在	-13222
不会再	-13223
与印度	-13224
中发挥	-13225
中汲取	-13226
之前就	-13227
也承认	-13228
了一番	-13229
了不起	-13230
了他的	-13231
从而在	-13232
他们都	-13233
以保证	-13234
以致于	-13235
任命为	-13236
会引起	-13237
但这种	-13238
低效率	-13239
减少到	-13240
出一个	-13241
则需要	-13242
制度性	-13243
前首相	-13244
副主席	-13245
卡斯特	-13246
卡梅隆	-13247
却从未	-13248
原来的	-13249
只是在	-13250
可贸易	-13251
合理地	-13252
向欧洲	-13253
和一个	-13254
和信用	-13255
和工资	-13256
和执行	-13257
和改善	-13258
和行为	-13259
哈里发	-13260
喀拉拉	-13261
四十年	-13262
圣保罗	-13263
地下水	-13264
增加值	-13265
复苏的	-13266
外交部	-13267
大企业	-13268
奥斯陆	-13269
威胁着	-13270
子公司	-13271
安全性	-13272
家庭和	-13273
富人的	-13274
对某些	-13275
对自己	-13276
对自身	-13277
寻常的	-13278
将大大	-13279
就是要	-13280
就越大	-13281
常常是	-13282
年实现	-13283
当今的	-13284
很清楚	-13285
很高的	-13286
必要时	-13287
必须要	-13288
总统和	-13289
我们要	-13290
所取代	-13291
所显示	-13292
打破了	-13293
把美国	-13294
抗药性	-13295
拉姆斯	-13296
提升了	-13297
支持和	-13298
政府所	-13299
方式来	-13300
方设法	-13301
明日黄	-13302
普遍的	-13303
更喜欢	-13304
更廉价	-13305
更紧密	-13306
最低的	-13307
最糟糕	-13308
月份的	-13309
有缺陷	-13310
条道路	-13311
来保护	-13312
来承担	-13313
来支撑	-13314
极低的	-13315
此以后	-13316
水平上	-13317
沃尔夫	-13318
泽纳维	-13319
特里亚	-13320
理论的	-13321
百万人	-13322
的反腐	-13323
的名字	-13324
的困境	-13325
的困扰	-13326
的大陆	-13327
的孩子	-13328
的对立	-13329
的情形	-13330
的意义	-13331
的成就	-13332
的指控	-13333
的攻击	-13334
的最初	-13335
的最终	-13336
的极端	-13337
的逻辑	-13338
的高级	-13339
相应的	-13340
相当长	-13341
相比较	-13342
确定的	-13343
社区的	-13344
管理局	-13345
纯粹的	-13346
组成了	-13347
维持着	-13348
罗格夫	-13349
而且在	-13350
而且是	-13351
而现在	-13352
而获得	-13353
联合会	-13354
色革命	-13355
英联邦	-13356
莫桑比	-13357
萨尔瓦	-13358
行不通	-13359
让市场	-13360
识别区	-13361
试图在	-13362
该区域	-13363
该行业	-13364
资本家	-13365
资本金	-13366
赋予了	-13367
超越了	-13368
过多的	-13369
这两者	-13370
这也许	-13371
这些新	-13372
进出口	-13373
进步的	-13374
进程中	-13375
适当的	-13376
选择是	-13377
通过在	-13378
通过将	-13379
道德上	-13380
都具有	-13381
难民的	-13382
预料到	-13383
马歇尔	-13384
马里奥	-13385
黑天鹅	-13386
鼓吹者	-13387
齐奥塞	-13388
1984	-13389
Bern	-13390
emoc	-13391
illi	-13392
reat	-13393
ried	-13394
vest	-13395
▁Man	-13396
▁Pen	-13397
▁他们还	-13398
▁但今天	-13399
▁但只要	-13400
▁但欧盟	-13401
▁卡梅伦	-13402
▁年轻人	-13403
▁当前的	-13404
▁真正的	-13405
▁而那些	-13406
▁至少在	-13407
▁这些人	-13408
▁这导致	-13409
一点都不	-13410
不仅包括	-13411
不可预测	-13412
不是什么	-13413
严重不足	-13414
中期选举	-13415
中的地位	-13416
什么时候	-13417
仍在继续	-13418
他们就会	-13419
以及美国	-13420
优先事项	-13421
但并没有	-13422
俄罗斯在	-13423
借款人的	-13424
债务问题	-13425
健康问题	-13426
偿债能力	-13427
全民公投	-13428
全球失衡	-13429
全球教育	-13430
军事政变	-13431
农业政策	-13432
决策者们	-13433
创纪录的	-13434
制药企业	-13435
十分有限	-13436
协调一致	-13437
单枪匹马	-13438
历史记录	-13439
反犹主义	-13440
发展模式	-13441
只是为了	-13442
可以理解	-13443
可能引发	-13444
可能面临	-13445
和乌克兰	-13446
商业投资	-13447
国际储备	-13448
在华盛顿	-13449
基本权利	-13450
增长目标	-13451
外交关系	-13452
外部冲击	-13453
如此多的	-13454
安全部队	-13455
官僚机构	-13456
对冲基金	-13457
尚不清楚	-13458
就职演说	-13459
工作年龄	-13460
已经变得	-13461
帮助我们	-13462
平均每年	-13463
年轻一代	-13464
恐怖活动	-13465
成本效益	-13466
我们知道	-13467
所指出的	-13468
所有问题	-13469
才能获得	-13470
托克维尔	-13471
抓住机会	-13472
援助资金	-13473
改变现状	-13474
政府收入	-13475
数十年的	-13476
无可否认	-13477
无法得到	-13478
无法接受	-13479
是这样的	-13480
有所帮助	-13481
正常化的	-13482
段时间内	-13483
民主政体	-13484
民主选举	-13485
汇率波动	-13486
流动性和	-13487
流动性的	-13488
消费增长	-13489
漠不关心	-13490
独裁统治	-13491
生物多样	-13492
的人民币	-13493
的价值观	-13494
的共和党	-13495
的情况是	-13496
的环境下	-13497
皮诺切特	-13498
研究显示	-13499
私营企业	-13500
等方面的	-13501
结合起来	-13502
美国国债	-13503
能够得到	-13504
花旗集团	-13505
血红蛋白	-13506
袖手旁观	-13507
认真考虑	-13508
调查结果	-13509
货币供应	-13510
货币当局	-13511
达赖喇嘛	-13512
过去十年	-13513
这一地区	-13514
这么一个	-13515
都出现了	-13516
金融时报	-13517
金融资产	-13518
长远来看	-13519
陷入衰退	-13520
随之而来	-13521
预期寿命	-13522
高级代表	-13523
andMe	-13524
▁作为一个	-13525
▁其中包括	-13526
▁在最近的	-13527
▁尽管存在	-13528
▁经合组织	-13529
▁结果导致	-13530
▁这些措施	-13531
专门委员会	-13532
主要是因为	-13533
仍然是一个	-13534
从现在开始	-13535
伊斯兰教徒	-13536
公共和私人	-13537
几乎肯定会	-13538
创造了一个	-13539
加入欧盟的	-13540
劳动力大军	-13541
单一市场的	-13542
和巴基斯坦	-13543
应该认识到	-13544
持不同政见	-13545
新兴国家的	-13546
更加可持续	-13547
极端主义的	-13548
根深蒂固的	-13549
海平面上升	-13550
潜在增长率	-13551
的民粹主义	-13552
的速度增长	-13553
碳氢化合物	-13554
系统性风险	-13555
经济增长和	-13556
臭名昭著的	-13557
艰巨的挑战	-13558
英国独立党	-13559
还远远不够	-13560
铺平了道路	-13561
阿萨德政权	-13562
齐奥塞斯库	-13563
50,000	-13564
ichard	-13565
▁但不幸的是	-13566
▁麦肯锡全球	-13567
世界上最大的	-13568
中等收入陷阱	-13569
作为一个整体	-13570
全球经济危机	-13571
发达经济体的	-13572
和其他国家的	-13573
在全球范围内	-13574
▁Health	-13575
▁这并不意味着	-13576
▁Summers	-13577
▁在这样的环境下	-13578
北美自由贸易协定	-13579
▁International	-13580
5—	-13581
88	-13582
BC	-13583
BS	-13584
CR	-13585
En	-13586
IA	-13587
VI	-13588
▁下	-13589
▁且	-13590
▁乍	-13591
▁好	-13592
一向	-13593
一提	-13594
三项	-13595
下而	-13596
不丹	-13597
不好	-13598
中也	-13599
为一	-13600
乌拉	-13601
亚贝	-13602
交叉	-13603
人是	-13604
代尔	-13605
以其	-13606
以更	-13607
以求	-13608
任意	-13609
但与	-13610
低点	-13611
何况	-13612
停顿	-13613
克什	-13614
克和	-13615
党员	-13616
兜售	-13617
全胜	-13618
全额	-13619
公式	-13620
兰特	-13621
出乎	-13622
刊登	-13623
初选	-13624
利得	-13625
前线	-13626
勒颇	-13627
十一	-13628
危地	-13629
受人	-13630
口气	-13631
古代	-13632
可危	-13633
可达	-13634
各式	-13635
启蒙	-13636
善于	-13637
囚禁	-13638
四国	-13639
回升	-13640
国旗	-13641
地为	-13642
塔吉	-13643
外人	-13644
多余	-13645
大事	-13646
大厦	-13647
大惊	-13648
大谈	-13649
失踪	-13650
夺取	-13651
奋力	-13652
孤独	-13653
学到	-13654
学费	-13655
实时	-13656
将有	-13657
岌岌	-13658
已知	-13659
带入	-13660
年至	-13661
并于	-13662
弹药	-13663
归还	-13664
意欲	-13665
战役	-13666
手脚	-13667
扫地	-13668
把钱	-13669
拉登	-13670
指示	-13671
提取	-13672
放贷	-13673
整套	-13674
文献	-13675
新任	-13676
无尽	-13677
是指	-13678
暴动	-13679
暴君	-13680
更换	-13681
最早	-13682
有余	-13683
末期	-13684
条路	-13685
杰里	-13686
枪击	-13687
核查	-13688
格莱	-13689
欧派	-13690
死灰	-13691
每日	-13692
水面	-13693
注射	-13694
流域	-13695
炎热	-13696
热浪	-13697
爱沙	-13698
瓦拉	-13699
用词	-13700
登上	-13701
白白	-13702
的代	-13703
眼睛	-13704
研讨	-13705
碰撞	-13706
禁毒	-13707
私密	-13708
窒息	-13709
立陶	-13710
端的	-13711
管治	-13712
管用	-13713
纵容	-13714
给他	-13715
给定	-13716
缺位	-13717
置身	-13718
而无	-13719
联酋	-13720
聚会	-13721
肆无	-13722
育儿	-13723
能以	-13724
自卫	-13725
自问	-13726
菲特	-13727
萨姆	-13728
蒸发	-13729
虔诚	-13730
虚构	-13731
血管	-13732
西奥	-13733
警觉	-13734
诉诸	-13735
请求	-13736
调低	-13737
资深	-13738
越长	-13739
趋于	-13740
跟进	-13741
跟随	-13742
蹒跚	-13743
连通	-13744
迷惑	-13745
选手	-13746
通向	-13747
道义	-13748
酒精	-13749
金氏	-13750
钻井	-13751
铲除	-13752
随心	-13753
雅图	-13754
雨林	-13755
风电	-13756
首当	-13757
驾驭	-13758
高得	-13759
默认	-13760
0.2	-13761
10.	-13762
2.0	-13763
2.3	-13764
2/3	-13765
Nex	-13766
Pro	-13767
ans	-13768
arm	-13769
itz	-13770
ley	-13771
off	-13772
ump	-13773
▁30	-13774
▁Bo	-13775
▁De	-13776
▁一般	-13777
▁但有	-13778
▁农业	-13779
▁减少	-13780
▁北约	-13781
▁南非	-13782
▁国内	-13783
▁它的	-13784
▁它还	-13785
▁就是	-13786
▁并在	-13787
▁成为	-13788
▁普通	-13789
▁更糟	-13790
▁第五	-13791
▁结束	-13792
▁表明	-13793
▁这位	-13794
一个月	-13795
一国的	-13796
一直被	-13797
上升至	-13798
不包括	-13799
不容易	-13800
与全球	-13801
与国际	-13802
世界观	-13803
中得到	-13804
为这一	-13805
之一的	-13806
也并非	-13807
也相当	-13808
也逐渐	-13809
了那些	-13810
亚的斯	-13811
亚贝巴	-13812
人员和	-13813
从而为	-13814
会受到	-13815
会影响	-13816
会破坏	-13817
但并未	-13818
体现出	-13819
作斗争	-13820
例子是	-13821
依赖的	-13822
倡导者	-13823
免不了	-13824
全人类	-13825
共同化	-13826
其主要	-13827
军队和	-13828
冲突中	-13829
出一辙	-13830
出生于	-13831
制造的	-13832
前提是	-13833
北部的	-13834
发动机	-13835
另一次	-13836
可怜的	-13837
后果的	-13838
和使用	-13839
和共同	-13840
和持续	-13841
和改革	-13842
和法律	-13843
和石油	-13844
和风险	-13845
在日本	-13846
在解决	-13847
在这种	-13848
埃及人	-13849
增强了	-13850
处理好	-13851
大使馆	-13852
大自然	-13853
大问题	-13854
姆斯特	-13855
学者和	-13856
它们将	-13857
安德鲁	-13858
对整个	-13859
就显得	-13860
尼泊尔	-13861
屈服于	-13862
并不比	-13863
当下的	-13864
徘徊在	-13865
必须为	-13866
必须对	-13867
思想和	-13868
想不到	-13869
想要的	-13870
或政治	-13871
才能让	-13872
执政者	-13873
扩展到	-13874
投入了	-13875
拉美和	-13876
指的是	-13877
掌握了	-13878
支付的	-13879
收到了	-13880
政府与	-13881
救世主	-13882
新西兰	-13883
方方面	-13884
无法让	-13885
既没有	-13886
是否有	-13887
更严格	-13888
更健康	-13889
来解释	-13890
核威胁	-13891
正处在	-13892
民众对	-13893
消除了	-13894
状况的	-13895
现在就	-13896
由政府	-13897
的一点	-13898
的不到	-13899
的举动	-13900
的借口	-13901
的动机	-13902
的另一	-13903
的外国	-13904
的姿态	-13905
的定义	-13906
的干预	-13907
的年均	-13908
的政党	-13909
的疾病	-13910
的社区	-13911
的立法	-13912
的竞选	-13913
的融资	-13914
的裁决	-13915
的警告	-13916
的评论	-13917
的诱惑	-13918
的过去	-13919
的进展	-13920
目睹了	-13921
相形见	-13922
科学和	-13923
科学院	-13924
立陶宛	-13925
竞争和	-13926
第三次	-13927
第三种	-13928
繁荣和	-13929
经常会	-13930
而如今	-13931
而德国	-13932
而遭到	-13933
联系的	-13934
自主权	-13935
至少要	-13936
落后的	-13937
衡量的	-13938
袭击了	-13939
证实了	-13940
该机构	-13941
进化论	-13942
适应性	-13943
那么多	-13944
都希望	-13945
阶段的	-13946
食品和	-13947
1971	-13948
1978	-13949
Alan	-13950
ecur	-13951
edic	-13952
tive	-13953
▁195	-13954
▁Mon	-13955
▁主要是	-13956
▁但人们	-13957
▁但没有	-13958
▁其结果	-13959
▁只有当	-13960
▁哈马斯	-13961
▁在其他	-13962
▁在去年	-13963
▁很显然	-13964
▁最大的	-13965
▁有人说	-13966
▁第一种	-13967
一小部分	-13968
不仅需要	-13969
不会发生	-13970
不会因为	-13971
不再能够	-13972
不平等的	-13973
不断恶化	-13974
严重威胁	-13975
中国崛起	-13976
中国当局	-13977
乌克兰人	-13978
也不例外	-13979
习近平的	-13980
二战以来	-13981
仅仅因为	-13982
仍然可以	-13983
以色列人	-13984
任何其他	-13985
信用评级	-13986
入主白宫	-13987
公民自由	-13988
其它国家	-13989
创业企业	-13990
刺激措施	-13991
刺激政策	-13992
加入其中	-13993
卡尔扎伊	-13994
卡斯特罗	-13995
卫生保健	-13996
危地马拉	-13997
历史性的	-13998
参与其中	-13999
参与者的	-14000
双管齐下	-14001
反对意见	-14002
发动战争	-14003
发展计划	-14004
只有少数	-14005
可以肯定	-14006
合作关系	-14007
国际象棋	-14008
土耳其人	-14009
在美国的	-14010
增加支出	-14011
大有裨益	-14012
大部分是	-14013
如出一辙	-14014
如果美国	-14015
实力平衡	-14016
宪法法院	-14017
对其进行	-14018
导致美国	-14019
寿命预期	-14020
就业增长	-14021
尽管美国	-14022
岌岌可危	-14023
已经有了	-14024
已经超过	-14025
已经过去	-14026
已经非常	-14027
平衡预算	-14028
开始实施	-14029
快速变化	-14030
想方设法	-14031
意大利人	-14032
慈善机构	-14033
成为欧洲	-14034
战略利益	-14035
抗氧化剂	-14036
指导原则	-14037
援助计划	-14038
收支平衡	-14039
政府政策	-14040
政治学家	-14041
政治改革	-14042
是否愿意	-14043
更不要说	-14044
更倾向于	-14045
更加困难	-14046
更加重要	-14047
更长时间	-14048
最近指出	-14049
服务业的	-14050
本国货币	-14051
来说都是	-14052
核反应堆	-14053
欧洲政治	-14054
欧盟宪法	-14055
正在增加	-14056
死灰复燃	-14057
民调显示	-14058
海湾国家	-14059
爱沙尼亚	-14060
电子邮件	-14061
的合法性	-14062
的时候了	-14063
的进一步	-14064
监管者的	-14065
社会保险	-14066
移民政策	-14067
紧密合作	-14068
纽约时报	-14069
经济中的	-14070
经济合作	-14071
美国必须	-14072
耐药性的	-14073
肆无忌惮	-14074
自由化的	-14075
自由裁量	-14076
苦苦挣扎	-14077
葛兰运动	-14078
虚假信息	-14079
要求银行	-14080
认为他们	-14081
证据显示	-14082
负责任的	-14083
货币紧缩	-14084
贷款人的	-14085
贸易逆差	-14086
资产管理	-14087
起的作用	-14088
边际税率	-14089
过度依赖	-14090
这一切都	-14091
这些企业	-14092
这些趋势	-14093
逍遥法外	-14094
通胀预期	-14095
重大变化	-14096
重大进步	-14097
重新统一	-14098
随心所欲	-14099
需要通过	-14100
需要采取	-14101
非常相似	-14102
领土争端	-14103
领土纠纷	-14104
领导者的	-14105
首要任务	-14106
高质量的	-14107
6,000	-14108
—2012	-14109
▁1989	-14110
▁Krug	-14111
▁其中一个	-14112
▁尽管中国	-14113
▁我们不能	-14114
▁英国退出	-14115
▁这样一来	-14116
不平等性的	-14117
世界最大的	-14118
中国和南非	-14119
中欧和东欧	-14120
主要集中在	-14121
亚洲经济体	-14122
伊斯兰革命	-14123
债券持有人	-14124
共产主义的	-14125
发生了改变	-14126
和其他许多	-14127
实体经济的	-14128
巨大的经济	-14129
带来的好处	-14130
并不是一个	-14131
并没有什么	-14132
开发银行的	-14133
快速增长的	-14134
成立了一个	-14135
政治和社会	-14136
数万亿美元	-14137
日益增长的	-14138
最贫困国家	-14139
来说是一个	-14140
毫无疑问是	-14141
气候变化和	-14142
特别是如果	-14143
的一小部分	-14144
的关键因素	-14145
的军事行动	-14146
的国际秩序	-14147
的外交政策	-14148
的生活水平	-14149
第一个任期	-14150
美国和欧盟	-14151
自己的利益	-14152
解释为什么	-14153
财政政策的	-14154
资本市场的	-14155
这样的政策	-14156
进一步增加	-14157
马克思主义	-14158
亚的斯亚贝巴	-14159
国务卿希拉里	-14160
基础设施支出	-14161
太阳能和风能	-14162
很长一段时间	-14163
拉姆斯菲尔德	-14164
收紧货币政策	-14165
特别是考虑到	-14166
结核病和疟疾	-14167
认识到这一点	-14168
说明了这一点	-14169
非洲开发银行	-14170
Charles	-14171
Michael	-14172
Richard	-14173
▁Policy	-14174
itiative	-14175
▁Krugman	-14176
▁发自华盛顿特区	-14177
叙利亚总统巴沙尔	-14178
地方政府融资平台	-14179
▁Bernanke	-14180
▁National	-14181
,3	-14182
41	-14183
67	-14184
BT	-14185
SC	-14186
aj	-14187
ax	-14188
gy	-14189
▁二	-14190
▁使	-14191
▁布	-14192
▁水	-14193
▁较	-14194
▁还	-14195
一线	-14196
上空	-14197
不为	-14198
不经	-14199
专属	-14200
东非	-14201
也使	-14202
也没	-14203
乡村	-14204
五国	-14205
交接	-14206
什图	-14207
以免	-14208
伦齐	-14209
住在	-14210
作风	-14211
你会	-14212
充裕	-14213
八个	-14214
公斤	-14215
几家	-14216
几种	-14217
几项	-14218
创办	-14219
创意	-14220
利的	-14221
力地	-14222
加盟	-14223
助益	-14224
十三	-14225
十足	-14226
午餐	-14227
华沙	-14228
反之	-14229
发育	-14230
受众	-14231
受审	-14232
可是	-14233
合力	-14234
合资	-14235
后尘	-14236
向上	-14237
含有	-14238
周末	-14239
品种	-14240
四川	-14241
国与	-14242
地被	-14243
坦白	-14244
基辅	-14245
塞罗	-14246
多国	-14247
大增	-14248
大片	-14249
大跌	-14250
天生	-14251
太低	-14252
如下	-14253
子和	-14254
学前	-14255
学历	-14256
安娜	-14257
安然	-14258
宣誓	-14259
宫颈	-14260
家的	-14261
已将	-14262
帕斯	-14263
带给	-14264
年一	-14265
底线	-14266
开出	-14267
开辟	-14268
弱化	-14269
德黑	-14270
心目	-14271
忠实	-14272
惨痛	-14273
感知	-14274
慢慢	-14275
或在	-14276
手可	-14277
打折	-14278
抵触	-14279
拼命	-14280
捕鱼	-14281
推崇	-14282
撤回	-14283
支援	-14284
政局	-14285
救市	-14286
教益	-14287
散播	-14288
断言	-14289
斯图	-14290
新近	-14291
时宜	-14292
是为	-14293
是的	-14294
最强	-14295
有罪	-14296
未被	-14297
来做	-14298
果实	-14299
某位	-14300
树木	-14301
汇聚	-14302
汇集	-14303
沃夫	-14304
洪灾	-14305
深厚	-14306
深渊	-14307
温暖	-14308
湄公	-14309
滋生	-14310
激情	-14311
灭亡	-14312
热潮	-14313
版权	-14314
牵头	-14315
狼藉	-14316
率先	-14317
瓦尔	-14318
生死	-14319
用在	-14320
界的	-14321
畜牧	-14322
的有	-14323
相差	-14324
相邻	-14325
看见	-14326
真诚	-14327
着实	-14328
确诊	-14329
私利	-14330
秉承	-14331
积压	-14332
移居	-14333
税法	-14334
突显	-14335
窗口	-14336
站稳	-14337
等价	-14338
等的	-14339
算计	-14340
精诚	-14341
纳森	-14342
维基	-14343
维夫	-14344
罚金	-14345
美的	-14346
胜选	-14347
能比	-14348
脚跟	-14349
茶党	-14350
蒙蒂	-14351
行星	-14352
裙带	-14353
西尔	-14354
要点	-14355
计入	-14356
讨好	-14357
议案	-14358
诅咒	-14359
识字	-14360
谈到	-14361
负有	-14362
贪污	-14363
贯穿	-14364
赛尔	-14365
跃进	-14366
路口	-14367
践踏	-14368
身后	-14369
近在	-14370
这块	-14371
追寻	-14372
都与	-14373
都由	-14374
错过	-14375
长大	-14376
附带	-14377
领取	-14378
驳斥	-14379
驻军	-14380
鹰派	-14381
黄豆	-14382
-90	-14383
0.1	-14384
13%	-14385
16%	-14386
2.2	-14387
2.4	-14388
550	-14389
FSB	-14390
ade	-14391
oci	-14392
ock	-14393
ors	-14394
red	-14395
ree	-14396
▁Ar	-14397
▁IP	-14398
▁上海	-14399
▁不同	-14400
▁乔治	-14401
▁加州	-14402
▁双方	-14403
▁影响	-14404
▁所谓	-14405
▁此举	-14406
▁环境	-14407
▁缅甸	-14408
▁自然	-14409
▁迪拜	-14410
▁面临	-14411
万亿元	-14412
下一场	-14413
不完美	-14414
不论是	-14415
世纪末	-14416
严峻的	-14417
中占据	-14418
临界点	-14419
也未能	-14420
了一条	-14421
代价的	-14422
以中国	-14423
以何种	-14424
以时日	-14425
以满足	-14426
以维持	-14427
以解决	-14428
以降低	-14429
会因为	-14430
会引发	-14431
伯利恒	-14432
但政府	-14433
但是它	-14434
使用者	-14435
保守的	-14436
做生意	-14437
像美国	-14438
兴奋剂	-14439
其结果	-14440
其长期	-14441
再培训	-14442
决定要	-14443
切莱特	-14444
制度化	-14445
动力的	-14446
区域性	-14447
医学院	-14448
博物馆	-14449
压力下	-14450
厢情愿	-14451
又一场	-14452
发动了	-14453
发病率	-14454
可能要	-14455
可预防	-14456
和公众	-14457
和媒体	-14458
和税收	-14459
和西方	-14460
和许多	-14461
国内部	-14462
在议会	-14463
城市和	-14464
增加对	-14465
大手笔	-14466
大范围	-14467
央行在	-14468
如今的	-14469
季度的	-14470
它需要	-14471
安排的	-14472
宫颈癌	-14473
富裕的	-14474
对日本	-14475
将被迫	-14476
将迫使	-14477
小得多	-14478
尼古拉	-14479
峰会的	-14480
工资和	-14481
左翼和	-14482
已故的	-14483
市盈率	-14484
布拉格	-14485
年增长	-14486
并接受	-14487
应当是	-14488
应该对	-14489
开发和	-14490
引出了	-14491
当我们	-14492
德黑兰	-14493
志愿者	-14494
成立于	-14495
我们为	-14496
所处的	-14497
所经历	-14498
所要求	-14499
所遭受	-14500
批准的	-14501
把它们	-14502
抑制剂	-14503
拉加德	-14504
拖累了	-14505
持续性	-14506
指出了	-14507
据估计	-14508
排除了	-14509
控制在	-14510
推动下	-14511
效率和	-14512
斗争中	-14513
新兴和	-14514
新生儿	-14515
无休止	-14516
是实现	-14517
是所有	-14518
更强大	-14519
更快地	-14520
曼德拉	-14521
有害的	-14522
本人的	-14523
权力和	-14524
来处理	-14525
来实施	-14526
来形容	-14527
来防止	-14528
核心国	-14529
根本就	-14530
欧元和	-14531
正在被	-14532
济于事	-14533
灾难的	-14534
现阶段	-14535
的人力	-14536
的代表	-14537
的信仰	-14538
的减少	-14539
的区域	-14540
的双重	-14541
的对象	-14542
的将来	-14543
的广泛	-14544
的真相	-14545
的自我	-14546
的许多	-14547
的进口	-14548
着重于	-14549
破产法	-14550
福克斯	-14551
签订的	-14552
米歇尔	-14553
约束力	-14554
给予了	-14555
缓慢的	-14556
罗德里	-14557
美国前	-14558
而其他	-14559
自由党	-14560
苏联的	-14561
表现的	-14562
记者的	-14563
证明其	-14564
责任和	-14565
还不是	-14566
这笔钱	-14567
远大于	-14568
遏制了	-14569
都将是	-14570
都有所	-14571
采用的	-14572
金融城	-14573
陈词滥	-14574
陷入到	-14575
难以为	-14576
预测到	-14577
饥饿和	-14578
高增长	-14579
高失业	-14580
高水平	-14581
1900	-14582
1981	-14583
2.5%	-14584
2040	-14585
6.5%	-14586
7000	-14587
8000	-14588
rank	-14589
▁伊斯兰	-14590
▁但虽然	-14591
▁我们还	-14592
▁接下来	-14593
▁斯坦福	-14594
▁突尼斯	-14595
▁这一切	-14596
▁这一回	-14597
一个更加	-14598
上市公司	-14599
上述问题	-14600
不会导致	-14601
两国关系	-14602
中国应该	-14603
也可以在	-14604
也采取了	-14605
了自己的	-14606
五年计划	-14607
亚历山大	-14608
亚洲地区	-14609
产生影响	-14610
从而降低	-14611
令人惊奇	-14612
以及如何	-14613
伊曼纽尔	-14614
俄罗斯人	-14615
公共健康	-14616
其领导人	-14617
军事基地	-14618
几个月来	-14619
出口商品	-14620
劳动者的	-14621
南欧国家	-14622
博科圣地	-14623
即使是在	-14624
可以利用	-14625
可以用于	-14626
可以选择	-14627
可以避免	-14628
吸取教训	-14629
和中国的	-14630
和共和党	-14631
因为中国	-14632
国防开支	-14633
在俄罗斯	-14634
在我们的	-14635
在欧洲的	-14636
在该地区	-14637
地方官员	-14638
基础上的	-14639
增长公约	-14640
增长前景	-14641
增长引擎	-14642
大获全胜	-14643
完全不同	-14644
实施制裁	-14645
实现目标	-14646
密切关注	-14647
对欧洲的	-14648
将会继续	-14649
已经结束	-14650
市场上的	-14651
市场失灵	-14652
干预措施	-14653
年代开始	-14654
并不那么	-14655
并不需要	-14656
并非所有	-14657
应该获得	-14658
很可能是	-14659
很多国家	-14660
思维方式	-14661
总收入的	-14662
感到惊讶	-14663
成为一种	-14664
我们发现	-14665
我们希望	-14666
我们自己	-14667
战争期间	-14668
所引起的	-14669
拯救生命	-14670
改革方案	-14671
政府干预	-14672
整体经济	-14673
明日黄花	-14674
是另一个	-14675
显著低于	-14676
更加容易	-14677
更是如此	-14678
最有效的	-14679
有价值的	-14680
有所改善	-14681
本世纪末	-14682
机器学习	-14683
根本原因	-14684
欧元集团	-14685
武装部队	-14686
殖民主义	-14687
油价下跌	-14688
现在正在	-14689
生产力的	-14690
的一点是	-14691
的不平衡	-14692
的时间里	-14693
的是一个	-14694
相形见绌	-14695
社会契约	-14696
科学技术	-14697
移民危机	-14698
紧张局面	-14699
经济状况	-14700
结束以来	-14701
结构变化	-14702
网络安全	-14703
网络空间	-14704
美国应该	-14705
翻了一番	-14706
能够保持	-14707
自给自足	-14708
营商环境	-14709
萨尔瓦多	-14710
融资成本	-14711
要大得多	-14712
要归因于	-14713
要求所有	-14714
角度来看	-14715
说服力的	-14716
这一政策	-14717
这些项目	-14718
重大进展	-14719
金融风险	-14720
集中精力	-14721
需要解决	-14722
非法移民	-14723
非洲联盟	-14724
预算平衡	-14725
领导力的	-14726
首脑会议	-14727
马萨诸塞	-14728
高失业率	-14729
,2000	-14730
Larry	-14731
Moham	-14732
ution	-14733
—2010	-14734
—2014	-14735
▁1990	-14736
▁2002	-14737
▁一些国家	-14738
▁为了确保	-14739
▁二十世纪	-14740
▁从长期看	-14741
▁他们必须	-14742
▁但事实上	-14743
▁但大部分	-14744
▁几乎所有	-14745
▁发自北京	-14746
▁发达国家	-14747
▁如果政府	-14748
▁如果欧盟	-14749
▁如果这一	-14750
▁对于那些	-14751
▁更糟的是	-14752
▁根据这一	-14753
▁此外还有	-14754
▁研究表明	-14755
▁这种做法	-14756
人民共和国	-14757
低收入家庭	-14758
克里斯蒂娜	-14759
反映了一个	-14760
发布了一份	-14761
和金融稳定	-14762
国家领导人	-14763
国际能源署	-14764
在未来几年	-14765
多大程度上	-14766
完全不同的	-14767
所有国家都	-14768
欧元区外围	-14769
欧洲委员会	-14770
正确的方向	-14771
的一个主要	-14772
的人均收入	-14773
的地缘政治	-14774
的工作岗位	-14775
的政治制度	-14776
的最重要的	-14777
的民主国家	-14778
的经济利益	-14779
的经济改革	-14780
的经济状况	-14781
的自由流动	-14782
私人投资者	-14783
约旦河西岸	-14784
经济发展的	-14785
联邦政府的	-14786
货币联盟的	-14787
金融和经济	-14788
长足的进步	-14789
防空识别区	-14790
Marine	-14791
▁Group	-14792
▁Union	-14793
▁World	-14794
▁即将到来的	-14795
▁这就是为何	-14796
全球经济增长	-14797
全要素生产率	-14798
国际刑事法庭	-14799
在过去十年中	-14800
德国和意大利	-14801
抗生素耐药性	-14802
数十亿美元的	-14803
欧洲议会选举	-14804
欧盟成员国的	-14805
法国和意大利	-14806
生产率的提高	-14807
美国总统大选	-14808
诺贝尔奖得主	-14809
适应气候变化	-14810
长期以来一直	-14811
阿鲁纳恰尔邦	-14812
风能和太阳能	-14813
首席经济学家	-14814
merican	-14815
宽松的货币政策	-14816
第一次世界大战	-14817
vestment	-14818
联合国秘书长潘基文	-14819
诺贝尔经济学奖获得者	-14820
▁Partnership	-14821
46	-14822
73	-14823
85	-14824
98	-14825
Af	-14826
DV	-14827
JP	-14828
Le	-14829
US	-14830
Un	-14831
pp	-14832
ue	-14833
▁―	-14834
▁低	-14835
▁加	-14836
▁去	-14837
▁国	-14838
▁曾	-14839
▁照	-14840
▁跟	-14841
一人	-14842
一千	-14843
一篇	-14844
不停	-14845
不尽	-14846
不然	-14847
不胜	-14848
不让	-14849
与伦	-14850
世人	-14851
丢掉	-14852
两可	-14853
主任	-14854
之初	-14855
乌德	-14856
乙醇	-14857
书记	-14858
争吵	-14859
事后	-14860
人大	-14861
从业	-14862
他和	-14863
令其	-14864
供电	-14865
做过	-14866
先前	-14867
先生	-14868
克拉	-14869
公用	-14870
六大	-14871
其为	-14872
其冲	-14873
其时	-14874
内幕	-14875
内斯	-14876
冰盖	-14877
冲销	-14878
分娩	-14879
分红	-14880
分解	-14881
创出	-14882
删除	-14883
利卡	-14884
利安	-14885
剂量	-14886
功劳	-14887
加重	-14888
助力	-14889
勒索	-14890
化疗	-14891
卖给	-14892
厄立	-14893
原谅	-14894
去世	-14895
取暖	-14896
各级	-14897
同类	-14898
后悔	-14899
向着	-14900
听说	-14901
和与	-14902
四十	-14903
固有	-14904
土著	-14905
坐在	-14906
埃德	-14907
外表	-14908
太久	-14909
失利	-14910
姐妹	-14911
委任	-14912
孟买	-14913
它就	-14914
定于	-14915
定制	-14916
审理	-14917
家务	-14918
寄望	-14919
寄生	-14920
密度	-14921
对美	-14922
将向	-14923
尔森	-14924
尖阁	-14925
尼拉	-14926
届时	-14927
巨人	-14928
已达	-14929
巴里	-14930
干净	-14931
平方	-14932
幼稚	-14933
弥漫	-14934
很不	-14935
得势	-14936
微型	-14937
德华	-14938
怀有	-14939
总比	-14940
总能	-14941
惊奇	-14942
惟其	-14943
惯例	-14944
意地	-14945
户口	-14946
所料	-14947
所致	-14948
扰乱	-14949
扶持	-14950
抉择	-14951
拟议	-14952
挤出	-14953
挥之	-14954
排外	-14955
接过	-14956
援手	-14957
摒弃	-14958
收场	-14959
数月	-14960
文盲	-14961
族群	-14962
无几	-14963
无权	-14964
日后	-14965
时也	-14966
明的	-14967
曼努	-14968
期货	-14969
权和	-14970
板上	-14971
构架	-14972
林肯	-14973
果和	-14974
梅尔	-14975
欲望	-14976
正轨	-14977
每桶	-14978
比起	-14979
民权	-14980
求助	-14981
求职	-14982
油气	-14983
洛克	-14984
流产	-14985
涉嫌	-14986
烟民	-14987
牢牢	-14988
牧师	-14989
特质	-14990
珊瑚	-14991
生动	-14992
登盛	-14993
的多	-14994
的电	-14995
盛行	-14996
看重	-14997
石头	-14998
破碎	-14999
硬件	-15000
碳税	-15001
种群	-15002
租金	-15003
穆勒	-15004
窃取	-15005
童婚	-15006
粮农	-15007
约合	-15008
纳瓦	-15009
绝无	-15010
维度	-15011
翻译	-15012
而将	-15013
而该	-15014
耶克	-15015
耶鲁	-15016
联手	-15017
胃口	-15018
胜于	-15019
能从	-15020
脱颖	-15021
腰包	-15022
致裂	-15023
蓄水	-15024
融化	-15025
表象	-15026
要多	-15027
诚信	-15028
诱人	-15029
诱导	-15030
谅解	-15031
谷物	-15032
貌似	-15033
费尔	-15034
赤贫	-15035
赫蒂	-15036
足轻	-15037
转嫁	-15038
辖区	-15039
过着	-15040
这番	-15041
违规	-15042
迟缓	-15043
遗址	-15044
邻邦	-15045
部族	-15046
都曾	-15047
里尼	-15048
里达	-15049
防线	-15050
阿德	-15051
靠谱	-15052
颁发	-15053
颓势	-15054
风潮	-15055
马蒂	-15056
马车	-15057
高兴	-15058
高压	-15059
高薪	-15060
默默	-15061
,18	-15062
1.1	-15063
1/4	-15064
110	-15065
12.	-15066
3.2	-15067
COP	-15068
ESM	-15069
MGI	-15070
NCD	-15071
act	-15072
ali	-15073
amp	-15074
ari	-15075
ase	-15076
ats	-15077
igh	-15078
ink	-15079
int	-15080
lic	-15081
med	-15082
ola	-15083
ste	-15084
yan	-15085
▁Ad	-15086
▁Kh	-15087
▁Th	-15088
▁不可	-15089
▁两个	-15090
▁但与	-15091
▁农民	-15092
▁后者	-15093
▁她的	-15094
▁消费	-15095
▁相对	-15096
▁看看	-15097
▁罗马	-15098
▁联邦	-15099
▁选择	-15100
▁阻止	-15101
三角洲	-15102
上升了	-15103
不至于	-15104
与伦比	-15105
与日本	-15106
中找到	-15107
之比从	-15108
也不应	-15109
也变得	-15110
也并不	-15111
也成为	-15112
也没能	-15113
也难以	-15114
了他们	-15115
享受着	-15116
亿英镑	-15117
从目前	-15118
他本人	-15119
以促进	-15120
价值和	-15121
会得到	-15122
伦理学	-15123
但仍然	-15124
但欧洲	-15125
但许多	-15126
低技能	-15127
僵化的	-15128
全球的	-15129
公布了	-15130
军队的	-15131
到现在	-15132
制约了	-15133
南部的	-15134
占到了	-15135
占领了	-15136
及其对	-15137
发电量	-15138
发起了	-15139
发起的	-15140
句名言	-15141
另一位	-15142
号决议	-15143
合作社	-15144
向公众	-15145
否决权	-15146
吸毒者	-15147
和利率	-15148
和多边	-15149
和强化	-15150
和汇率	-15151
和能力	-15152
在他的	-15153
在伦敦	-15154
在北京	-15155
在纽约	-15156
在面对	-15157
地区和	-15158
地对待	-15159
培训和	-15160
奢侈品	-15161
她们的	-15162
它们也	-15163
完全不	-15164
完成的	-15165
完整的	-15166
实质上	-15167
容易被	-15168
寄生虫	-15169
对一个	-15170
对印度	-15171
对西方	-15172
对许多	-15173
将不再	-15174
尤科斯	-15175
就业的	-15176
就足以	-15177
尽管在	-15178
工资税	-15179
左右的	-15180
已经让	-15181
市场中	-15182
席之地	-15183
并增加	-15184
并实现	-15185
并帮助	-15186
并提出	-15187
并避免	-15188
废除了	-15189
开放和	-15190
归结为	-15191
当然是	-15192
必须从	-15193
必须有	-15194
恢复到	-15195
想象力	-15196
感觉到	-15197
愿意为	-15198
所追求	-15199
扩张的	-15200
把我们	-15201
投入品	-15202
指挥官	-15203
提名人	-15204
支持其	-15205
放弃其	-15206
政府为	-15207
政策上	-15208
斯特拉	-15209
明确地	-15210
是政府	-15211
更准确	-15212
更高效	-15213
有三个	-15214
有效性	-15215
有针对	-15216
本身就	-15217
条件的	-15218
正逐渐	-15219
永远是	-15220
法拉奇	-15221
波斯湾	-15222
漫长而	-15223
潘多拉	-15224
爆发前	-15225
爱德华	-15226
现在是	-15227
生活和	-15228
百分比	-15229
的举措	-15230
的义务	-15231
的准备	-15232
的分裂	-15233
的平衡	-15234
的强大	-15235
的文章	-15236
的概率	-15237
的榜样	-15238
的现代	-15239
的电力	-15240
的盟友	-15241
的职业	-15242
的评估	-15243
的迅速	-15244
的高速	-15245
相当的	-15246
相适应	-15247
真实的	-15248
瞩目的	-15249
科学界	-15250
积累了	-15251
穆兄会	-15252
第一批	-15253
第三国	-15254
第二天	-15255
粮食和	-15256
系统和	-15257
综合症	-15258
美国有	-15259
而导致	-15260
能说明	-15261
行动者	-15262
补贴和	-15263
被发现	-15264
被推翻	-15265
评论员	-15266
财富和	-15267
贫困率	-15268
路易斯	-15269
较小的	-15270
输出国	-15271
达不到	-15272
过高的	-15273
近一半	-15274
还要高	-15275
这一次	-15276
进口品	-15277
远没有	-15278
采取更	-15279
需要为	-15280
需要有	-15281
非金融	-15282
1.5%	-15283
1968	-15284
1986	-15285
Cent	-15286
gram	-15287
uman	-15288
work	-15289
▁Gre	-15290
▁世界上	-15291
▁他们是	-15292
▁十年前	-15293
▁历史上	-15294
▁在印度	-15295
▁在欧盟	-15296
▁如果要	-15297
▁它们是	-15298
▁尽管在	-15299
▁尽管有	-15300
▁苏格兰	-15301
一个关键	-15302
一个拥有	-15303
一直没有	-15304
三十年来	-15305
下定决心	-15306
不公平的	-15307
不断提高	-15308
与发展党	-15309
世界最大	-15310
业务模式	-15311
两国政府	-15312
个体国家	-15313
中国国家	-15314
主义者的	-15315
主要央行	-15316
也得到了	-15317
也是一样	-15318
也是为了	-15319
了美国的	-15320
人力资源	-15321
人口数量	-15322
人民币兑	-15323
仍有可能	-15324
他们无法	-15325
他们没有	-15326
他自己的	-15327
以及中国	-15328
任何地方	-15329
但他们的	-15330
但却没有	-15331
保持沉默	-15332
假以时日	-15333
做出重大	-15334
克什米尔	-15335
公立学校	-15336
共同目标	-15337
其他问题	-15338
冷战时期	-15339
几个月中	-15340
出于政治	-15341
出口产品	-15342
制造企业	-15343
削减开支	-15344
削减赤字	-15345
发展政策	-15346
发达世界	-15347
只能通过	-15348
可以继续	-15349
可能因为	-15350
可能引起	-15351
可能最终	-15352
吉尔吉斯	-15353
和加拿大	-15354
因为没有	-15355
国内市场	-15356
地区安全	-15357
基准利率	-15358
基本上是	-15359
外汇市场	-15360
如果中国	-15361
姆斯特丹	-15362
媒体报道	-15363
官僚主义	-15364
对外投资	-15365
工作阶级	-15366
工薪阶层	-15367
巴切莱特	-15368
市场波动	-15369
带来好处	-15370
开放市场	-15371
很多方面	-15372
性别差距	-15373
总有一天	-15374
惟其如此	-15375
意想不到	-15376
成为中国	-15377
我们这些	-15378
所作出的	-15379
挥之不去	-15380
改革开放	-15381
政治支持	-15382
效率低下	-15383
整个国家	-15384
整个经济	-15385
新闻媒体	-15386
方方面面	-15387
方面起到	-15388
无法避免	-15389
旷日持久	-15390
是欧元区	-15391
显著下降	-15392
更严重的	-15393
最强大的	-15394
最高领袖	-15395
有核国家	-15396
核心国家	-15397
框架公约	-15398
欧洲必须	-15399
每个人都	-15400
气候行动	-15401
法律框架	-15402
特别关注	-15403
特拉维夫	-15404
生产成本	-15405
生产率和	-15406
生物医学	-15407
由联合国	-15408
的互联网	-15409
的情况看	-15410
的继任者	-15411
盈利能力	-15412
目前已经	-15413
积极参与	-15414
等领域的	-15415
管理不善	-15416
精诚合作	-15417
纳税人的	-15418
经济机会	-15419
经济领域	-15420
统治地位	-15421
继续存在	-15422
美国企业	-15423
而产生的	-15424
而这正是	-15425
联合声明	-15426
能够成为	-15427
能够提供	-15428
脱欧公投	-15429
腐败丑闻	-15430
自相矛盾	-15431
至少部分	-15432
航空公司	-15433
表面上看	-15434
调查表明	-15435
贸易平衡	-15436
贸易政策	-15437
资金支持	-15438
这一转变	-15439
这些数据	-15440
这些机构	-15441
这种做法	-15442
进入市场	-15443
远远高于	-15444
通信技术	-15445
道德风险	-15446
那么我们	-15447
都不可能	-15448
都能获得	-15449
都集中在	-15450
重新设计	-15451
金融交易	-15452
金融抑制	-15453
陈词滥调	-15454
陷入瘫痪	-15455
需要我们	-15456
革命性的	-15457
食品价格	-15458
食品安全	-15459
首当其冲	-15460
骇人听闻	-15461
overn	-15462
—2007	-15463
▁1998	-15464
▁中国已经	-15465
▁为了实现	-15466
▁你也许会	-15467
▁如果这些	-15468
▁拉丁美洲	-15469
▁新兴市场	-15470
▁这些都是	-15471
▁这反过来	-15472
东盟成员国	-15473
中国决策者	-15474
之间的差异	-15475
任美国总统	-15476
入侵伊拉克	-15477
加入欧元区	-15478
卫生工作者	-15479
厄立特里亚	-15480
发生的事情	-15481
可以也应该	-15482
在巴基斯坦	-15483
对中国来说	-15484
对全球经济	-15485
已经失去了	-15486
已经实现了	-15487
拥有巨大的	-15488
提供足够的	-15489
效率低下的	-15490
新自由主义	-15491
有可能导致	-15492
欧洲人民党	-15493
生产率提高	-15494
由此产生的	-15495
的唯一办法	-15496
的经济关系	-15497
的经济模式	-15498
的美国经济	-15499
私人和公共	-15500
经济的增长	-15501
结构性问题	-15502
自上而下的	-15503
英国和欧盟	-15504
表现出来的	-15505
中等收入国家	-15506
乌兹别克斯坦	-15507
人们普遍认为	-15508
令人印象深刻	-15509
以前所未有的	-15510
俄罗斯和中国	-15511
凯恩斯主义者	-15512
恐怖主义威胁	-15513
所表明的那样	-15514
正义与发展党	-15515
经济增长放缓	-15516
经济学家认为	-15517
自由世界秩序	-15518
解决气候变化	-15519
证明了这一点	-15520
世界其他地区的	-15521
外交和安全政策	-15522
欧洲央行行长德拉吉	-15523
联合国可持续发展目标	-15524
,2	-15525
2—	-15526
61	-15527
99	-15528
Ab	-15529
FA	-15530
Is	-15531
NB	-15532
NI	-15533
PN	-15534
ly	-15535
sb	-15536
▁光	-15537
一丝	-15538
一辆	-15539
七年	-15540
上扬	-15541
上浇	-15542
上看	-15543
上证	-15544
下注	-15545
下游	-15546
不开	-15547
专注	-15548
两人	-15549
两周	-15550
严苛	-15551
之事	-15552
之父	-15553
争辩	-15554
亨萨	-15555
亲信	-15556
亲自	-15557
人手	-15558
他国	-15559
以巴	-15560
休假	-15561
休眠	-15562
会从	-15563
会比	-15564
传输	-15565
但要	-15566
侵袭	-15567
保全	-15568
保密	-15569
倘若	-15570
偏差	-15571
偏袒	-15572
克提	-15573
公信	-15574
共处	-15575
兴建	-15576
兼顾	-15577
冬天	-15578
几率	-15579
凯南	-15580
判处	-15581
利和	-15582
前后	-15583
割裂	-15584
劝说	-15585
加税	-15586
助理	-15587
勾勒	-15588
卖淫	-15589
博士	-15590
卡利	-15591
即可	-15592
厌倦	-15593
双赢	-15594
反感	-15595
受雇	-15596
古柯	-15597
可知	-15598
同位	-15599
同道	-15600
后才	-15601
告别	-15602
咄咄	-15603
和无	-15604
回购	-15605
困局	-15606
国情	-15607
在从	-15608
在各	-15609
在意	-15610
地铁	-15611
垮台	-15612
塔伊	-15613
外衣	-15614
大火	-15615
奋起	-15616
女人	-15617
学界	-15618
察觉	-15619
少女	-15620
少年	-15621
尾声	-15622
屈辱	-15623
屋顶	-15624
左倾	-15625
巴兰	-15626
年为	-15627
并与	-15628
广东	-15629
开了	-15630
引爆	-15631
当我	-15632
很强	-15633
得票	-15634
得越	-15635
忡忡	-15636
急性	-15637
急迫	-15638
息息	-15639
悄然	-15640
惨遭	-15641
想在	-15642
愤世	-15643
成人	-15644
战时	-15645
战败	-15646
房利	-15647
所占	-15648
投降	-15649
抗争	-15650
折合	-15651
抛售	-15652
抹黑	-15653
拉特	-15654
拷打	-15655
措辞	-15656
摆在	-15657
摇身	-15658
支点	-15659
收效	-15660
放慢	-15661
效用	-15662
敌视	-15663
敏锐	-15664
教派	-15665
数目	-15666
文字	-15667
新来	-15668
施行	-15669
早先	-15670
最少	-15671
服从	-15672
机密	-15673
村民	-15674
核化	-15675
格林	-15676
案的	-15677
欣赏	-15678
死的	-15679
永恒	-15680
汉堡	-15681
洗钱	-15682
洛舍	-15683
流传	-15684
流感	-15685
消防	-15686
液压	-15687
湾区	-15688
漫画	-15689
灵魂	-15690
热爱	-15691
物资	-15692
狂欢	-15693
独生	-15694
狭窄	-15695
猛增	-15696
由其	-15697
的阿	-15698
监察	-15699
看齐	-15700
知晓	-15701
科特	-15702
端倪	-15703
等量	-15704
篇章	-15705
素的	-15706
纠缠	-15707
纵观	-15708
线的	-15709
线路	-15710
细致	-15711
美俄	-15712
老挝	-15713
老虎	-15714
耶夫	-15715
肆意	-15716
肩负	-15717
肺炎	-15718
胚胎	-15719
臃肿	-15720
航班	-15721
节制	-15722
草根	-15723
落到	-15724
被控	-15725
观的	-15726
觉醒	-15727
诱使	-15728
谁能	-15729
谣言	-15730
责怪	-15731
赌局	-15732
走廊	-15733
起伏	-15734
踌躇	-15735
载体	-15736
过少	-15737
这点	-15738
追逐	-15739
适宜	-15740
逼近	-15741
部件	-15742
酷刑	-15743
隐蔽	-15744
难怪	-15745
面貌	-15746
顾及	-15747
预想	-15748
高原	-15749
魔鬼	-15750
鲁棒	-15751
,10	-15752
,12	-15753
/11	-15754
0.4	-15755
190	-15756
5.5	-15757
AAA	-15758
EDD	-15759
LAC	-15760
att	-15761
esa	-15762
her	-15763
iew	-15764
ise	-15765
org	-15766
ory	-15767
ous	-15768
▁Ac	-15769
▁Go	-15770
▁两大	-15771
▁什么	-15772
▁他是	-15773
▁使用	-15774
▁其二	-15775
▁决定	-15776
▁可见	-15777
▁在与	-15778
▁妇女	-15779
▁实施	-15780
▁实际	-15781
▁希望	-15782
▁帮助	-15783
▁应对	-15784
▁截止	-15785
▁提供	-15786
▁政策	-15787
▁朝鲜	-15788
▁石油	-15789
▁私人	-15790
▁继续	-15791
▁试图	-15792
▁资本	-15793
▁首尔	-15794
一直都	-15795
万事达	-15796
三中全	-15797
三百万	-15798
上浇油	-15799
下降的	-15800
不一致	-15801
不会被	-15802
不会让	-15803
不只是	-15804
不可行	-15805
不情愿	-15806
不止于	-15807
中国也	-15808
中国梦	-15809
中美洲	-15810
为目的	-15811
之以鼻	-15812
也只能	-15813
也处于	-15814
也常常	-15815
也更加	-15816
了下来	-15817
了世界	-15818
了新的	-15819
了解到	-15820
争论的	-15821
五年的	-15822
亨萨林	-15823
人口和	-15824
仍没有	-15825
从而将	-15826
代表性	-15827
以使其	-15828
以市场	-15829
以提高	-15830
伊朗人	-15831
伤害了	-15832
但最终	-15833
使我们	-15834
保护和	-15835
债券和	-15836
做准备	-15837
其原因	-15838
其国际	-15839
其本身	-15840
典型的	-15841
农民工	-15842
决定着	-15843
准备着	-15844
几乎不	-15845
几何时	-15846
分裂和	-15847
制定出	-15848
前美国	-15849
加拉瓜	-15850
动荡的	-15851
十年里	-15852
卫生和	-15853
厄尔尼	-15854
双方的	-15855
反映在	-15856
发现的	-15857
受到的	-15858
可以对	-15859
同事们	-15860
同意在	-15861
同时在	-15862
后危机	-15863
向外界	-15864
吸引着	-15865
和信息	-15866
和冲突	-15867
和提高	-15868
和需求	-15869
商主义	-15870
团结的	-15871
围绕着	-15872
在一次	-15873
在当今	-15874
在选举	-15875
在长期	-15876
地宣称	-15877
基础是	-15878
多数人	-15879
多米诺	-15880
大学和	-15881
如果它	-15882
妨碍了	-15883
它可能	-15884
完整性	-15885
宜诺斯	-15886
宪法的	-15887
对任何	-15888
对国内	-15889
对国际	-15890
对外国	-15891
对民主	-15892
对非洲	-15893
导致其	-15894
将出现	-15895
将利率	-15896
将变得	-15897
就更加	-15898
尽管它	-15899
尽管有	-15900
屈从于	-15901
岁以上	-15902
工业园	-15903
平均为	-15904
年多德	-15905
年年底	-15906
年收入	-15907
并减少	-15908
并实施	-15909
并推动	-15910
并降低	-15911
并非是	-15912
并鼓励	-15913
开发商	-15914
开发的	-15915
当地的	-15916
很明显	-15917
微生物	-15918
性措施	-15919
惩罚性	-15920
战争罪	-15921
战后的	-15922
战略上	-15923
所在地	-15924
所引发	-15925
扮演了	-15926
承担着	-15927
承认的	-15928
投机性	-15929
持续到	-15930
接触到	-15931
揭示了	-15932
摄氏度	-15933
摇身一	-15934
收益的	-15935
改革者	-15936
新世界	-15937
新古典	-15938
新政策	-15939
新鲜事	-15940
时期内	-15941
有损于	-15942
朋友和	-15943
朝一日	-15944
机构中	-15945
来抵消	-15946
来换取	-15947
来阻止	-15948
杰里米	-15949
核武库	-15950
欧佩克	-15951
欧洲将	-15952
死亡和	-15953
民调中	-15954
法公约	-15955
消费和	-15956
混乱的	-15957
爆发时	-15958
牺牲品	-15959
狭隘的	-15960
理论家	-15961
瓦尔斯	-15962
疫苗的	-15963
的一样	-15964
的债券	-15965
的印象	-15966
的司法	-15967
的各种	-15968
的大头	-15969
的巴西	-15970
的年轻	-15971
的投票	-15972
的时机	-15973
的汽车	-15974
的破坏	-15975
的群众	-15976
的联邦	-15977
的股份	-15978
的著作	-15979
的规定	-15980
的进程	-15981
的部门	-15982
盎格鲁	-15983
相一致	-15984
研究了	-15985
研究员	-15986
破坏的	-15987
等国的	-15988
等机构	-15989
签署国	-15990
米洛舍	-15991
紧缩和	-15992
纳入到	-15993
给人们	-15994
而增加	-15995
而这又	-15996
而随着	-15997
背负着	-15998
胎政策	-15999
能够从	-16000
能够将	-16001
自己是	-16002
至今仍	-16003
艾利斯	-16004
衰退的	-16005
被告知	-16006
被指控	-16007
覆盖面	-16008
观察员	-16009
解释说	-16010
认真地	-16011
让全球	-16012
让政府	-16013
让许多	-16014
让那些	-16015
设备和	-16016
证券化	-16017
说到底	-16018
诸如此	-16019
起源于	-16020
身上的	-16021
转换为	-16022
辩论中	-16023
过度的	-16024
这么多	-16025
选民的	-16026
逮捕令	-16027
遭遇了	-16028
部门和	-16029
都不愿	-16030
都柏林	-16031
销售额	-16032
阵营的	-16033
降到了	-16034
需要与	-16035
需要以	-16036
青年军	-16037
韩国人	-16038
预计到	-16039
高负债	-16040
0.5%	-16041
1914	-16042
Clau	-16043
Gavi	-16044
Jeff	-16045
Uber	-16046
ited	-16047
▁Ass	-16048
▁New	-16049
▁他指出	-16050
▁其他人	-16051
▁匈牙利	-16052
▁即便是	-16053
▁因此当	-16054
▁在世界	-16055
▁在亚洲	-16056
▁在所有	-16057
▁对许多	-16058
▁我希望	-16059
▁政府的	-16060
▁更好的	-16061
▁比如在	-16062
▁波士顿	-16063
▁目前的	-16064
▁这也许	-16065
▁进一步	-16066
下降到了	-16067
不仅没有	-16068
不合时宜	-16069
不断下降	-16070
不断膨胀	-16071
世界正在	-16072
东乌克兰	-16073
严重损害	-16074
中美关系	-16075
主权债券	-16076
二战后的	-16077
人类发展	-16078
仍然十分	-16079
从而实现	-16080
令人吃惊	-16081
以此作为	-16082
体制改革	-16083
佛罗里达	-16084
保护措施	-16085
保持一致	-16086
保持不变	-16087
修正主义	-16088
做得更好	-16089
健康保险	-16090
全面禁止	-16091
关系密切	-16092
其中许多	-16093
其他许多	-16094
养老基金	-16095
创造力和	-16096
创造性的	-16097
动员起来	-16098
劳动力和	-16099
医疗费用	-16100
十字路口	-16101
厄尔尼诺	-16102
去年夏天	-16103
发展论坛	-16104
受欢迎的	-16105
受过良好	-16106
变成现实	-16107
另外一种	-16108
可以接受	-16109
可以采取	-16110
可以降低	-16111
可能影响	-16112
和民主党	-16113
嗤之以鼻	-16114
国民议会	-16115
国际足联	-16116
土地使用	-16117
土耳其的	-16118
在历史上	-16119
在大多数	-16120
在过去三	-16121
在过去的	-16122
多哈回合	-16123
存在一个	-16124
安全利益	-16125
宗教信仰	-16126
官僚体系	-16127
密切相关	-16128
对欧盟的	-16129
尼加拉瓜	-16130
工资水平	-16131
已经达到	-16132
已经通过	-16133
年下半年	-16134
并不只是	-16135
并不存在	-16136
往常一样	-16137
必须确保	-16138
忧心忡忡	-16139
快速发展	-16140
总体经济	-16141
所获得的	-16142
技术转让	-16143
投资不足	-16144
改革措施	-16145
政治压力	-16146
数十年来	-16147
新成员国	-16148
最近一次	-16149
月举行的	-16150
本身就是	-16151
欧盟条约	-16152
正在寻求	-16153
正确方向	-16154
武装分子	-16155
毁灭性的	-16156
气候变暖	-16157
没有必要	-16158
治疗方法	-16159
清算银行	-16160
火上浇油	-16161
的乌克兰	-16162
的事实是	-16163
的挑战是	-16164
的时间内	-16165
的有效性	-16166
直接影响	-16167
相对较低	-16168
短时间内	-16169
研发支出	-16170
确实如此	-16171
科技公司	-16172
税收减免	-16173
空气和水	-16174
粮食生产	-16175
紧急状态	-16176
美国国内	-16177
美国宪法	-16178
美国正在	-16179
考虑因素	-16180
而导致的	-16181
能够产生	-16182
脱颖而出	-16183
艾哈迈迪	-16184
融资渠道	-16185
要归功于	-16186
解决方法	-16187
许多地方	-16188
货币体系	-16189
贸易失衡	-16190
资金来源	-16191
超过美国	-16192
达成一个	-16193
这一风险	-16194
这些技术	-16195
这项工作	-16196
进行投资	-16197
进行评估	-16198
远远超出	-16199
连锁反应	-16200
遥不可及	-16201
银行监督	-16202
陷入麻烦	-16203
难以为继	-16204
需要依赖	-16205
风险共担	-16206
风险溢价	-16207
,2005	-16208
,2009	-16209
Nexus	-16210
earch	-16211
onald	-16212
ordon	-16213
▁1979	-16214
▁Fron	-16215
▁Sand	-16216
▁中央银行	-16217
▁从根本上	-16218
▁他们指出	-16219
▁但特朗普	-16220
▁但美联储	-16221
▁在大多数	-16222
▁委内瑞拉	-16223
▁既然如此	-16224
▁金融危机	-16225
世界银行和	-16226
中国一直在	-16227
伦敦金融城	-16228
其中一部分	-16229
其他地区的	-16230
原子能机构	-16231
取得了一些	-16232
周年纪念日	-16233
和欧洲央行	-16234
在许多国家	-16235
埃博拉疫情	-16236
增长和就业	-16237
婴儿潮一代	-16238
宏观经济学	-16239
对经济增长	-16240
德意志银行	-16241
我们不应该	-16242
房地产投资	-16243
拥有核武器	-16244
有理由相信	-16245
欧洲和日本	-16246
特朗普当选	-16247
独一无二的	-16248
的不平等性	-16249
的国家利益	-16250
的国家来说	-16251
的最后一个	-16252
的社会福利	-16253
私营部门的	-16254
米洛舍维奇	-16255
美国和日本	-16256
脱离欧盟的	-16257
葛兰主义者	-16258
运转良好的	-16259
近几十年来	-16260
问题的根源	-16261
Jeremy	-16262
▁Democ	-16263
▁Finan	-16264
▁发自伯克利	-16265
▁发自纽黑文	-16266
▁对中国来说	-16267
▁对美国来说	-16268
▁沙特阿拉伯	-16269
中国和俄罗斯	-16270
使用化学武器	-16271
大学经济学家	-16272
宜诺斯艾利斯	-16273
民粹主义政党	-16274
▁今年早些时候	-16275
主要新兴经济体	-16276
公共和私人部门	-16277
国民生产总值的	-16278
布雷顿森林体系	-16279
形成了鲜明对比	-16280
以色列和巴勒斯坦	-16281
还有很长的路要走	-16282
在很大程度上取决于	-16283
▁Initiative	-16284
,9	-16285
6,	-16286
64	-16287
AP	-16288
CS	-16289
EP	-16290
GA	-16291
LC	-16292
ki	-16293
se	-16294
▁八	-16295
▁德	-16296
▁想	-16297
▁既	-16298
▁重	-16299
一刀	-16300
一时	-16301
一生	-16302
上都	-16303
下达	-16304
不讳	-16305
专政	-16306
专栏	-16307
世袭	-16308
严密	-16309
丰裕	-16310
主角	-16311
之大	-16312
也令	-16313
也给	-16314
乱局	-16315
事宜	-16316
互信	-16317
五星	-16318
交出	-16319
人性	-16320
人皆	-16321
亿多	-16322
仍比	-16323
代码	-16324
令我	-16325
优于	-16326
传说	-16327
伸出	-16328
例证	-16329
信徒	-16330
储藏	-16331
免除	-16332
兴盛	-16333
其次	-16334
典礼	-16335
内向	-16336
内尔	-16337
况愈	-16338
列举	-16339
则将	-16340
刹车	-16341
加权	-16342
卡拉	-16343
原产	-16344
去除	-16345
双向	-16346
发掘	-16347
取悦	-16348
受难	-16349
口风	-16350
只得	-16351
合成	-16352
听从	-16353
吾尔	-16354
告诫	-16355
和为	-16356
和梅	-16357
唤醒	-16358
回了	-16359
回复	-16360
回头	-16361
回调	-16362
在有	-16363
在某	-16364
地讲	-16365
坐等	-16366
坦克	-16367
埃里	-16368
塔克	-16369
大佬	-16370
大半	-16371
大局	-16372
太空	-16373
好好	-16374
好战	-16375
姗姗	-16376
媒介	-16377
媲美	-16378
子的	-16379
安纳	-16380
小泉	-16381
尔班	-16382
尚早	-16383
尽了	-16384
尽头	-16385
居然	-16386
帐户	-16387
年占	-16388
并用	-16389
幸免	-16390
广为	-16391
庆典	-16392
康复	-16393
延期	-16394
开会	-16395
开拓	-16396
弗吉	-16397
得了	-16398
得过	-16399
德和	-16400
德罗	-16401
心里	-16402
怀抱	-16403
急速	-16404
总会	-16405
悉尼	-16406
我对	-16407
截了	-16408
所处	-16409
手下	-16410
扎比	-16411
打了	-16412
扪心	-16413
承载	-16414
抬高	-16415
摊子	-16416
摧残	-16417
收成	-16418
攸关	-16419
改写	-16420
斯洛	-16421
斯登	-16422
施以	-16423
时光	-16424
时点	-16425
是用	-16426
暴乱	-16427
替换	-16428
有机	-16429
本该	-16430
来对	-16431
极易	-16432
某项	-16433
格格	-16434
检讨	-16435
横跨	-16436
欣喜	-16437
欣慰	-16438
此事	-16439
母国	-16440
每位	-16441
毛里	-16442
水源	-16443
水的	-16444
汹涌	-16445
没收	-16446
波澜	-16447
津贴	-16448
活着	-16449
浓厚	-16450
渡过	-16451
父辈	-16452
环球	-16453
玷污	-16454
甚少	-16455
用处	-16456
甩卖	-16457
电站	-16458
病原	-16459
病态	-16460
皇帝	-16461
盗窃	-16462
直指	-16463
看不	-16464
着力	-16465
瞄准	-16466
示范	-16467
禁忌	-16468
私隐	-16469
稀少	-16470
空前	-16471
穿过	-16472
类别	-16473
类比	-16474
约占	-16475
纳斯	-16476
组装	-16477
终点	-16478
给人	-16479
维艰	-16480
耕地	-16481
自负	-16482
致歉	-16483
莱恩	-16484
萨里	-16485
蒙古	-16486
蕴藏	-16487
行贿	-16488
要务	-16489
要靠	-16490
见效	-16491
誓言	-16492
论述	-16493
诠释	-16494
说了	-16495
诺言	-16496
课以	-16497
调控	-16498
调解	-16499
财力	-16500
贱民	-16501
走在	-16502
越好	-16503
车道	-16504
过大	-16505
还没	-16506
还给	-16507
这股	-16508
遵从	-16509
邻近	-16510
都以	-16511
都已	-16512
链条	-16513
销毁	-16514
锁定	-16515
错综	-16516
陆地	-16517
陈述	-16518
雄厚	-16519
集结	-16520
领事	-16521
领地	-16522
飞速	-16523
饮料	-16524
首任	-16525
鲨鱼	-16526
0.7	-16527
10—	-16528
14%	-16529
3.3	-16530
3.6	-16531
3.8	-16532
6.5	-16533
ESG	-16534
ICT	-16535
anc	-16536
eld	-16537
eng	-16538
fer	-16539
ial	-16540
ler	-16541
lex	-16542
old	-16543
pan	-16544
rew	-16545
▁Ab	-16546
▁Af	-16547
▁一场	-16548
▁中共	-16549
▁主流	-16550
▁共同	-16551
▁军事	-16552
▁在他	-16553
▁外部	-16554
▁工党	-16555
▁建设	-16556
▁当年	-16557
▁持续	-16558
▁接受	-16559
▁提高	-16560
▁更有	-16561
▁每个	-16562
▁没错	-16563
▁真相	-16564
▁短期	-16565
▁而其	-16566
▁而后	-16567
▁脱欧	-16568
▁货币	-16569
▁这套	-16570
▁那时	-16571
▁雅典	-16572
▁须知	-16573
▁麻烦	-16574
一个在	-16575
一边倒	-16576
上发表	-16577
下一轮	-16578
下议院	-16579
不仅对	-16580
不但是	-16581
不如说	-16582
不承认	-16583
与市场	-16584
世界将	-16585
个人和	-16586
个季度	-16587
中国从	-16588
中国是	-16589
中所占	-16590
为未来	-16591
主导着	-16592
乌拉圭	-16593
也受到	-16594
也希望	-16595
也缺乏	-16596
也表明	-16597
了政治	-16598
事务中	-16599
事实是	-16600
亚洲人	-16601
人人都	-16602
仅有的	-16603
今后的	-16604
以下的	-16605
以增加	-16606
以改善	-16607
任命的	-16608
伐利亚	-16609
会如此	-16610
会降低	-16611
但无法	-16612
低油价	-16613
供给端	-16614
像过去	-16615
入学率	-16616
其全球	-16617
具备了	-16618
内容的	-16619
军事化	-16620
净出口	-16621
切实际	-16622
创新者	-16623
副部长	-16624
包括对	-16625
医疗和	-16626
十亿人	-16627
升高的	-16628
协议中	-16629
南极洲	-16630
却并未	-16631
历史中	-16632
原有的	-16633
发出的	-16634
发动的	-16635
另一方	-16636
只剩下	-16637
可以把	-16638
可兑换	-16639
同样也	-16640
后两者	-16641
后果是	-16642
员工的	-16643
咄咄逼	-16644
和分析	-16645
和大量	-16646
和失业	-16647
和平和	-16648
和战略	-16649
和智利	-16650
和欧元	-16651
和泰国	-16652
和解决	-16653
和贫困	-16654
回答说	-16655
因此也	-16656
圣彼得	-16657
在上述	-16658
在其中	-16659
在巴黎	-16660
在面临	-16661
地区内	-16662
地支持	-16663
埃及的	-16664
处方药	-16665
外部性	-16666
大爆发	-16667
失业者	-16668
奥尔班	-16669
如是说	-16670
如果他	-16671
妇女的	-16672
学生的	-16673
它也是	-16674
对所有	-16675
将下降	-16676
将他们	-16677
将再次	-16678
将减少	-16679
将得到	-16680
将提高	-16681
展示了	-16682
州政府	-16683
巩固其	-16684
平均值	-16685
年以前	-16686
年水平	-16687
并支持	-16688
开支的	-16689
强国的	-16690
形势下	-16691
彻底的	-16692
得出的	-16693
必需品	-16694
恶化了	-16695
感染者	-16696
我们正	-16697
我们还	-16698
所取得	-16699
所拥有	-16700
所提供	-16701
打开了	-16702
承受着	-16703
把目标	-16704
报告说	-16705
担心的	-16706
挑战了	-16707
捍卫者	-16708
掌权的	-16709
推高了	-16710
携带者	-16711
攻击的	-16712
敌人的	-16713
敏感性	-16714
数量比	-16715
新德里	-16716
新时代	-16717
昔日的	-16718
是一件	-16719
是一名	-16720
是当今	-16721
是这样	-16722
普通人	-16723
暂时性	-16724
更可能	-16725
更糟糕	-16726
最亲密	-16727
最终被	-16728
最近对	-16729
来增加	-16730
来看待	-16731
来获得	-16732
树立了	-16733
栖息地	-16734
核威慑	-16735
残酷的	-16736
每况愈	-16737
比过去	-16738
水管理	-16739
汇率的	-16740
汽车业	-16741
汽车和	-16742
治理的	-16743
活力和	-16744
烂摊子	-16745
特点是	-16746
犯下了	-16747
状态的	-16748
现成的	-16749
生存的	-16750
电气化	-16751
的一党	-16752
的一方	-16753
的不足	-16754
的两个	-16755
的事业	-16756
的人工	-16757
的内部	-16758
的发现	-16759
的名义	-16760
的复杂	-16761
的大约	-16762
的大门	-16763
的媒体	-16764
的巨额	-16765
的强硬	-16766
的所谓	-16767
的打击	-16768
的改善	-16769
的普遍	-16770
的更加	-16771
的渴望	-16772
的知识	-16773
的精神	-16774
的经历	-16775
的联合	-16776
的药物	-16777
的途径	-16778
皮克提	-16779
直截了	-16780
相匹配	-16781
相当大	-16782
确认了	-16783
种族和	-16784
种类的	-16785
称得上	-16786
突出的	-16787
第四次	-16788
等因素	-16789
米尔顿	-16790
繁荣期	-16791
结合了	-16792
维吾尔	-16793
美国或	-16794
而且也	-16795
而印度	-16796
而只是	-16797
而遭受	-16798
股票和	-16799
背后是	-16800
自由地	-16801
自视为	-16802
荷兰和	-16803
行为和	-16804
补贴的	-16805
被授予	-16806
观点是	-16807
规定了	-16808
计划将	-16809
认为他	-16810
设计出	-16811
试图让	-16812
调查中	-16813
谈不上	-16814
象征性	-16815
贷款给	-16816
资产和	-16817
还要大	-16818
这代人	-16819
进行着	-16820
退出了	-16821
退欧派	-16822
道路上	-16823
那么就	-16824
铀浓缩	-16825
霍尔丹	-16826
非营利	-16827
驱动型	-16828
高估了	-16829
高昂的	-16830
鲍里斯	-16831
1.25	-16832
1933	-16833
1940	-16834
1974	-16835
2500	-16836
6000	-16837
ISPR	-16838
PISA	-16839
STEM	-16840
ical	-16841
ture	-16842
▁Mod	-16843
▁Rep	-16844
▁中国还	-16845
▁事实是	-16846
▁但一些	-16847
▁但也许	-16848
▁但其实	-16849
▁但那些	-16850
▁但除非	-16851
▁其中最	-16852
▁反过来	-16853
▁在今年	-16854
▁奥朗德	-16855
▁如果他	-16856
▁第二种	-16857
▁美国对	-16858
▁英国的	-16859
▁达沃斯	-16860
▁这两种	-16861
▁这或许	-16862
▁这是个	-16863
一个人的	-16864
万人死亡	-16865
不可接受	-16866
不同国家	-16867
不无道理	-16868
为中心的	-16869
为所有人	-16870
为目标的	-16871
也导致了	-16872
人口增长	-16873
人口红利	-16874
人类健康	-16875
他们来说	-16876
他们正在	-16877
令人不快	-16878
以及欧洲	-16879
以及欧盟	-16880
价格下跌	-16881
传统智慧	-16882
作为一种	-16883
保护自己	-16884
候选人的	-16885
债务抵押	-16886
值得关注	-16887
全球发展	-16888
全球能源	-16889
公众舆论	-16890
共享经济	-16891
关税壁垒	-16892
关键时刻	-16893
其他部分	-16894
其余部分	-16895
其成员国	-16896
内幕交易	-16897
农业部门	-16898
决定是否	-16899
决策者和	-16900
出手干预	-16901
刚果民主	-16902
创业精神	-16903
利益冲突	-16904
加工食品	-16905
医疗补助	-16906
升温幅度	-16907
卢卡申科	-16908
卫生体系	-16909
历史上的	-16910
又回到了	-16911
受害者的	-16912
可以提高	-16913
可以确定	-16914
可能很快	-16915
各式各样	-16916
同样也是	-16917
和新加坡	-16918
和突尼斯	-16919
国内投资	-16920
国际收支	-16921
国际法庭	-16922
在乌克兰	-16923
在意大利	-16924
增加储蓄	-16925
多边机构	-16926
大学教授	-16927
奠定基础	-16928
如何影响	-16929
实现和平	-16930
实际收入	-16931
容易得多	-16932
对乌克兰	-16933
寻找新的	-16934
将他们的	-16935
将会导致	-16936
尤为重要	-16937
工业发展	-16938
巴西央行	-16939
帮助他们	-16940
年上半年	-16941
并不完全	-16942
并进一步	-16943
应该包括	-16944
开放社会	-16945
弗吉尼亚	-16946
强制性的	-16947
当前危机	-16948
德国总理	-16949
必须包括	-16950
怀疑论者	-16951
急剧上升	-16952
恐怖份子	-16953
悲哀的是	-16954
意义重大	-16955
我们如何	-16956
所急需的	-16957
扪心自问	-16958
投资机会	-16959
投资者们	-16960
担心的是	-16961
提供安全	-16962
提供服务	-16963
政权更迭	-16964
政治参与	-16965
政界人士	-16966
教育机会	-16967
数据收集	-16968
整个社会	-16969
无与伦比	-16970
无法容忍	-16971
无法找到	-16972
是明确的	-16973
显著增加	-16974
暂时性的	-16975
更为重要	-16976
更多资金	-16977
最伟大的	-16978
最终导致	-16979
最著名的	-16980
有所放缓	-16981
有效应对	-16982
格格不入	-16983
欧洲人的	-16984
欧洲工程	-16985
欧盟需要	-16986
正在下降	-16987
正在考虑	-16988
正在走向	-16989
没有哪个	-16990
活跃分子	-16991
液压致裂	-16992
深度衰退	-16993
深远影响	-16994
犯罪行为	-16995
独生子女	-16996
现在开始	-16997
现在必须	-16998
甚至没有	-16999
生存威胁	-17000
由来已久	-17001
病人照护	-17002
的人认为	-17003
的例子中	-17004
的国家中	-17005
的基础是	-17006
的大萧条	-17007
知道如何	-17008
研究结果	-17009
破产程序	-17010
税收优惠	-17011
纳瓦尔尼	-17012
终于开始	-17013
经济决策	-17014
经济实力	-17015
维和部队	-17016
美国公民	-17017
美国官员	-17018
股票价格	-17019
自然选择	-17020
自贸协议	-17021
至今仍在	-17022
艾哈迈德	-17023
西方世界	-17024
要求我们	-17025
规模经济	-17026
该委员会	-17027
贝尔斯登	-17028
财政扩张	-17029
贬值压力	-17030
贸易谈判	-17031
资本利得	-17032
资本支出	-17033
资金用于	-17034
赢得选举	-17035
赤字削减	-17036
软实力的	-17037
这一做法	-17038
这一方向	-17039
这一概念	-17040
这些东西	-17041
这有助于	-17042
这种现象	-17043
这种观点	-17044
远远大于	-17045
重要影响	-17046
重要问题	-17047
银行危机	-17048
银行存款	-17049
长期来看	-17050
需要新的	-17051
领土完整	-17052
领土要求	-17053
风力发电	-17054
7,000	-17055
Mario	-17056
ivers	-17057
▁2018	-17058
▁众所周知	-17059
▁在欧元区	-17060
▁如果不是	-17061
▁尼日利亚	-17062
▁法国总统	-17063
▁美国国会	-17064
▁美国经济	-17065
▁这一政策	-17066
▁这一结果	-17067
▁这是一项	-17068
不可接受的	-17069
中国和其他	-17070
也不太可能	-17071
二十国集团	-17072
他们的工作	-17073
伊朗核计划	-17074
众所周知的	-17075
保护主义的	-17076
其中大部分	-17077
农业生产率	-17078
前所未有地	-17079
化石燃料的	-17080
受过教育的	-17081
可支配收入	-17082
可能会导致	-17083
和其他地方	-17084
国会共和党	-17085
土库曼斯坦	-17086
在一夜之间	-17087
塔吉克斯坦	-17088
巨大的成功	-17089
并不是因为	-17090
形成了一个	-17091
德国和法国	-17092
总统选举中	-17093
成功的关键	-17094
持怀疑态度	-17095
数以百万计	-17096
方面的投资	-17097
日本和韩国	-17098
明白这一点	-17099
有吸引力的	-17100
来自中国的	-17101
的关键要素	-17102
的原因之一	-17103
的发展趋势	-17104
的国家安全	-17105
的金融机构	-17106
真正的问题	-17107
穆斯林国家	-17108
经济危机的	-17109
经济基本面	-17110
经济学家和	-17111
美国经济的	-17112
美联储官员	-17113
而与此同时	-17114
董事会成员	-17115
认为的那样	-17116
越来越难以	-17117
还有待观察	-17118
这个问题上	-17119
这些经济体	-17120
这就意味着	-17121
这样的情况	-17122
这样的观点	-17123
进一步扩大	-17124
迫切需要的	-17125
部分原因是	-17126
雄心勃勃的	-17127
Bernie	-17128
Donald	-17129
enneth	-17130
▁但与此同时	-17131
国家安全顾问	-17132
对抗气候变化	-17133
所带来的好处	-17134
欧洲一体化的	-17135
民意调查显示	-17136
气候变化影响	-17137
的新兴经济体	-17138
▁从这个角度看	-17139
▁发自布鲁塞尔	-17140
▁在这一背景下	-17141
西班牙和葡萄牙	-17142
金融稳定委员会	-17143
▁从某种程度上说	-17144
跨太平洋伙伴关系	-17145
政府间气候变化专门委员会	-17146
5,	-17147
51	-17148
71	-17149
DB	-17150
eg	-17151
nb	-17152
uf	-17153
▁8	-17154
▁l	-17155
▁尼	-17156
▁老	-17157
▁莫	-17158
▁金	-17159
一击	-17160
一堂	-17161
一想	-17162
一窥	-17163
一级	-17164
一组	-17165
上层	-17166
上次	-17167
专用	-17168
东尼	-17169
东帝	-17170
两制	-17171
两院	-17172
中性	-17173
中方	-17174
丽莎	-17175
之声	-17176
之所	-17177
之梦	-17178
书中	-17179
互补	-17180
五十	-17181
五月	-17182
仇视	-17183
从不	-17184
仓促	-17185
休闲	-17186
传感	-17187
传闻	-17188
但有	-17189
作业	-17190
佩戴	-17191
佩斯	-17192
使他	-17193
保存	-17194
保有	-17195
倒向	-17196
偏爱	-17197
像我	-17198
僵持	-17199
克逊	-17200
全盘	-17201
全职	-17202
八年	-17203
公元	-17204
公益	-17205
兰德	-17206
兼职	-17207
军国	-17208
决意	-17209
决赛	-17210
凯撒	-17211
分工	-17212
分开	-17213
分成	-17214
初创	-17215
判定	-17216
利他	-17217
制订	-17218
刺杀	-17219
加贝	-17220
助手	-17221
匆忙	-17222
千禧	-17223
单靠	-17224
卡路	-17225
印证	-17226
即时	-17227
却又	-17228
却对	-17229
卸任	-17230
又不	-17231
发端	-17232
发送	-17233
变幻	-17234
口头	-17235
另类	-17236
可悲	-17237
各有	-17238
合情	-17239
合谋	-17240
同仁	-17241
同声	-17242
名副	-17243
名称	-17244
后期	-17245
君子	-17246
周的	-17247
咋舌	-17248
和中	-17249
和巴	-17250
和自	-17251
和阿	-17252
哈尔	-17253
哈德	-17254
商讨	-17255
喜剧	-17256
嘲笑	-17257
四次	-17258
国境	-17259
圣经	-17260
地主	-17261
地质	-17262
域内	-17263
增添	-17264
声望	-17265
复发	-17266
复合	-17267
大到	-17268
夫妻	-17269
奈尔	-17270
嫉俗	-17271
存亡	-17272
它来	-17273
实地	-17274
室外	-17275
家和	-17276
寻租	-17277
导师	-17278
将能	-17279
小怪	-17280
尔克	-17281
尚不	-17282
就曾	-17283
岁月	-17284
崇高	-17285
巡逻	-17286
工艺	-17287
干部	-17288
并购	-17289
广袤	-17290
应得	-17291
度假	-17292
式微	-17293
引诱	-17294
引进	-17295
强健	-17296
心怀	-17297
怒火	-17298
思索	-17299
性格	-17300
恶魔	-17301
悲伤	-17302
成因	-17303
战事	-17304
所属	-17305
所犯	-17306
手握	-17307
打压	-17308
执掌	-17309
扫清	-17310
扶贫	-17311
抗衡	-17312
护照	-17313
拉大	-17314
拉德	-17315
拉脱	-17316
拍卖	-17317
拓宽	-17318
拖欠	-17319
招致	-17320
拜登	-17321
拱手	-17322
捉摸	-17323
捷径	-17324
排挤	-17325
推论	-17326
撼动	-17327
收割	-17328
改观	-17329
效忠	-17330
教士	-17331
敬仰	-17332
断然	-17333
斯麦	-17334
新药	-17335
旗号	-17336
旗鼓	-17337
时尚	-17338
明晰	-17339
明朗	-17340
易于	-17341
是向	-17342
是新	-17343
普查	-17344
暗杀	-17345
暗淡	-17346
更不	-17347
更佳	-17348
更替	-17349
月和	-17350
月度	-17351
有三	-17352
有何	-17353
服刑	-17354
期权	-17355
杜克	-17356
来迟	-17357
极力	-17358
次数	-17359
正被	-17360
此人	-17361
歪曲	-17362
毁于	-17363
毁坏	-17364
民事	-17365
法令	-17366
法郎	-17367
泥淖	-17368
流言	-17369
浮出	-17370
涌向	-17371
湿地	-17372
满怀	-17373
特使	-17374
特纳	-17375
玉米	-17376
王国	-17377
现成	-17378
病的	-17379
症候	-17380
的税	-17381
的第	-17382
皮尤	-17383
眼的	-17384
礼貌	-17385
祈祷	-17386
科菲	-17387
称作	-17388
税负	-17389
竞相	-17390
紧紧	-17391
罗默	-17392
耕种	-17393
联动	-17394
背离	-17395
能与	-17396
脑后	-17397
腐蚀	-17398
至此	-17399
舒服	-17400
舞弊	-17401
芬森	-17402
英美	-17403
蚊帐	-17404
蛋糕	-17405
行了	-17406
触目	-17407
试想	-17408
误判	-17409
谬误	-17410
负起	-17411
账单	-17412
货运	-17413
贴近	-17414
贵族	-17415
赫鲁	-17416
走强	-17417
起步	-17418
距今	-17419
踏步	-17420
较之	-17421
输掉	-17422
过低	-17423
还多	-17424
连动	-17425
连同	-17426
迪尔	-17427
通行	-17428
遗余	-17429
遣返	-17430
重叠	-17431
钱来	-17432
长官	-17433
门户	-17434
防火	-17435
附庸	-17436
陆军	-17437
降幅	-17438
随地	-17439
集会	-17440
震撼	-17441
青睐	-17442
非凡	-17443
领军	-17444
饭碗	-17445
饲养	-17446
香烟	-17447
驻扎	-17448
高点	-17449
魔法	-17450
麻疹	-17451
默多	-17452
130	-17453
AIG	-17454
CBO	-17455
EFS	-17456
FTA	-17457
SGP	-17458
Tim	-17459
Tub	-17460
arb	-17461
ces	-17462
ick	-17463
ney	-17464
oth	-17465
ull	-17466
·11	-17467
▁Ed	-17468
▁Pe	-17469
▁一次	-17470
▁不出	-17471
▁两者	-17472
▁和平	-17473
▁很难	-17474
▁截至	-17475
▁打击	-17476
▁技术	-17477
▁控制	-17478
▁数据	-17479
▁法律	-17480
▁现有	-17481
▁米兰	-17482
▁腐败	-17483
▁遏制	-17484
▁采取	-17485
▁限制	-17486
▁难道	-17487
▁革命	-17488
一年中	-17489
上涨的	-17490
不及待	-17491
不必要	-17492
不透明	-17493
世界级	-17494
东帝汶	-17495
两方面	-17496
个月中	-17497
个月的	-17498
中国还	-17499
为人知	-17500
之中的	-17501
之处是	-17502
也一样	-17503
也日益	-17504
也正是	-17505
了一致	-17506
了英国	-17507
事务的	-17508
五年内	-17509
交易员	-17510
享有的	-17511
从出口	-17512
他们为	-17513
他们被	-17514
他没有	-17515
以及为	-17516
以后的	-17517
以此为	-17518
任务是	-17519
会变得	-17520
传播的	-17521
但也有	-17522
但其他	-17523
像中国	-17524
儿童和	-17525
党派的	-17526
公信力	-17527
公开的	-17528
公民们	-17529
关系中	-17530
关闭了	-17531
出售给	-17532
出资国	-17533
分别为	-17534
分化的	-17535
分配给	-17536
则可以	-17537
创新型	-17538
别人的	-17539
加沙的	-17540
劳伦斯	-17541
包括我	-17542
北京的	-17543
区域内	-17544
区域的	-17545
南海的	-17546
即便在	-17547
却不能	-17548
却可以	-17549
压低了	-17550
又开始	-17551
反倾销	-17552
反垄断	-17553
发达的	-17554
只能让	-17555
可见的	-17556
可问责	-17557
司法和	-17558
合理性	-17559
听证会	-17560
周期的	-17561
和交易	-17562
和儿童	-17563
和公民	-17564
和合作	-17565
和成本	-17566
和现实	-17567
和责任	-17568
商业化	-17569
商品的	-17570
商学院	-17571
国与国	-17572
国际上	-17573
土地和	-17574
在一场	-17575
在今后	-17576
在公众	-17577
在希腊	-17578
在政府	-17579
在财政	-17580
地位和	-17581
地进行	-17582
城市中	-17583
城镇化	-17584
基金的	-17585
大猩猩	-17586
夸大了	-17587
如此多	-17588
学校和	-17589
完全由	-17590
官员和	-17591
实行了	-17592
对社会	-17593
将全球	-17594
将影响	-17595
将持续	-17596
将推动	-17597
将来自	-17598
就能够	-17599
尼日尔	-17600
工作组	-17601
已经把	-17602
市场在	-17603
年左右	-17604
年爆发	-17605
并成为	-17606
并据此	-17607
廉价的	-17608
延长了	-17609
建国的	-17610
弄清楚	-17611
弹性的	-17612
强有力	-17613
当选的	-17614
很高兴	-17615
怀疑论	-17616
总收入	-17617
悲观派	-17618
慷慨的	-17619
我们都	-17620
或美国	-17621
房利美	-17622
拉低了	-17623
拿不出	-17624
掌握着	-17625
接受过	-17626
推出的	-17627
推迟了	-17628
提出要	-17629
改革派	-17630
放在了	-17631
放射性	-17632
政策中	-17633
数不清	-17634
文尼亚	-17635
断层线	-17636
无国界	-17637
无法从	-17638
日本在	-17639
是那些	-17640
更别说	-17641
更深入	-17642
有义务	-17643
有几个	-17644
来加以	-17645
来提高	-17646
极端的	-17647
核力量	-17648
框架内	-17649
欧尔班	-17650
正常的	-17651
正式的	-17652
正确性	-17653
每年要	-17654
民众和	-17655
民族党	-17656
水果和	-17657
求助于	-17658
沃尔克	-17659
治疗和	-17660
波兰和	-17661
活动中	-17662
浪费了	-17663
渐进式	-17664
然后是	-17665
煤炭和	-17666
物联网	-17667
特里谢	-17668
现在在	-17669
现在正	-17670
理解和	-17671
的不利	-17672
的两倍	-17673
的主题	-17674
的人员	-17675
的人选	-17676
的伙伴	-17677
的前沿	-17678
的可靠	-17679
的名声	-17680
的名言	-17681
的基因	-17682
的崩溃	-17683
的席位	-17684
的年代	-17685
的患者	-17686
的成果	-17687
的框架	-17688
的正式	-17689
的死亡	-17690
的治理	-17691
的研发	-17692
的稳定	-17693
的管理	-17694
的苦难	-17695
的行业	-17696
的袭击	-17697
的诸多	-17698
的难度	-17699
目前已	-17700
看电视	-17701
破产的	-17702
碎片化	-17703
碳能源	-17704
穆加贝	-17705
穷人和	-17706
第一轮	-17707
简单化	-17708
算得上	-17709
索罗斯	-17710
纪念日	-17711
纳赛尔	-17712
结果的	-17713
统治下	-17714
缔约国	-17715
而变得	-17716
而必须	-17717
而政府	-17718
而英国	-17719
股市的	-17720
能够与	-17721
自己和	-17722
菲利普	-17723
被问及	-17724
覆盖了	-17725
计划是	-17726
训练有	-17727
记者和	-17728
许可证	-17729
话语权	-17730
该报告	-17731
该问题	-17732
诱惑力	-17733
货币区	-17734
购买了	-17735
贷款和	-17736
资金流	-17737
转移给	-17738
达乌德	-17739
迎来了	-17740
还要求	-17741
这将是	-17742
这并不	-17743
这并非	-17744
这显然	-17745
这需要	-17746
选民对	-17747
道德和	-17748
遥远的	-17749
部长级	-17750
都非常	-17751
重工业	-17752
阿什顿	-17753
集中到	-17754
非正规	-17755
项目上	-17756
项目中	-17757
驾马车	-17758
高效的	-17759
黑猩猩	-17760
鼓励了	-17761
1948	-17762
1949	-17763
1964	-17764
1975	-17765
1985	-17766
2021	-17767
3.5%	-17768
CTBT	-17769
Dani	-17770
Mark	-17771
Tube	-17772
ates	-17773
bert	-17774
ward	-17775
▁Mac	-17776
▁Pan	-17777
▁Rom	-17778
▁传统上	-17779
▁但他的	-17780
▁但同样	-17781
▁但最近	-17782
▁但还有	-17783
▁但问题	-17784
▁同样的	-17785
▁坏消息	-17786
▁对那些	-17787
▁当人们	-17788
▁意味着	-17789
▁日内瓦	-17790
▁有时候	-17791
▁甚至连	-17792
▁维也纳	-17793
▁而欧盟	-17794
▁选民们	-17795
▁马克龙	-17796
▁黎巴嫩	-17797
一直保持	-17798
上述目标	-17799
下一阶段	-17800
不如说是	-17801
世界上的	-17802
世界需要	-17803
中国人的	-17804
中国市场	-17805
中美两国	-17806
临床试验	-17807
为什么要	-17808
主席国的	-17809
主权违约	-17810
之间建立	-17811
之间进行	-17812
也受到了	-17813
也很重要	-17814
产出增长	-17815
从中受益	-17816
从未如此	-17817
他们是否	-17818
令人咋舌	-17819
令人感到	-17820
以及它们	-17821
价格指数	-17822
价格波动	-17823
优先考虑	-17824
似乎并不	-17825
但同时也	-17826
但大多数	-17827
但是他们	-17828
作为欧盟	-17829
作为美国	-17830
使用这些	-17831
保持谨慎	-17832
值得欢迎	-17833
偿付能力	-17834
克林顿在	-17835
全球挑战	-17836
其他所有	-17837
农业生产	-17838
决策过程	-17839
冷战期间	-17840
减税政策	-17841
制裁措施	-17842
动用武力	-17843
区别对待	-17844
南部地区	-17845
危机中的	-17846
危机后的	-17847
即所谓的	-17848
去监管化	-17849
双边投资	-17850
发生冲突	-17851
叙利亚人	-17852
可以根据	-17853
可以起到	-17854
可以预期	-17855
可能会对	-17856
可能破坏	-17857
可能认为	-17858
可能还会	-17859
司法体系	-17860
各国央行	-17861
合约网络	-17862
名副其实	-17863
和全球化	-17864
和大规模	-17865
和新西兰	-17866
商业利益	-17867
国际体系	-17868
国际标准	-17869
圣彼得堡	-17870
城市居民	-17871
基础之上	-17872
处于危险	-17873
多元主义	-17874
大幅减少	-17875
大惊小怪	-17876
失业问题	-17877
失去工作	-17878
姗姗来迟	-17879
实现这些	-17880
密切合作	-17881
对于中国	-17882
对于那些	-17883
对此表示	-17884
对经济的	-17885
就是这样	-17886
尽可能地	-17887
局面改变	-17888
州参议员	-17889
工业化的	-17890
市场价格	-17891
市场信心	-17892
市场竞争	-17893
帮助中国	-17894
年代早期	-17895
影响深远	-17896
得以实现	-17897
必须承认	-17898
急剧下降	-17899
总人口的	-17900
意料之外	-17901
愤世嫉俗	-17902
我们可能	-17903
我们才能	-17904
我们看到	-17905
截然相反	-17906
所持有的	-17907
所要求的	-17908
投票支持	-17909
报告指出	-17910
拉脱维亚	-17911
持续增长	-17912
换句话说	-17913
提振增长	-17914
改革进程	-17915
政策选择	-17916
数字时代	-17917
方面做得	-17918
方面起着	-17919
无可避免	-17920
无济于事	-17921
日常生活	-17922
早期阶段	-17923
更广大的	-17924
最近宣布	-17925
有这样的	-17926
权力机构	-17927
查理周刊	-17928
棘手问题	-17929
次贷危机	-17930
正在利用	-17931
正在努力	-17932
正在崛起	-17933
正在试图	-17934
正常运转	-17935
正是如此	-17936
此外还有	-17937
民主社会	-17938
气候相关	-17939
沃尔芬森	-17940
沉重打击	-17941
注意力从	-17942
特别是当	-17943
特殊关系	-17944
犯罪分子	-17945
环境恶化	-17946
生产效率	-17947
生物技术	-17948
的例子是	-17949
的保守党	-17950
的最大的	-17951
的观点是	-17952
相互关联	-17953
相对稳定	-17954
真实世界	-17955
稳定机制	-17956
紧急情况	-17957
经济减速	-17958
经济制度	-17959
经济崩溃	-17960
经济萧条	-17961
经济部门	-17962
继续维持	-17963
维持和平	-17964
美国海军	-17965
美联储在	-17966
能够帮助	-17967
能够改善	-17968
脆弱国家	-17969
自上而下	-17970
自我毁灭	-17971
莫桑比克	-17972
被排除在	-17973
要高得多	-17974
视为一种	-17975
解放出来	-17976
计划生育	-17977
议会席位	-17978
证据证明	-17979
象征性的	-17980
贝尔格莱	-17981
负债累累	-17982
贫富差距	-17983
贷款利率	-17984
赤裸裸地	-17985
走上街头	-17986
超级富豪	-17987
边境控制	-17988
边缘化的	-17989
过早死亡	-17990
近零利率	-17991
还有一些	-17992
这一事件	-17993
这一现象	-17994
这一要求	-17995
这一计划	-17996
这也许是	-17997
这些指标	-17998
这些银行	-17999
这样才能	-18000
进口关税	-18001
迫不及待	-18002
通胀因素	-18003
都是为了	-18004
采取果断	-18005
重新审视	-18006
重蹈覆辙	-18007
金砖四国	-18008
金融包容	-18009
银行破产	-18010
长期存在	-18011
长的时间	-18012
阿卜杜拉	-18013
阿根廷的	-18014
随时随地	-18015
难民问题	-18016
需要大量	-18017
页岩能源	-18018
,2004	-18019
ublic	-18020
uncil	-18021
unity	-18022
—2013	-18023
▁1999	-18024
▁Cons	-18025
▁IPCC	-18026
▁Rein	-18027
▁与此相反	-18028
▁为了避免	-18029
▁各国政府	-18030
▁因此中国	-18031
▁在乌克兰	-18032
▁尽管美国	-18033
▁惟其如此	-18034
▁想象一下	-18035
▁有人认为	-18036
▁欧元区的	-18037
▁澳大利亚	-18038
▁这一问题	-18039
▁这听起来	-18040
▁这有助于	-18041
▁遗憾的是	-18042
▁随着美国	-18043
▁马来西亚	-18044
一个重要的	-18045
万人的生命	-18046
不断增加的	-18047
中国和日本	-18048
中国的出口	-18049
中国领导层	-18050
也没有任何	-18051
人民币升值	-18052
从而进一步	-18053
他们的国家	-18054
伊斯兰世界	-18055
保守主义者	-18056
全球范围内	-18057
其他成员国	-18058
北约成员国	-18059
危机爆发后	-18060
危机爆发时	-18061
发生的事件	-18062
可持续增长	-18063
和澳大利亚	-18064
和经济增长	-18065
国家的政府	-18066
在未来十年	-18067
基于市场的	-18068
增长率只有	-18069
奥巴马医保	-18070
委员会成员	-18071
存在巨大的	-18072
实际上已经	-18073
居高不下的	-18074
工程和数学	-18075
左翼和右翼	-18076
已经开始了	-18077
已经认识到	-18078
巴尔干地区	-18079
并不仅仅是	-18080
很好的例子	-18081
我们所有人	-18082
所有国家的	-18083
摆脱了贫困	-18084
斯洛文尼亚	-18085
是因为他们	-18086
更多的国家	-18087
更大的作用	-18088
有可能成为	-18089
本世纪中叶	-18090
根本性问题	-18091
欧洲国家的	-18092
正确地指出	-18093
毫无意义的	-18094
没有意识到	-18095
海洋法公约	-18096
的主要障碍	-18097
的反腐运动	-18098
的平均水平	-18099
的欧洲国家	-18100
的民主制度	-18101
的民族主义	-18102
的生活方式	-18103
的经济实力	-18104
的经验表明	-18105
的美国总统	-18106
的金融体系	-18107
的金融部门	-18108
的长期利率	-18109
直升机撒钱	-18110
相当长的一	-18111
稳定性机制	-18112
站不住脚的	-18113
细菌耐药性	-18114
经济政策的	-18115
结合在一起	-18116
美国和其他	-18117
联合国难民	-18118
能够更好地	-18119
自由主义的	-18120
议会选举中	-18121
诊断和治疗	-18122
贸易和金融	-18123
这些问题的	-18124
造成的损失	-18125
重要的作用	-18126
金融部门的	-18127
非洲领导人	-18128
首相卡梅伦	-18129
高质量教育	-18130
ations	-18131
vement	-18132
▁Secur	-18133
▁从历史上看	-18134
▁发达经济体	-18135
▁新兴经济体	-18136
▁欧盟领导人	-18137
▁美国和欧洲	-18138
▁越来越多的	-18139
▁阿尔及利亚	-18140
两次世界大战	-18141
亚洲开发银行	-18142
人员自由流动	-18143
今年早些时候	-18144
低收入国家的	-18145
全球气候变暖	-18146
原教旨主义者	-18147
大部分时间里	-18148
委内瑞拉总统	-18149
宏观经济稳定	-18150
平均年增长率	-18151
所扮演的角色	-18152
所造成的影响	-18153
持不同政见者	-18154
提振经济增长	-18155
是不可避免的	-18156
是至关重要的	-18157
欧洲中央银行	-18158
没有理由认为	-18159
海上丝绸之路	-18160
的社会和政治	-18161
索马里青年军	-18162
美国财政部长	-18163
面临着巨大的	-18164
olution	-18165
▁Change	-18166
▁从这个意义上	-18167
▁本月早些时候	-18168
欧盟成员国资格	-18169
▁Sanders	-18170
Financial	-18171
▁具有讽刺意味的是	-18172
联合国气候变化会议	-18173
联邦公开市场委员会	-18174
▁Financial	-18175
▁Stability	-18176
▁Investment	-18177
54	-18178
56	-18179
59	-18180
63	-18181
6—	-18182
Ad	-18183
Ah	-18184
CP	-18185
Em	-18186
IR	-18187
Jo	-18188
LN	-18189
RM	-18190
WT	-18191
ee	-18192
ft	-18193
rg	-18194
za	-18195
▁[	-18196
▁h	-18197
▁•	-18198
▁令	-18199
▁别	-18200
▁占	-18201
▁又	-18202
▁艾	-18203
一刻	-18204
一去	-18205
一团	-18206
万能	-18207
上是	-18208
上调	-18209
下面	-18210
不移	-18211
不稳	-18212
不远	-18213
不高	-18214
与前	-18215
丑陋	-18216
世的	-18217
东流	-18218
丢失	-18219
两派	-18220
为他	-18221
义的	-18222
之交	-18223
之列	-18224
之情	-18225
之火	-18226
乏力	-18227
乐意	-18228
也只	-18229
了新	-18230
二世	-18231
二等	-18232
云南	-18233
互利	-18234
互通	-18235
五项	-18236
交战	-18237
亦即	-18238
产妇	-18239
人文	-18240
他也	-18241
以对	-18242
任性	-18243
传导	-18244
伯尼	-18245
似的	-18246
住所	-18247
作弊	-18248
依照	-18249
信条	-18250
债主	-18251
停战	-18252
兆瓦	-18253
全权	-18254
公关	-18255
公报	-18256
兰西	-18257
其道	-18258
兼容	-18259
冗余	-18260
军火	-18261
净值	-18262
凭空	-18263
分校	-18264
刑罚	-18265
列岛	-18266
利基	-18267
利钦	-18268
到访	-18269
力气	-18270
动向	-18271
勒森	-18272
化身	-18273
占有	-18274
历经	-18275
厘清	-18276
受限	-18277
古怪	-18278
可耻	-18279
叶刀	-18280
各异	-18281
合规	-18282
吉利	-18283
向往	-18284
向更	-18285
和约	-18286
和被	-18287
响亮	-18288
囊中	-18289
四海	-18290
回家	-18291
地狱	-18292
坚称	-18293
城乡	-18294
基什	-18295
复原	-18296
夏季	-18297
大举	-18298
大受	-18299
大行	-18300
大通	-18301
天空	-18302
头版	-18303
夺去	-18304
奖学	-18305
好于	-18306
定性	-18307
实录	-18308
害的	-18309
对俄	-18310
就任	-18311
屈一	-18312
山车	-18313
岛国	-18314
差额	-18315
币值	-18316
帕特	-18317
平权	-18318
年对	-18319
年起	-18320
幼儿	-18321
庇隆	-18322
序列	-18323
开脱	-18324
异口	-18325
弃权	-18326
弗莱	-18327
张胆	-18328
归于	-18329
当做	-18330
当天	-18331
形同	-18332
影像	-18333
得住	-18334
想必	-18335
憎恨	-18336
我是	-18337
或被	-18338
所受	-18339
扎尔	-18340
投身	-18341
拆分	-18342
接待	-18343
提法	-18344
撒谎	-18345
支箭	-18346
放开	-18347
敞口	-18348
敲响	-18349
文中	-18350
断裂	-18351
施展	-18352
施瓦	-18353
既能	-18354
日在	-18355
明目	-18356
易受	-18357
是受	-18358
最受	-18359
最深	-18360
有之	-18361
极富	-18362
柯齐	-18363
柴油	-18364
校长	-18365
棋盘	-18366
水泥	-18367
水道	-18368
污点	-18369
没法	-18370
洛斯	-18371
派出	-18372
淡化	-18373
深层	-18374
渐行	-18375
满了	-18376
灌输	-18377
点对	-18378
煤电	-18379
照旧	-18380
爱好	-18381
牵制	-18382
牵扯	-18383
犯有	-18384
狐疑	-18385
猛然	-18386
玛丽	-18387
玛雅	-18388
玻璃	-18389
用品	-18390
由我	-18391
画面	-18392
疲于	-18393
痕迹	-18394
百年	-18395
的两	-18396
的本	-18397
的每	-18398
的被	-18399
监会	-18400
相处	-18401
相识	-18402
相辅	-18403
相连	-18404
看清	-18405
矿业	-18406
碰巧	-18407
碳化	-18408
福特	-18409
称赞	-18410
移交	-18411
空想	-18412
空谈	-18413
第六	-18414
算是	-18415
粗暴	-18416
纠结	-18417
纳吉	-18418
纽带	-18419
终将	-18420
统领	-18421
维奥	-18422
罢了	-18423
美妙	-18424
老师	-18425
者在	-18426
者所	-18427
而去	-18428
而知	-18429
耳熟	-18430
职权	-18431
肌肉	-18432
自发	-18433
自生	-18434
至上	-18435
莱因	-18436
萌芽	-18437
蒙上	-18438
蒙蔽	-18439
藐视	-18440
虚伪	-18441
西里	-18442
观测	-18443
计量	-18444
证词	-18445
该州	-18446
说得	-18447
诺德	-18448
财经	-18449
贴上	-18450
赎回	-18451
赦免	-18452
起因	-18453
超凡	-18454
车辆	-18455
转到	-18456
过活	-18457
逃往	-18458
逐出	-18459
通吃	-18460
避险	-18461
邦联	-18462
都很	-18463
配备	-18464
重于	-18465
铁腕	-18466
间断	-18467
队的	-18468
阴暗	-18469
阵痛	-18470
陆上	-18471
难堪	-18472
雅克	-18473
雕像	-18474
雷斯	-18475
面值	-18476
预知	-18477
颜色	-18478
食用	-18479
食者	-18480
饲料	-18481
首选	-18482
马约	-18483
黎明	-18484
黑田	-18485
齐观	-18486
11.	-18487
170	-18488
4.4	-18489
45%	-18490
HPV	-18491
PNV	-18492
Sam	-18493
acy	-18494
ala	-18495
ama	-18496
bra	-18497
cal	-18498
ica	-18499
ide	-18500
ign	-18501
ini	-18502
olc	-18503
oll	-18504
por	-18505
rad	-18506
rey	-18507
yri	-18508
▁re	-18509
▁一切	-18510
▁不能	-18511
▁之后	-18512
▁乐观	-18513
▁值得	-18514
▁公开	-18515
▁制定	-18516
▁医生	-18517
▁及其	-18518
▁商业	-18519
▁它是	-18520
▁最初	-18521
▁此时	-18522
▁特别	-18523
▁相信	-18524
▁税收	-18525
▁穷人	-18526
▁管理	-18527
▁缺少	-18528
▁谈判	-18529
▁贫困	-18530
▁选举	-18531
▁避免	-18532
万欧元	-18533
上半叶	-18534
不匹配	-18535
不啻于	-18536
不干涉	-18537
不支持	-18538
不相容	-18539
不能让	-18540
与他们	-18541
与德国	-18542
与邻国	-18543
与韩国	-18544
专家和	-18545
严肃的	-18546
个例子	-18547
中国正	-18548
丰厚的	-18549
为非洲	-18550
之下的	-18551
乔纳森	-18552
也是最	-18553
了一定	-18554
了一批	-18555
了一点	-18556
于去年	-18557
从一个	-18558
从前的	-18559
他指出	-18560
以减少	-18561
以反映	-18562
以阻止	-18563
会削弱	-18564
传统和	-18565
似乎与	-18566
但同时	-18567
但实际	-18568
但由于	-18569
你们的	-18570
使人们	-18571
供应量	-18572
信心仙	-18573
俾斯麦	-18574
做一些	-18575
停止了	-18576
克里斯	-18577
公开发	-18578
六百万	-18579
共有的	-18580
其债务	-18581
其政策	-18582
其目标	-18583
具系统	-18584
军事和	-18585
决定其	-18586
准确的	-18587
几年内	-18588
则认为	-18589
创下了	-18590
创业者	-18591
利沃夫	-18592
制造出	-18593
制造者	-18594
加大了	-18595
包含着	-18596
十九大	-18597
十八大	-18598
危险性	-18599
历史和	-18600
去解决	-18601
参与的	-18602
发挥其	-18603
发达和	-18604
取代了	-18605
召开了	-18606
叶利钦	-18607
同时对	-18608
后来的	-18609
和一些	-18610
和外国	-18611
和实际	-18612
和平等	-18613
和建设	-18614
和暴力	-18615
和机会	-18616
和现在	-18617
和约旦	-18618
和贷款	-18619
和通讯	-18620
和那些	-18621
和限制	-18622
国民党	-18623
在一边	-18624
在上海	-18625
在国会	-18626
在明年	-18627
在能源	-18628
在这场	-18629
地利用	-18630
地看到	-18631
外交和	-18632
多一点	-18633
多世纪	-18634
多数派	-18635
奖学金	-18636
如果有	-18637
如果要	-18638
它们会	-18639
定价和	-18640
对移民	-18641
将增长	-18642
将拥有	-18643
将随着	-18644
小时的	-18645
尔德斯	-18646
就成了	-18647
就难以	-18648
局势的	-18649
局限在	-18650
崭新的	-18651
工作或	-18652
巴罗索	-18653
年平均	-18654
年长者	-18655
年龄段	-18656
并利用	-18657
并强化	-18658
并承诺	-18659
并由此	-18660
并造成	-18661
并采取	-18662
应当在	-18663
应该从	-18664
开始在	-18665
开放性	-18666
弊大于	-18667
弗利卡	-18668
强加给	-18669
当局在	-18670
心血管	-18671
怎样做	-18672
惊人地	-18673
戏剧性	-18674
成长的	-18675
我相信	-18676
或以上	-18677
房价的	-18678
所发生	-18679
所抵消	-18680
把中国	-18681
指导下	-18682
指责为	-18683
捐助国	-18684
捷克斯	-18685
控制线	-18686
描绘成	-18687
政府还	-18688
政治中	-18689
政治局	-18690
数千名	-18691
新产品	-18692
方法来	-18693
无非是	-18694
时间去	-18695
是关于	-18696
普通的	-18697
更安全	-18698
更稳定	-18699
曾经的	-18700
最优秀	-18701
最有效	-18702
最近也	-18703
有一定	-18704
有两种	-18705
有大约	-18706
有很大	-18707
有益的	-18708
本可以	-18709
来到了	-18710
来支付	-18711
来看看	-18712
来评估	-18713
来避免	-18714
柳叶刀	-18715
格拉斯	-18716
模式中	-18717
比中国	-18718
比任何	-18719
比预期	-18720
污染物	-18721
汽车的	-18722
沃尔福	-18723
没那么	-18724
法尼亚	-18725
泰国的	-18726
渐行渐	-18727
湄公河	-18728
熟悉的	-18729
特斯拉	-18730
状况下	-18731
理由去	-18732
用一个	-18733
畜牧业	-18734
的产物	-18735
的伊朗	-18736
的使命	-18737
的兴趣	-18738
的典型	-18739
的农村	-18740
的动作	-18741
的员工	-18742
的呼声	-18743
的学校	-18744
的官员	-18745
的忧虑	-18746
的总和	-18747
的愿景	-18748
的新书	-18749
的新的	-18750
的机遇	-18751
的来源	-18752
的模型	-18753
的欧元	-18754
的武器	-18755
的第二	-18756
的行政	-18757
的观念	-18758
的记录	-18759
的语言	-18760
的镇压	-18761
盟友的	-18762
目前所	-18763
相辅相	-18764
短暂的	-18765
短期的	-18766
确保其	-18767
祖国的	-18768
离不开	-18769
突然间	-18770
突破性	-18771
第二种	-18772
等主要	-18773
简直是	-18774
系统中	-18775
纺织品	-18776
经理人	-18777
给那些	-18778
统计局	-18779
维持其	-18780
维生素	-18781
缓解了	-18782
美国从	-18783
美国所	-18784
而改变	-18785
联邦制	-18786
自下而	-18787
艰难的	-18788
蒂勒森	-18789
表现在	-18790
被关押	-18791
触目惊	-18792
认为它	-18793
认可的	-18794
认真的	-18795
讨论中	-18796
资金和	-18797
走上了	-18798
走到了	-18799
足轻重	-18800
跨党派	-18801
转基因	-18802
过任何	-18803
过山车	-18804
这或许	-18805
这才是	-18806
这条路	-18807
这正是	-18808
这番话	-18809
迟早会	-18810
通过向	-18811
那么他	-18812
那么在	-18813
邪恶的	-18814
都不太	-18815
都十分	-18816
都支持	-18817
银行间	-18818
防火墙	-18819
阿赫蒂	-18820
限度的	-18821
难民潮	-18822
集中度	-18823
零售商	-18824
需求和	-18825
需要将	-18826
革命性	-18827
领土上	-18828
领土和	-18829
领域是	-18830
领袖们	-18831
颠覆了	-18832
首先要	-18833
首屈一	-18834
高企的	-18835
高回报	-18836
高杠杆	-18837
麦凯恩	-18838
1972	-18839
1987	-18840
2100	-18841
GAVI	-18842
adji	-18843
ater	-18844
form	-18845
ject	-18846
reen	-18847
rich	-18848
▁Law	-18849
▁Rev	-18850
▁Sti	-18851
▁Stu	-18852
▁中国人	-18853
▁中国对	-18854
▁互联网	-18855
▁亲爱的	-18856
▁人们对	-18857
▁他们说	-18858
▁但也有	-18859
▁但政府	-18860
▁但无论	-18861
▁但要想	-18862
▁但鉴于	-18863
▁低利率	-18864
▁例如在	-18865
▁卢旺达	-18866
▁在当今	-18867
▁在我们	-18868
▁在短期	-18869
▁在西方	-18870
▁巴拉克	-18871
▁当时的	-18872
▁我们对	-18873
▁房地产	-18874
▁更多的	-18875
▁相对于	-18876
▁艾滋病	-18877
▁芝加哥	-18878
▁这一新	-18879
▁这方面	-18880
▁麦肯锡	-18881
一国两制	-18882
一定程度	-18883
一直认为	-18884
一致认为	-18885
三驾马车	-18886
不可分割	-18887
不可能在	-18888
不容忽视	-18889
不断升级	-18890
不是因为	-18891
专家小组	-18892
严峻挑战	-18893
中国制造	-18894
为了应对	-18895
为什么不	-18896
主导作用	-18897
主要通过	-18898
主要问题	-18899
举行选举	-18900
也不足以	-18901
也在增加	-18902
也是可以	-18903
也经历了	-18904
也许已经	-18905
二十年中	-18906
亚投行的	-18907
亚洲安全	-18908
人权宣言	-18909
什么样的	-18910
他们应当	-18911
他的政府	-18912
令人满意	-18913
价格下降	-18914
但它们的	-18915
作为全球	-18916
做出改变	-18917
做的事情	-18918
儿童提供	-18919
全国人民	-18920
全球合作	-18921
公共开支	-18922
公共机构	-18923
共和党的	-18924
几个月后	-18925
出了问题	-18926
制定新的	-18927
削减支出	-18928
努力工作	-18929
包括那些	-18930
十年前的	-18931
卫生服务	-18932
印度总理	-18933
压倒性的	-18934
叛乱分子	-18935
可以产生	-18936
可以忽略	-18937
可以确保	-18938
可能因此	-18939
可能正在	-18940
可能非常	-18941
同样重要	-18942
和互联网	-18943
和伊斯兰	-18944
和平解决	-18945
和消费者	-18946
喀拉拉邦	-18947
四个国家	-18948
因为人们	-18949
因为政府	-18950
团结一致	-18951
国家主权	-18952
国有银行	-18953
国际援助	-18954
在一开始	-18955
在联合国	-18956
地理位置	-18957
坚定不移	-18958
基于规则	-18959
基础研究	-18960
增加投资	-18961
外国公司	-18962
外部世界	-18963
多数国家	-18964
多种多样	-18965
大型烟草	-18966
大大降低	-18967
大学教育	-18968
大幅增长	-18969
大幅改善	-18970
大经济体	-18971
天主教徒	-18972
如何实现	-18973
存在一些	-18974
实现一个	-18975
实用主义	-18976
实际工资	-18977
对我们的	-18978
对欧元区	-18979
对美联储	-18980
导致他们	-18981
将会产生	-18982
就不得不	-18983
就会产生	-18984
尽管中国	-18985
巨大影响	-18986
已经相当	-18987
已经进入	-18988
布鲁金斯	-18989
并且没有	-18990
应该考虑	-18991
建立一套	-18992
开始下降	-18993
异口同声	-18994
彼此之间	-18995
循环利用	-18996
德国政府	-18997
必须改变	-18998
必须进行	-18999
怀疑主义	-19000
总统宝座	-19001
息息相关	-19002
悲剧性的	-19003
感到十分	-19004
我们就能	-19005
所付出的	-19006
所实施的	-19007
所描述的	-19008
所进行的	-19009
才能完成	-19010
打下基础	-19011
执行死刑	-19012
找到一个	-19013
找到办法	-19014
技术变革	-19015
技能培训	-19016
投资增长	-19017
投资者对	-19018
担任总统	-19019
持续不断	-19020
挑战在于	-19021
接受教育	-19022
推动作用	-19023
摇身一变	-19024
支出上限	-19025
政府能够	-19026
政府需要	-19027
政治体制	-19028
政治势力	-19029
政治问题	-19030
整个欧盟	-19031
无法承受	-19032
无法控制	-19033
日益严重	-19034
明目张胆	-19035
是不可能	-19036
暴力事件	-19037
更加关注	-19038
更加有效	-19039
更加紧密	-19040
更加透明	-19041
更美好的	-19042
曼努埃尔	-19043
最危险的	-19044
最新研究	-19045
最糟糕的	-19046
最终可能	-19047
最近几年	-19048
有可能在	-19049
有所降低	-19050
有朝一日	-19051
服务业和	-19052
服务部门	-19053
某种程度	-19054
核心作用	-19055
橙色革命	-19056
欧元贬值	-19057
欧洲社会	-19058
正在开始	-19059
正在采取	-19060
正在重新	-19061
民主党的	-19062
没人知道	-19063
浮出水面	-19064
消费需求	-19065
混乱局面	-19066
烟草控制	-19067
特殊利益	-19068
犹太人的	-19069
生存下去	-19070
的一揽子	-19071
的合理性	-19072
的科学家	-19073
的领导力	-19074
监管者和	-19075
直接外资	-19076
相互依赖	-19077
确实存在	-19078
种子条约	-19079
稀缺资源	-19080
税收负担	-19081
等量齐观	-19082
粮农组织	-19083
紧随其后	-19084
纳粹德国	-19085
经济刺激	-19086
经济学界	-19087
经济移民	-19088
经济进步	-19089
统治下的	-19090
继续上升	-19091
继续支持	-19092
继续进行	-19093
维持下去	-19094
美国国家	-19095
美国需要	-19096
老龄化的	-19097
而是为了	-19098
而这也是	-19099
能源资源	-19100
节节攀升	-19101
英国央行	-19102
莱因哈特	-19103
萨尔柯齐	-19104
衡量标准	-19105
表现出色	-19106
被任命为	-19107
西尔维奥	-19108
要求他们	-19109
覆盖范围	-19110
观察到的	-19111
观点认为	-19112
解决机制	-19113
计划中的	-19114
许多人都	-19115
负担得起	-19116
财政巩固	-19117
货币刺激	-19118
足够多的	-19119
达成任何	-19120
还不足以	-19121
还有助于	-19122
这一角色	-19123
这座城市	-19124
这次危机	-19125
这种疾病	-19126
这项计划	-19127
进口价格	-19128
进展缓慢	-19129
那么他们	-19130
采取何种	-19131
采用欧元	-19132
重振增长	-19133
重新启动	-19134
重新回到	-19135
重新安置	-19136
重要因素	-19137
金融产品	-19138
银行提供	-19139
问题重重	-19140
需求下降	-19141
非常有限	-19142
非洲政府	-19143
预算削减	-19144
预防措施	-19145
风险资本	-19146
驾驶汽车	-19147
1,500	-19148
Peter	-19149
raghi	-19150
—2009	-19151
▁1992	-19152
▁Serv	-19153
▁世界经济	-19154
▁他们可以	-19155
▁但实际上	-19156
▁关键在于	-19157
▁其中一些	-19158
▁哈佛大学	-19159
▁如果伊朗	-19160
▁如果英国	-19161
▁它们可以	-19162
▁恐怖主义	-19163
▁目前为止	-19164
▁绝大多数	-19165
▁而这正是	-19166
▁货币政策	-19167
▁这一决定	-19168
▁这一数字	-19169
▁这个数字	-19170
一直在下降	-19171
东亚经济体	-19172
严重的错误	-19173
中央银行家	-19174
之所以如此	-19175
之间的竞争	-19176
之间的贸易	-19177
也同样重要	-19178
了这一问题	-19179
人口老龄化	-19180
他们的政治	-19181
价格的下跌	-19182
伊斯兰教的	-19183
储蓄和投资	-19184
儿童基金会	-19185
决策者应该	-19186
制造业岗位	-19187
医疗和教育	-19188
印度和巴西	-19189
原因很简单	-19190
发布的一份	-19191
发挥的作用	-19192
发达国家中	-19193
可以预见的	-19194
同样的事情	-19195
和尼日利亚	-19196
和巴勒斯坦	-19197
和新兴市场	-19198
唯一的选择	-19199
在此过程中	-19200
地区和全球	-19201
地方政府和	-19202
坚实的基础	-19203
奥斯曼帝国	-19204
孟加拉国的	-19205
将变得更加	-19206
已经产生了	-19207
已经出现了	-19208
已经成为了	-19209
市场经济的	-19210
应该被视为	-19211
弗兰克法案	-19212
微不足道的	-19213
我们的生活	-19214
拥有足够的	-19215
提供更多的	-19216
更加强大的	-19217
最贫困人口	-19218
极右翼政党	-19219
欧元区内部	-19220
欧洲央行和	-19221
民族国家的	-19222
法国大革命	-19223
甚至有可能	-19224
留在欧元区	-19225
的唯一途径	-19226
的政治家们	-19227
的最佳办法	-19228
的研究人员	-19229
的社会主义	-19230
的社会保障	-19231
的移民政策	-19232
的经济活动	-19233
的经济问题	-19234
的财政刺激	-19235
石油天然气	-19236
社会和治理	-19237
社会和环境	-19238
究竟是什么	-19239
美国消费者	-19240
艰巨的任务	-19241
贸易自由化	-19242
还不如说是	-19243
还为时过早	-19244
这两个国家	-19245
造成的影响	-19246
金融市场和	-19247
非洲国家的	-19248
马歇尔计划	-19249
马萨诸塞州	-19250
高昂的代价	-19251
20,000	-19252
adjiev	-19253
apital	-19254
enberg	-19255
illiam	-19256
liance	-19257
mental	-19258
▁Board	-19259
▁Prote	-19260
▁但我们必须	-19261
▁在许多国家	-19262
不仅仅是一个	-19263
世界各国政府	-19264
产生重大影响	-19265
债券购买计划	-19266
全民基本收入	-19267
创造就业岗位	-19268
参拜靖国神社	-19269
吉尔吉斯斯坦	-19270
和其他地区的	-19271
回答这个问题	-19272
国家安全战略	-19273
州和地方政府	-19274
年金融危机后	-19275
应对全球变暖	-19276
捷克斯洛伐克	-19277
更重要的角色	-19278
欧洲其他国家	-19279
注意力集中在	-19280
燃烧化石燃料	-19281
的发展中国家	-19282
美国外交政策	-19283
英格兰银行的	-19284
造成了巨大的	-19285
▁Agency	-19286
▁Draghi	-19287
▁这也是为什么	-19288
[...]
