<pad>	0
<s>	0
</s>	0
<unk>	0
▁t	-0
in	-1
▁a	-2
he	-3
re	-4
on	-5
▁the	-6
er	-7
at	-8
en	-9
▁c	-10
▁s	-11
it	-12
▁o	-13
an	-14
es	-15
is	-16
▁w	-17
al	-18
▁p	-19
or	-20
▁b	-21
▁in	-22
▁f	-23
ed	-24
nd	-25
ing	-26
▁to	-27
ic	-28
▁m	-29
ar	-30
ion	-31
▁of	-32
ro	-33
▁d	-34
▁and	-35
ou	-36
ent	-37
▁th	-38
▁e	-39
le	-40
st	-41
▁re	-42
▁h	-43
om	-44
▁n	-45
il	-46
ve	-47
ly	-48
as	-49
▁l	-50
▁be	-51
ct	-52
▁g	-53
ut	-54
▁is	-55
ol	-56
ation	-57
▁that	-58
▁T	-59
im	-60
▁A	-61
ce	-62
se	-63
▁de	-64
ver	-65
ot	-66
ur	-67
ra	-68
ment	-69
▁for	-70
ld	-71
▁I	-72
ig	-73
id	-74
ow	-75
et	-76
▁it	-77
▁on	-78
▁C	-79
ies	-80
▁st	-81
nt	-82
ch	-83
ad	-84
▁pro	-85
▁u	-86
ill	-87
ir	-88
ate	-89
▁con	-90
▁B	-91
ul	-92
▁E	-93
▁–	-94
ore	-95
▁S	-96
▁as	-97
pe	-98
ers	-99
ith	-100
▁The	-101
est	-102
▁wh	-103
▁r	-104
ity	-105
▁al	-106
▁cou	-107
▁su	-108
her	-109
▁ex	-110
lo	-111
ge	-112
▁with	-113
ort	-114
▁are	-115
ay	-116
ist	-117
ab	-118
con	-119
ess	-120
▁an	-121
▁ne	-122
ial	-123
▁U	-124
th	-125
res	-126
ive	-127
ain	-128
us	-129
▁ha	-130
ter	-131
▁not	-132
if	-133
▁com	-134
iv	-135
am	-136
▁we	-137
ke	-138
▁by	-139
▁Ch	-140
▁has	-141
conom	-142
em	-143
▁have	-144
▁M	-145
ac	-146
ould	-147
pp	-148
▁se	-149
▁le	-150
▁pol	-151
▁will	-152
▁sh	-153
▁econom	-154
and	-155
qu	-156
ust	-157
▁wor	-158
▁Chin	-159
oc	-160
▁W	-161
uro	-162
▁P	-163
um	-164
▁en	-165
▁v	-166
igh	-167
▁count	-168
rom	-169
▁F	-170
over	-171
op	-172
ost	-173
ant	-174
ap	-175
ical	-176
▁im	-177
▁from	-178
▁countr	-179
▁at	-180
os	-181
▁G	-182
ia	-183
▁or	-184
ions	-185
▁more	-186
▁its	-187
▁ch	-188
od	-189
iz	-190
▁he	-191
▁“	-192
art	-193
▁y	-194
▁their	-195
ure	-196
ome	-197
ast	-198
ong	-199
▁2	-200
▁China	-201
▁Euro	-202
ib	-203
ans	-204
▁inc	-205
▁Europe	-206
un	-207
▁int	-208
ff	-209
▁imp	-210
▁But	-211
ther	-212
▁un	-213
el	-214
row	-215
▁res	-216
red	-217
ich	-218
ear	-219
▁R	-220
▁In	-221
anc	-222
ru	-223
ect	-224
▁would	-225
ak	-226
mer	-227
▁N	-228
end	-229
▁ad	-230
gh	-231
▁this	-232
pt	-233
all	-234
▁ab	-235
ight	-236
▁can	-237
overn	-238
ary	-239
▁was	-240
▁US	-241
▁ag	-242
▁20	-243
ance	-244
▁1	-245
▁they	-246
▁cont	-247
▁than	-248
able	-249
du	-250
▁countries	-251
ric	-252
▁which	-253
▁govern	-254
ous	-255
▁fin	-256
cc	-257
out	-258
ard	-259
ational	-260
▁O	-261
▁all	-262
rou	-263
ates	-264
ud	-265
▁comp	-266
ip	-267
ated	-268
▁D	-269
ign	-270
ark	-271
▁Th	-272
ations	-273
▁grow	-274
▁whe	-275
▁world	-276
ere	-277
ank	-278
▁exp	-279
▁year	-280
▁(	-281
▁rec	-282
ress	-283
▁man	-284
bal	-285
ult	-286
▁government	-287
▁fa	-288
▁j	-289
ie	-290
ven	-291
▁economic	-292
ike	-293
lic	-294
orm	-295
▁H	-296
▁polic	-297
▁but	-298
one	-299
▁do	-300
▁dis	-301
reat	-302
ide	-303
▁tr	-304
▁part	-305
ence	-306
lobal	-307
▁polit	-308
▁inv	-309
▁bec	-310
▁new	-311
▁pl	-312
ag	-313
ris	-314
▁reg	-315
▁out	-316
ub	-317
▁been	-318
og	-319
▁other	-320
▁so	-321
ine	-322
ors	-323
age	-324
ree	-325
▁pe	-326
▁dec	-327
▁me	-328
ile	-329
arket	-330
▁L	-331
▁over	-332
ep	-333
▁global	-334
▁As	-335
ime	-336
ction	-337
lop	-338
velop	-339
▁growth	-340
are	-341
▁lead	-342
▁Un	-343
▁tra	-344
ll	-345
ack	-346
▁J	-347
▁one	-348
form	-349
so	-350
ose	-351
ally	-352
ian	-353
ower	-354
meric	-355
▁inter	-356
ens	-357
▁ris	-358
▁ind	-359
ition	-360
erm	-361
ren	-362
▁financ	-363
▁need	-364
▁und	-365
▁K	-366
ern	-367
▁Americ	-368
▁dem	-369
▁also	-370
▁eff	-371
ities	-372
▁market	-373
ue	-374
▁should	-375
au	-376
our	-377
ility	-378
▁like	-379
reas	-380
▁only	-381
▁invest	-382
cy	-383
ake	-384
▁cons	-385
▁develop	-386
▁could	-387
▁political	-388
▁comm	-389
ident	-390
▁about	-391
ire	-392
ople	-393
▁most	-394
▁pre	-395
▁acc	-396
▁bank	-397
▁such	-398
fic	-399
▁per	-400
▁str	-401
▁no	-402
▁who	-403
ange	-404
▁European	-405
▁long	-406
▁It	-407
▁now	-408
▁cl	-409
▁policy	-410
ord	-411
ative	-412
▁bet	-413
low	-414
▁cap	-415
ited	-416
▁financial	-417
▁there	-418
▁supp	-419
▁sp	-420
ments	-421
▁even	-422
ublic	-423
▁EU	-424
▁years	-425
uch	-426
▁people	-427
ood	-428
rit	-429
▁up	-430
ism	-431
▁Ind	-432
▁qu	-433
▁Af	-434
▁19	-435
ble	-436
▁increas	-437
old	-438
ach	-439
gy	-440
▁work	-441
00	-442
ew	-443
▁cur	-444
ious	-445
▁many	-446
illion	-447
▁rem	-448
ber	-449
▁pr	-450
▁some	-451
▁inf	-452
yst	-453
▁em	-454
ces	-455
▁were	-456
bt	-457
ital	-458
ution	-459
de	-460
▁them	-461
erv	-462
int	-463
▁economy	-464
ause	-465
▁country	-466
▁St	-467
▁if	-468
▁app	-469
und	-470
ish	-471
▁under	-472
▁ra	-473
act	-474
▁must	-475
ough	-476
▁his	-477
lect	-478
▁rel	-479
av	-480
▁This	-481
▁ar	-482
▁And	-483
▁when	-484
▁201	-485
ang	-486
amp	-487
ame	-488
ystem	-489
▁these	-490
▁cris	-491
▁lar	-492
▁produ	-493
▁k	-494
ace	-495
per	-496
ons	-497
eral	-498
pect	-499
▁power	-500
very	-501
own	-502
rough	-503
▁ro	-504
erest	-505
arly	-506
▁may	-507
uc	-508
ms	-509
ating	-510
ks	-511
▁tw	-512
vent	-513
▁sc	-514
alth	-515
▁system	-516
▁us	-517
ount	-518
▁fir	-519
ese	-520
ass	-521
▁po	-522
▁te	-523
▁intern	-524
cess	-525
we	-526
▁into	-527
▁cent	-528
resident	-529
▁soc	-530
▁am	-531
▁rep	-532
▁much	-533
▁leaders	-534
▁how	-535
▁what	-536
ory	-537
▁time	-538
▁interest	-539
▁act	-540
ced	-541
▁att	-542
▁crisis	-543
lud	-544
ond	-545
▁inst	-546
▁had	-547
oss	-548
▁public	-549
▁co	-550
get	-551
uss	-552
ind	-553
ert	-554
▁ow	-555
.”	-556
▁recent	-557
olog	-558
ild	-559
▁real	-560
▁mon	-561
ific	-562
▁any	-563
▁high	-564
ible	-565
ists	-566
its	-567
ful	-568
ov	-569
▁just	-570
▁trans	-571
ual	-572
ade	-573
▁import	-574
ruct	-575
▁proble	-576
ient	-577
ral	-578
▁fore	-579
imate	-580
hip	-581
▁far	-582
▁dif	-583
hed	-584
ob	-585
▁international	-586
▁conf	-587
▁again	-588
▁200	-589
▁war	-590
▁United	-591
▁ref	-592
vers	-593
▁because	-594
hen	-595
▁well	-596
▁ac	-597
ization	-598
urn	-599
▁contin	-600
ives	-601
ject	-602
iss	-603
▁pric	-604
▁debt	-605
ics	-606
ax	-607
ok	-608
ise	-609
uring	-610
ase	-611
read	-612
ied	-613
▁prov	-614
▁support	-615
▁two	-616
▁remain	-617
▁Chinese	-618
▁gen	-619
▁those	-620
▁way	-621
iven	-622
pec	-623
▁For	-624
oth	-625
ption	-626
▁Y	-627
lear	-628
ite	-629
iet	-630
ry	-631
▁America	-632
ove	-633
ween	-634
▁less	-635
ward	-636
▁fact	-637
vel	-638
opul	-639
▁def	-640
any	-641
oll	-642
▁end	-643
rent	-644
ound	-645
ration	-646
sel	-647
▁between	-648
eed	-649
itt	-650
ues	-651
▁add	-652
inist	-653
▁ent	-654
chn	-655
▁effect	-656
ene	-657
ize	-658
▁while	-659
▁dep	-660
▁capital	-661
▁opp	-662
▁des	-663
▁mod	-664
▁Afric	-665
ice	-666
ures	-667
▁includ	-668
▁right	-669
ail	-670
ict	-671
▁prog	-672
▁hel	-673
ings	-674
ural	-675
aj	-676
▁own	-677
term	-678
▁sec	-679
▁popul	-680
▁our	-681
▁euro	-682
▁large	-683
▁mem	-684
▁Russ	-685
ince	-686
ability	-687
round	-688
▁adv	-689
▁investment	-690
▁help	-691
▁sur	-692
allen	-693
aw	-694
▁cost	-695
▁national	-696
▁first	-697
▁off	-698
▁requ	-699
▁resp	-700
led	-701
▁change	-702
▁ass	-703
▁last	-704
▁banks	-705
rib	-706
▁techn	-707
▁Wh	-708
▁examp	-709
▁On	-710
ajor	-711
ential	-712
▁fund	-713
▁redu	-714
▁af	-715
▁trade	-716
ri	-717
▁ob	-718
ergy	-719
▁state	-720
▁current	-721
cal	-722
▁reform	-723
ump	-724
loy	-725
▁through	-726
▁sim	-727
aking	-728
rat	-729
▁bo	-730
ty	-731
▁$	-732
ilit	-733
▁tax	-734
▁sub	-735
orts	-736
▁result	-737
▁sign	-738
ized	-739
▁conc	-740
utions	-741
▁Is	-742
▁cre	-743
▁infl	-744
▁major	-745
▁markets	-746
DP	-747
▁against	-748
▁seem	-749
▁partic	-750
▁example	-751
▁appro	-752
▁health	-753
les	-754
▁hum	-755
oun	-756
gest	-757
▁kn	-758
▁both	-759
▁ext	-760
▁If	-761
ically	-762
▁democ	-763
▁great	-764
▁region	-765
▁Germ	-766
fere	-767
ging	-768
▁become	-769
▁Se	-770
ract	-771
▁go	-772
▁rates	-773
▁challen	-774
▁good	-775
▁ke	-776
ram	-777
▁aut	-778
▁cor	-779
▁where	-780
day	-781
▁after	-782
iness	-783
▁too	-784
urity	-785
▁make	-786
▁important	-787
▁foreign	-788
▁governments	-789
ting	-790
▁development	-791
ts	-792
▁est	-793
▁lo	-794
▁social	-795
gan	-796
ices	-797
▁demand	-798
ink	-799
▁energy	-800
ortun	-801
xt	-802
▁instit	-803
▁strate	-804
apan	-805
ploy	-806
▁economies	-807
▁bu	-808
ather	-809
▁Tr	-810
▁fail	-811
ready	-812
ending	-813
▁GDP	-814
▁bene	-815
▁President	-816
ater	-817
▁emer	-818
ron	-819
▁policies	-820
not	-821
▁rest	-822
▁fut	-823
▁sol	-824
▁Japan	-825
▁risk	-826
▁prom	-827
▁technolog	-828
omm	-829
▁dom	-830
▁prot	-831
▁serv	-832
ense	-833
als	-834
▁still	-835
▁val	-836
▁does	-837
fore	-838
▁offic	-839
▁back	-840
▁today	-841
,”	-842
ath	-843
ision	-844
▁More	-845
▁States	-846
ft	-847
▁every	-848
ays	-849
usiness	-850
▁Brit	-851
less	-852
ually	-853
▁future	-854
▁already	-855
0%	-856
▁rate	-857
▁ret	-858
etary	-859
▁level	-860
▁iss	-861
▁billion	-862
ning	-863
eg	-864
▁bas	-865
▁cour	-866
iscal	-867
▁That	-868
▁cred	-869
▁sa	-870
ined	-871
▁consum	-872
▁same	-873
ingly	-874
ians	-875
▁strong	-876
outh	-877
zone	-878
▁equ	-879
eration	-880
▁3	-881
ially	-882
▁human	-883
▁Russia	-884
▁use	-885
ten	-886
▁milit	-887
▁ins	-888
▁main	-889
iew	-890
▁indust	-891
▁low	-892
ck	-893
▁ed	-894
▁leg	-895
▁pur	-896
▁West	-897
▁problem	-898
▁benef	-899
ctor	-900
▁Africa	-901
▁since	-902
rast	-903
ran	-904
ality	-905
▁product	-906
▁ann	-907
▁business	-908
ants	-909
▁set	-910
iron	-911
▁el	-912
▁sm	-913
ouse	-914
▁likely	-915
ared	-916
der	-917
▁fiscal	-918
▁central	-919
▁differe	-920
▁being	-921
),	-922
▁climate	-923
).	-924
▁American	-925
▁regul	-926
▁Trump	-927
▁short	-928
▁might	-929
ily	-930
▁Indeed	-931
ably	-932
▁Bank	-933
ges	-934
▁take	-935
inc	-936
▁pos	-937
other	-938
▁disc	-939
▁V	-940
▁elect	-941
▁Asia	-942
▁const	-943
▁es	-944
▁priv	-945
abor	-946
pl	-947
▁op	-948
▁term	-949
mental	-950
ss	-951
ccess	-952
hing	-953
tern	-954
▁prices	-955
▁without	-956
▁see	-957
▁br	-958
imes	-959
ving	-960
▁commun	-961
▁including	-962
▁De	-963
▁made	-964
bers	-965
▁particul	-966
▁point	-967
ior	-968
ger	-969
ider	-970
▁decl	-971
ved	-972
ness	-973
▁vot	-974
▁India	-975
▁reas	-976
▁threat	-977
▁To	-978
ever	-979
▁military	-980
ines	-981
▁bel	-982
▁down	-983
▁educ	-984
▁compet	-985
ell	-986
ency	-987
▁med	-988
▁call	-989
ieve	-990
hold	-991
▁eurozone	-992
▁ser	-993
ged	-994
▁env	-995
ertain	-996
▁better	-997
▁neg	-998
▁cannot	-999
land	-1000
abl	-1001
▁With	-1002
ex	-1003
▁stand	-1004
ivers	-1005
▁expect	-1006
▁success	-1007
▁job	-1008
▁poss	-1009
▁impro	-1010
▁At	-1011
▁agree	-1012
▁million	-1013
▁ter	-1014
▁pers	-1015
uel	-1016
here	-1017
ience	-1018
cond	-1019
▁fac	-1020
▁know	-1021
▁states	-1022
▁quest	-1023
hor	-1024
anies	-1025
▁Int	-1026
▁hig	-1027
▁Wor	-1028
▁aff	-1029
▁did	-1030
▁toward	-1031
ructure	-1032
▁Germany	-1033
▁often	-1034
▁prop	-1035
▁contro	-1036
idd	-1037
▁ide	-1038
stain	-1039
cept	-1040
▁dist	-1041
▁ev	-1042
ollow	-1043
▁another	-1044
▁imm	-1045
▁environ	-1046
ars	-1047
▁account	-1048
▁clo	-1049
arch	-1050
▁start	-1051
▁sustain	-1052
▁approach	-1053
li	-1054
▁process	-1055
▁security	-1056
▁We	-1057
▁course	-1058
lement	-1059
ents	-1060
▁dire	-1061
▁three	-1062
▁ant	-1063
▁Union	-1064
orth	-1065
▁companies	-1066
racy	-1067
ury	-1068
ources	-1069
ute	-1070
ately	-1071
ivity	-1072
▁East	-1073
ployment	-1074
uclear	-1075
▁arg	-1076
▁ap	-1077
▁hist	-1078
▁order	-1079
▁curren	-1080
▁hard	-1081
ered	-1082
▁move	-1083
▁law	-1084
▁past	-1085
▁then	-1086
▁trad	-1087
▁pres	-1088
ross	-1089
▁allow	-1090
▁monetary	-1091
▁turn	-1092
▁av	-1093
▁loc	-1094
▁view	-1095
▁meas	-1096
▁pay	-1097
▁pot	-1098
ocus	-1099
iving	-1100
rem	-1101
self	-1102
▁put	-1103
▁rul	-1104
ades	-1105
cing	-1106
▁ine	-1107
▁rev	-1108
▁They	-1109
road	-1110
▁few	-1111
▁So	-1112
por	-1113
▁before	-1114
▁least	-1115
▁around	-1116
▁Comm	-1117
▁very	-1118
▁protect	-1119
▁official	-1120
▁South	-1121
▁Fr	-1122
▁address	-1123
▁There	-1124
▁institutions	-1125
▁among	-1126
▁income	-1127
▁ens	-1128
▁follow	-1129
stand	-1130
▁child	-1131
▁next	-1132
▁Al	-1133
uge	-1134
osed	-1135
▁Moreover	-1136
▁tar	-1137
ivid	-1138
▁eas	-1139
▁Iran	-1140
▁focus	-1141
▁increase	-1142
▁lim	-1143
▁private	-1144
ued	-1145
▁president	-1146
itions	-1147
▁chang	-1148
▁opportun	-1149
▁Fed	-1150
ening	-1151
▁Re	-1152
roup	-1153
estic	-1154
▁press	-1155
▁inflation	-1156
▁labor	-1157
▁car	-1158
most	-1159
▁199	-1160
▁World	-1161
ves	-1162
▁role	-1163
▁exper	-1164
ick	-1165
▁5	-1166
▁plan	-1167
ph	-1168
▁author	-1169
io	-1170
rug	-1171
▁adm	-1172
▁inn	-1173
▁potential	-1174
▁num	-1175
▁ach	-1176
urther	-1177
ying	-1178
iddle	-1179
▁rise	-1180
▁developing	-1181
ead	-1182
▁needs	-1183
▁weak	-1184
▁form	-1185
oney	-1186
vere	-1187
▁problems	-1188
▁nuclear	-1189
omen	-1190
▁whether	-1191
▁credit	-1192
▁members	-1193
ages	-1194
▁defic	-1195
▁effective	-1196
ittle	-1197
aly	-1198
pecially	-1199
up	-1200
▁lif	-1201
lection	-1202
ratic	-1203
▁ful	-1204
▁domestic	-1205
▁prof	-1206
▁play	-1207
ama	-1208
▁project	-1209
aps	-1210
▁establ	-1211
▁signific	-1212
▁spec	-1213
▁Intern	-1214
▁though	-1215
ances	-1216
▁model	-1217
▁higher	-1218
olution	-1219
gin	-1220
▁share	-1221
ining	-1222
▁rather	-1223
ush	-1224
▁doll	-1225
ibility	-1226
▁asse	-1227
▁mat	-1228
change	-1229
▁little	-1230
▁clear	-1231
ering	-1232
ted	-1233
▁remains	-1234
ished	-1235
▁Ob	-1236
▁beh	-1237
▁needed	-1238
▁sector	-1239
▁vi	-1240
▁especially	-1241
ix	-1242
▁money	-1243
ner	-1244
▁gu	-1245
air	-1246
▁Kore	-1247
ock	-1248
itional	-1249
aus	-1250
▁bal	-1251
▁run	-1252
▁gener	-1253
aim	-1254
▁par	-1255
▁education	-1256
▁month	-1257
▁4	-1258
ases	-1259
▁costs	-1260
▁services	-1261
for	-1262
akes	-1263
itive	-1264
▁crit	-1265
ission	-1266
▁non	-1267
▁case	-1268
▁concern	-1269
▁significant	-1270
ling	-1271
imin	-1272
formation	-1273
rael	-1274
inister	-1275
▁reason	-1276
▁societ	-1277
▁emerging	-1278
▁When	-1279
ret	-1280
▁show	-1281
▁continue	-1282
ogn	-1283
ork	-1284
▁ph	-1285
▁different	-1286
pid	-1287
ened	-1288
▁hal	-1289
▁pros	-1290
com	-1291
▁innov	-1292
▁access	-1293
▁dr	-1294
▁ren	-1295
▁spending	-1296
▁key	-1297
ficult	-1298
▁progress	-1299
▁difficult	-1300
cies	-1301
▁cut	-1302
▁cit	-1303
anced	-1304
▁free	-1305
▁means	-1306
▁small	-1307
▁decades	-1308
▁peace	-1309
acy	-1310
▁big	-1311
ides	-1312
▁meet	-1313
ird	-1314
▁why	-1315
▁control	-1316
rastructure	-1317
▁come	-1318
idence	-1319
▁further	-1320
▁group	-1321
▁find	-1322
▁rese	-1323
▁fe	-1324
▁Israel	-1325
▁fall	-1326
▁efforts	-1327
▁suff	-1328
izing	-1329
▁during	-1330
istan	-1331
▁currency	-1332
▁price	-1333
▁reforms	-1334
wh	-1335
ash	-1336
▁gain	-1337
▁local	-1338
▁build	-1339
ators	-1340
▁Obama	-1341
▁increasingly	-1342
▁cond	-1343
▁relations	-1344
▁say	-1345
▁poor	-1346
ON	-1347
▁simp	-1348
▁conflic	-1349
▁appe	-1350
▁integ	-1351
▁requi	-1352
ave	-1353
▁get	-1354
▁target	-1355
▁ago	-1356
▁eng	-1357
▁happ	-1358
▁citiz	-1359
▁respons	-1360
oti	-1361
▁deep	-1362
▁slow	-1363
▁industr	-1364
ata	-1365
sequ	-1366
000	-1367
▁Rep	-1368
▁growing	-1369
▁Yet	-1370
▁treat	-1371
▁init	-1372
▁question	-1373
▁shif	-1374
▁prevent	-1375
rop	-1376
pite	-1377
▁almost	-1378
▁longer	-1379
rate	-1380
▁care	-1381
▁serious	-1382
▁stud	-1383
▁require	-1384
arm	-1385
,000	-1386
▁mass	-1387
▁recently	-1388
reng	-1389
▁oil	-1390
icient	-1391
reed	-1392
▁col	-1393
vious	-1394
▁within	-1395
5%	-1396
▁UK	-1397
▁hold	-1398
▁given	-1399
▁strateg	-1400
lam	-1401
way	-1402
▁yet	-1403
▁however	-1404
▁infrastructure	-1405
▁challenges	-1406
▁itself	-1407
▁resources	-1408
▁democracy	-1409
pris	-1410
▁streng	-1411
▁An	-1412
▁lower	-1413
ror	-1414
▁best	-1415
rab	-1416
▁recogn	-1417
ording	-1418
ention	-1419
▁house	-1420
▁benefits	-1421
ale	-1422
▁He	-1423
▁nat	-1424
verage	-1425
▁event	-1426
▁return	-1427
▁seems	-1428
ased	-1429
▁viol	-1430
▁claim	-1431
▁consider	-1432
▁One	-1433
▁ur	-1434
udget	-1435
epend	-1436
▁population	-1437
acc	-1438
▁cho	-1439
▁member	-1440
▁greater	-1441
▁While	-1442
▁found	-1443
▁enough	-1444
▁contrib	-1445
▁lib	-1446
yn	-1447
▁tru	-1448
▁second	-1449
▁By	-1450
▁fam	-1451
▁want	-1452
20	-1453
▁impact	-1454
akers	-1455
ences	-1456
▁After	-1457
▁negoti	-1458
▁think	-1459
▁comple	-1460
te	-1461
▁women	-1462
hes	-1463
▁bor	-1464
▁Part	-1465
▁rapid	-1466
▁citizens	-1467
▁lack	-1468
▁others	-1469
▁particularly	-1470
▁workers	-1471
▁organ	-1472
▁interests	-1473
▁investors	-1474
▁common	-1475
ided	-1476
▁sug	-1477
cent	-1478
omet	-1479
▁terms	-1480
▁France	-1481
ners	-1482
▁caus	-1483
▁pred	-1484
▁strategy	-1485
▁These	-1486
▁risks	-1487
▁6	-1488
ier	-1489
▁understand	-1490
nce	-1491
▁pat	-1492
ivil	-1493
ool	-1494
▁Be	-1495
▁er	-1496
ned	-1497
▁post	-1498
▁budget	-1499
ither	-1500
▁rights	-1501
▁direct	-1502
▁value	-1503
▁election	-1504
▁home	-1505
ai	-1506
▁used	-1507
▁number	-1508
▁sav	-1509
▁camp	-1510
▁half	-1511
▁hand	-1512
▁her	-1513
▁data	-1514
▁report	-1515
▁broad	-1516
ession	-1517
cl	-1518
where	-1519
▁reduce	-1520
▁suggest	-1521
▁administ	-1522
the	-1523
empt	-1524
tain	-1525
▁coll	-1526
ope	-1527
atic	-1528
▁War	-1529
▁create	-1530
▁bond	-1531
▁occ	-1532
▁Gree	-1533
selves	-1534
ateral	-1535
onal	-1536
▁Korea	-1537
▁depend	-1538
▁Arab	-1539
▁Britain	-1540
▁Cent	-1541
▁Ar	-1542
▁mult	-1543
makers	-1544
▁my	-1545
▁oper	-1546
ression	-1547
▁certain	-1548
▁provide	-1549
▁open	-1550
lf	-1551
ield	-1552
▁cle	-1553
▁mean	-1554
▁ensure	-1555
▁rising	-1556
▁children	-1557
▁min	-1558
atives	-1559
▁Even	-1560
▁implement	-1561
▁relative	-1562
▁she	-1563
▁you	-1564
yr	-1565
iqu	-1566
▁exchange	-1567
ug	-1568
rime	-1569
▁simil	-1570
be	-1571
▁Tur	-1572
▁possible	-1573
▁jobs	-1574
▁rules	-1575
▁New	-1576
▁never	-1577
▁gr	-1578
▁improve	-1579
▁coop	-1580
▁British	-1581
gent	-1582
▁Con	-1583
▁spe	-1584
▁levels	-1585
▁land	-1586
vention	-1587
▁reflect	-1588
like	-1589
▁force	-1590
▁leadership	-1591
iod	-1592
ipl	-1593
▁thus	-1594
▁measures	-1595
▁left	-1596
▁face	-1597
overty	-1598
▁youn	-1599
oura	-1600
▁Western	-1601
▁step	-1602
▁civil	-1603
▁Fin	-1604
▁deal	-1605
▁place	-1606
▁regional	-1607
▁agreement	-1608
▁2008	-1609
aged	-1610
▁fuel	-1611
▁cult	-1612
▁Sp	-1613
ards	-1614
come	-1615
lation	-1616
ived	-1617
▁life	-1618
▁dev	-1619
bon	-1620
▁purs	-1621
just	-1622
▁consequ	-1623
▁each	-1624
▁finance	-1625
▁fl	-1626
▁individ	-1627
▁systems	-1628
▁fear	-1629
man	-1630
haps	-1631
▁begin	-1632
▁struct	-1633
▁technology	-1634
▁dollar	-1635
▁enc	-1636
▁challenge	-1637
oid	-1638
▁bl	-1639
▁ear	-1640
yond	-1641
put	-1642
ik	-1643
ified	-1644
▁former	-1645
side	-1646
▁Pol	-1647
▁influ	-1648
▁action	-1649
▁consumption	-1650
▁boost	-1651
▁stability	-1652
oint	-1653
▁commit	-1654
▁terror	-1655
▁funda	-1656
▁balance	-1657
▁politics	-1658
chool	-1659
▁Republic	-1660
▁individual	-1661
▁Sh	-1662
abil	-1663
ceed	-1664
▁stat	-1665
ront	-1666
▁blo	-1667
▁deb	-1668
gether	-1669
▁poverty	-1670
▁together	-1671
0.	-1672
ination	-1673
▁productivity	-1674
▁anti	-1675
▁dest	-1676
ilateral	-1677
▁household	-1678
▁net	-1679
▁four	-1680
▁attack	-1681
aken	-1682
emoc	-1683
▁che	-1684
▁dou	-1685
▁char	-1686
▁ever	-1687
▁exist	-1688
▁him	-1689
▁wealth	-1690
ised	-1691
conomic	-1692
▁firms	-1693
issions	-1694
raz	-1695
then	-1696
▁tal	-1697
▁decision	-1698
▁head	-1699
▁issues	-1700
▁dang	-1701
▁across	-1702
▁themselves	-1703
rex	-1704
▁met	-1705
▁annual	-1706
▁Sec	-1707
acity	-1708
▁export	-1709
kra	-1710
▁$1	-1711
▁unt	-1712
▁comb	-1713
▁increased	-1714
▁7	-1715
▁En	-1716
▁saf	-1717
istic	-1718
▁pract	-1719
ming	-1720
▁expl	-1721
▁manage	-1722
▁Of	-1723
▁gra	-1724
though	-1725
▁accept	-1726
▁program	-1727
ban	-1728
irst	-1729
▁ru	-1730
ee	-1731
ys	-1732
igration	-1733
raw	-1734
uation	-1735
▁necess	-1736
RI	-1737
ah	-1738
dom	-1739
erve	-1740
▁North	-1741
▁initi	-1742
▁times	-1743
CB	-1744
▁based	-1745
▁Ukra	-1746
▁What	-1747
▁Syr	-1748
quality	-1749
▁repres	-1750
▁research	-1751
▁once	-1752
▁making	-1753
▁X	-1754
▁sing	-1755
▁fight	-1756
▁able	-1757
▁news	-1758
▁period	-1759
▁politic	-1760
▁Islam	-1761
▁extrem	-1762
▁conflict	-1763
▁developed	-1764
az	-1765
▁food	-1766
▁look	-1767
▁borrow	-1768
ins	-1769
aign	-1770
rupt	-1771
▁tre	-1772
▁bring	-1773
▁early	-1774
▁similar	-1775
▁emb	-1776
▁tot	-1777
▁sl	-1778
▁achieve	-1779
▁history	-1780
▁strengthen	-1781
▁top	-1782
▁young	-1783
▁officials	-1784
cial	-1785
▁amount	-1786
▁sure	-1787
▁somet	-1788
ruption	-1789
▁believe	-1790
▁campaign	-1791
▁information	-1792
raq	-1793
▁Inst	-1794
iation	-1795
▁refuge	-1796
▁independ	-1797
ways	-1798
▁sense	-1799
veral	-1800
▁decade	-1801
den	-1802
ively	-1803
▁becom	-1804
igr	-1805
▁sk	-1806
▁Iraq	-1807
▁keep	-1808
▁modern	-1809
▁International	-1810
reak	-1811
razil	-1812
▁la	-1813
▁society	-1814
▁establish	-1815
omp	-1816
▁old	-1817
▁dise	-1818
▁five	-1819
▁Central	-1820
rodu	-1821
▁close	-1822
▁corpor	-1823
▁entire	-1824
▁promot	-1825
▁true	-1826
▁average	-1827
cil	-1828
▁cr	-1829
▁areas	-1830
▁largest	-1831
isions	-1832
▁maintain	-1833
▁administration	-1834
rexit	-1835
▁policymakers	-1836
to	-1837
▁led	-1838
▁effects	-1839
▁UN	-1840
fact	-1841
▁loss	-1842
▁bord	-1843
▁union	-1844
▁water	-1845
▁advanced	-1846
▁community	-1847
▁environmental	-1848
ler	-1849
▁ECB	-1850
▁dam	-1851
▁adop	-1852
▁Res	-1853
illions	-1854
▁Middle	-1855
▁century	-1856
▁encoura	-1857
▁conditions	-1858
ief	-1859
onse	-1860
▁sit	-1861
▁changes	-1862
▁aim	-1863
ource	-1864
rench	-1865
ium	-1866
▁issue	-1867
▁deficit	-1868
▁recover	-1869
▁pressure	-1870
▁else	-1871
▁regime	-1872
▁198	-1873
▁gre	-1874
▁forces	-1875
▁single	-1876
utional	-1877
▁working	-1878
key	-1879
▁Cl	-1880
▁sovere	-1881
yp	-1882
ean	-1883
▁rece	-1884
arent	-1885
▁liberal	-1886
pped	-1887
aring	-1888
lia	-1889
uing	-1890
▁unem	-1891
▁Brazil	-1892
aster	-1893
▁rule	-1894
▁simply	-1895
ify	-1896
arian	-1897
▁total	-1898
▁Minister	-1899
▁Party	-1900
▁parties	-1901
▁position	-1902
▁opportunity	-1903
▁response	-1904
▁Some	-1905
▁reach	-1906
▁supply	-1907
▁hope	-1908
▁avoid	-1909
▁industry	-1910
▁despite	-1911
gypt	-1912
▁Par	-1913
▁unc	-1914
▁requires	-1915
▁expand	-1916
lus	-1917
rag	-1918
wise	-1919
ufact	-1920
▁Asian	-1921
king	-1922
▁oppos	-1923
▁employment	-1924
ina	-1925
ctions	-1926
▁Egypt	-1927
▁danger	-1928
0’	-1929
ival	-1930
▁Italy	-1931
▁Or	-1932
▁abs	-1933
▁coal	-1934
▁creat	-1935
▁regard	-1936
▁production	-1937
mm	-1938
▁Democ	-1939
▁Turkey	-1940
▁African	-1941
▁democratic	-1942
▁environment	-1943
▁created	-1944
▁capacity	-1945
▁emissions	-1946
ising	-1947
▁full	-1948
min	-1949
▁All	-1950
▁several	-1951
▁mar	-1952
▁effort	-1953
oral	-1954
▁subst	-1955
▁exports	-1956
▁massive	-1957
▁cooperation	-1958
▁consequences	-1959
▁8	-1960
▁banking	-1961
▁manufact	-1962
down	-1963
▁ess	-1964
based	-1965
incip	-1966
▁shift	-1967
▁Americans	-1968
▁lear	-1969
▁test	-1970
▁vict	-1971
▁ident	-1972
▁school	-1973
cut	-1974
▁done	-1975
▁innovation	-1976
▁bad	-1977
aging	-1978
ricult	-1979
▁King	-1980
▁flow	-1981
▁media	-1982
ruction	-1983
▁Ukraine	-1984
▁structural	-1985
▁Pro	-1986
▁Cong	-1987
▁always	-1988
▁predict	-1989
▁invol	-1990
iversity	-1991
▁leading	-1992
▁assum	-1993
▁Greece	-1994
▁politicians	-1995
▁sustainable	-1996
wide	-1997
ended	-1998
▁Acc	-1999
iting	-2000
▁norm	-2001
▁death	-2002
▁excess	-2003
ds	-2004
▁day	-2005
▁clos	-2006
▁alone	-2007
▁cy	-2008
imul	-2009
alest	-2010
▁taken	-2011
liament	-2012
▁called	-2013
▁perform	-2014
▁princip	-2015
▁trillion	-2016
ring	-2017
iplom	-2018
▁Commission	-2019
ighb	-2020
▁kind	-2021
▁strategic	-2022
▁industrial	-2023
lt	-2024
▁Brexit	-2025
▁failed	-2026
rated	-2027
▁histor	-2028
▁unlike	-2029
▁Le	-2030
ills	-2031
▁vis	-2032
▁poll	-2033
▁self	-2034
▁Bush	-2035
▁Fund	-2036
▁funds	-2037
▁decline	-2038
atory	-2039
▁voters	-2040
lim	-2041
▁agg	-2042
▁Cons	-2043
▁said	-2044
▁Develop	-2045
▁unemployment	-2046
by	-2047
ured	-2048
iveness	-2049
▁French	-2050
▁authorities	-2051
rad	-2052
line	-2053
ensive	-2054
▁nearly	-2055
0,	-2056
▁whose	-2057
▁economists	-2058
oday	-2059
▁prob	-2060
▁stimul	-2061
▁drug	-2062
▁beyond	-2063
▁largely	-2064
▁don	-2065
▁ways	-2066
▁object	-2067
▁expected	-2068
rec	-2069
reg	-2070
ends	-2071
▁bar	-2072
▁proper	-2073
▁scient	-2074
ched	-2075
market	-2076
▁Today	-2077
▁cause	-2078
▁diplom	-2079
▁transp	-2080
▁prosper	-2081
▁respect	-2082
ortunately	-2083
edi	-2084
ented	-2085
itted	-2086
▁goods	-2087
alled	-2088
ected	-2089
▁makes	-2090
utin	-2091
rams	-2092
ently	-2093
▁particular	-2094
▁technologies	-2095
ne	-2096
▁fav	-2097
▁values	-2098
▁Afgh	-2099
▁having	-2100
▁projects	-2101
lev	-2102
▁Given	-2103
▁until	-2104
▁counter	-2105
▁assets	-2106
ctors	-2107
▁2015	-2108
▁Such	-2109
▁powerful	-2110
▁inequality	-2111
▁Many	-2112
▁attempt	-2113
▁began	-2114
▁party	-2115
▁partners	-2116
▁essential	-2117
▁lives	-2118
▁cities	-2119
▁neighb	-2120
▁integration	-2121
fer	-2122
▁ten	-2123
iding	-2124
▁prec	-2125
▁months	-2126
ien	-2127
rong	-2128
▁Global	-2129
▁investments	-2130
▁dig	-2131
▁opt	-2132
▁stock	-2133
▁underm	-2134
▁experience	-2135
▁increasing	-2136
▁successful	-2137
▁opportunities	-2138
▁tem	-2139
ories	-2140
▁fram	-2141
▁Afghan	-2142
▁Palest	-2143
▁altern	-2144
▁incent	-2145
rade	-2146
▁class	-2147
istance	-2148
▁ability	-2149
▁popular	-2150
▁natural	-2151
mber	-2152
verse	-2153
▁quick	-2154
▁particip	-2155
sw	-2156
▁197	-2157
▁mov	-2158
▁disp	-2159
▁activ	-2160
▁constit	-2161
▁respond	-2162
▁air	-2163
▁vol	-2164
▁reven	-2165
▁Kingdom	-2166
▁governance	-2167
▁mis	-2168
▁agricult	-2169
▁ill	-2170
ternal	-2171
▁doing	-2172
▁German	-2173
▁fundamental	-2174
▁bonds	-2175
▁programs	-2176
▁influence	-2177
▁gas	-2178
▁determ	-2179
▁According	-2180
enda	-2181
while	-2182
▁trend	-2183
AN	-2184
▁AI	-2185
▁subs	-2186
▁leader	-2187
▁perhaps	-2188
▁soon	-2189
▁owing	-2190
▁Now	-2191
▁Z	-2192
▁lost	-2193
lies	-2194
▁obs	-2195
▁Prime	-2196
▁traditional	-2197
▁aid	-2198
▁path	-2199
▁rich	-2200
▁adjust	-2201
▁advant	-2202
▁Nations	-2203
bi	-2204
▁bur	-2205
▁away	-2206
▁along	-2207
oh	-2208
head	-2209
ream	-2210
▁Bar	-2211
▁May	-2212
▁mom	-2213
▁debate	-2214
▁9	-2215
▁goal	-2216
▁idea	-2217
▁violence	-2218
▁ge	-2219
▁Mon	-2220
ights	-2221
▁necessary	-2222
▁relationship	-2223
hood	-2224
ored	-2225
▁comes	-2226
▁weap	-2227
▁prior	-2228
▁propos	-2229
set	-2230
▁Ag	-2231
arily	-2232
▁Coun	-2233
▁elections	-2234
▁del	-2235
▁unp	-2236
▁var	-2237
▁design	-2238
▁Congress	-2239
▁win	-2240
reedom	-2241
▁domin	-2242
▁groups	-2243
1,	-2244
icy	-2245
ises	-2246
ously	-2247
▁evidence	-2248
aving	-2249
▁Syria	-2250
▁Council	-2251
▁Russian	-2252
akistan	-2253
▁highly	-2254
MF	-2255
ym	-2256
force	-2257
▁estim	-2258
ember	-2259
▁behind	-2260
ape	-2261
lying	-2262
thing	-2263
▁prim	-2264
▁san	-2265
ulner	-2266
▁enter	-2267
▁National	-2268
▁recovery	-2269
▁external	-2270
▁Xi	-2271
chan	-2272
▁taking	-2273
▁corruption	-2274
▁vir	-2275
ledge	-2276
▁break	-2277
▁later	-2278
▁Development	-2279
med	-2280
▁sw	-2281
▁First	-2282
▁benefit	-2283
▁attention	-2284
▁Q	-2285
▁moment	-2286
▁status	-2287
▁actually	-2288
▁contrast	-2289
▁probably	-2290
▁financing	-2291
urs	-2292
▁IMF	-2293
▁amb	-2294
uslim	-2295
▁discuss	-2296
irc	-2297
▁mob	-2298
▁Putin	-2299
▁using	-2300
▁surpris	-2301
aced	-2302
▁rat	-2303
▁indic	-2304
▁third	-2305
▁failure	-2306
▁Pe	-2307
▁pass	-2308
▁previous	-2309
▁majority	-2310
▁ult	-2311
▁demon	-2312
▁territ	-2313
▁substant	-2314
omb	-2315
oring	-2316
▁vulner	-2317
▁avail	-2318
▁Pakistan	-2319
▁framew	-2320
▁cat	-2321
▁give	-2322
▁complex	-2323
▁include	-2324
▁revolution	-2325
erves	-2326
▁live	-2327
▁wide	-2328
▁rad	-2329
▁asset	-2330
▁middle	-2331
▁record	-2332
▁recession	-2333
olit	-2334
▁eth	-2335
▁uncertain	-2336
▁wee	-2337
▁achie	-2338
▁wrong	-2339
igrants	-2340
▁lat	-2341
▁feel	-2342
ulation	-2343
▁agenda	-2344
▁living	-2345
▁reality	-2346
▁solution	-2347
▁taxes	-2348
▁coming	-2349
▁larger	-2350
▁argu	-2351
▁huge	-2352
▁worse	-2353
▁Instead	-2354
▁cases	-2355
▁Muslim	-2356
izations	-2357
▁extreme	-2358
▁immedi	-2359
▁attract	-2360
▁meeting	-2361
▁Europeans	-2362
rats	-2363
minbi	-2364
▁farm	-2365
▁competition	-2366
rep	-2367
ton	-2368
▁legit	-2369
itarian	-2370
▁prospect	-2371
▁decisions	-2372
go	-2373
▁jo	-2374
uted	-2375
▁Like	-2376
▁shar	-2377
▁legal	-2378
▁defense	-2379
▁manufacturing	-2380
▁perm	-2381
▁behav	-2382
▁Argent	-2383
▁situation	-2384
▁vote	-2385
▁things	-2386
▁nothing	-2387
year	-2388
▁seen	-2389
▁relig	-2390
▁represent	-2391
vest	-2392
▁carbon	-2393
▁either	-2394
▁limited	-2395
▁reducing	-2396
▁renminbi	-2397
▁corporate	-2398
uster	-2399
▁kill	-2400
▁demonst	-2401
▁z	-2402
leg	-2403
ancing	-2404
▁1.	-2405
▁nar	-2406
▁announ	-2407
▁relatively	-2408
▁Lat	-2409
▁den	-2410
▁standards	-2411
TO	-2412
rugg	-2413
▁cru	-2414
▁pow	-2415
▁circ	-2416
chanism	-2417
▁late	-2418
▁read	-2419
▁rein	-2420
income	-2421
▁subsid	-2422
▁commitment	-2423
▁How	-2424
called	-2425
▁fed	-2426
arant	-2427
▁purch	-2428
▁employ	-2429
▁expans	-2430
att	-2431
▁di	-2432
▁answ	-2433
rought	-2434
▁collect	-2435
▁ve	-2436
itable	-2437
▁renew	-2438
imately	-2439
▁became	-2440
▁willing	-2441
▁solutions	-2442
EW	-2443
ets	-2444
▁ign	-2445
▁easy	-2446
▁ground	-2447
▁strugg	-2448
▁concerns	-2449
▁Afghanistan	-2450
het	-2451
▁2013	-2452
▁green	-2453
▁refere	-2454
▁produce	-2455
▁refugees	-2456
▁continent	-2457
▁general	-2458
sh	-2459
▁Ge	-2460
agn	-2461
arter	-2462
▁sharp	-2463
▁elsewhere	-2464
OR	-2465
plus	-2466
▁digital	-2467
▁freedom	-2468
▁expert	-2469
▁really	-2470
▁Palestin	-2471
▁NEW	-2472
▁Sim	-2473
▁held	-2474
▁resol	-2475
▁words	-2476
▁indeed	-2477
ired	-2478
ung	-2479
▁Ex	-2480
rict	-2481
ological	-2482
▁jud	-2483
▁near	-2484
▁urban	-2485
▁guarant	-2486
▁quickly	-2487
rel	-2488
ensus	-2489
▁powers	-2490
▁science	-2491
▁weapons	-2492
▁businesses	-2493
▁dyn	-2494
▁miss	-2495
▁took	-2496
ification	-2497
▁protection	-2498
▁established	-2499
DG	-2500
▁arr	-2501
▁favor	-2502
▁deficits	-2503
ters	-2504
▁heav	-2505
ension	-2506
▁Latin	-2507
▁Internet	-2508
▁following	-2509
50	-2510
▁explain	-2511
▁currently	-2512
osing	-2513
▁above	-2514
▁products	-2515
▁2014	-2516
▁Mean	-2517
▁severe	-2518
▁Ro	-2519
onald	-2520
▁tool	-2521
▁offer	-2522
ception	-2523
▁disease	-2524
▁positive	-2525
▁something	-2526
ached	-2527
▁conv	-2528
▁known	-2529
▁surplus	-2530
▁presidential	-2531
use	-2532
▁Spain	-2533
▁Meanwhile	-2534
▁households	-2535
▁performance	-2536
ici	-2537
orn	-2538
▁prep	-2539
oviet	-2540
▁funding	-2541
▁expansion	-2542
▁worldwide	-2543
▁generation	-2544
▁negotiations	-2545
-1	-2546
ones	-2547
▁Can	-2548
▁introdu	-2549
ane	-2550
▁Sc	-2551
iance	-2552
▁deli	-2553
▁hous	-2554
▁laun	-2555
▁sectors	-2556
ody	-2557
▁ce	-2558
▁mist	-2559
▁behavior	-2560
▁unlikely	-2561
▁additional	-2562
iated	-2563
▁mind	-2564
▁occur	-2565
▁crises	-2566
▁millions	-2567
▁movement	-2568
▁reserves	-2569
▁continues	-2570
aid	-2571
▁Ab	-2572
▁Most	-2573
▁Federal	-2574
▁critical	-2575
app	-2576
▁Ad	-2577
▁ir	-2578
▁art	-2579
▁ask	-2580
ature	-2581
▁legis	-2582
▁confidence	-2583
▁opposition	-2584
▁globalization	-2585
▁technological	-2586
ustr	-2587
▁sett	-2588
making	-2589
▁below	-2590
▁vision	-2591
▁Although	-2592
▁18	-2593
ressive	-2594
▁mechanism	-2595
crib	-2596
rary	-2597
▁line	-2598
▁ahead	-2599
▁results	-2600
▁univers	-2601
▁existing	-2602
▁framework	-2603
ator	-2604
▁div	-2605
▁six	-2606
▁fair	-2607
▁repl	-2608
▁becoming	-2609
▁beginning	-2610
▁prosperity	-2611
▁alternative	-2612
bo	-2613
kn	-2614
▁creating	-2615
▁available	-2616
▁certainly	-2617
apse	-2618
ular	-2619
▁uns	-2620
▁sent	-2621
▁Great	-2622
▁Since	-2623
▁obvious	-2624
▁Per	-2625
▁mort	-2626
▁stop	-2627
▁cover	-2628
▁organizations	-2629
-20	-2630
hest	-2631
▁overall	-2632
▁Monetary	-2633
▁institutional	-2634
exic	-2635
iment	-2636
▁dram	-2637
▁insur	-2638
▁industries	-2639
ya	-2640
▁scale	-2641
▁matter	-2642
▁output	-2643
▁factors	-2644
oph	-2645
phas	-2646
▁typ	-2647
iquid	-2648
▁2012	-2649
▁source	-2650
▁spread	-2651
▁sovereign	-2652
ordin	-2653
▁dynam	-2654
▁leave	-2655
▁rough	-2656
▁transition	-2657
ees	-2658
▁boom	-2659
▁loans	-2660
▁raise	-2661
unction	-2662
▁caused	-2663
▁consumer	-2664
▁continued	-2665
▁recognize	-2666
IN	-2667
erb	-2668
ault	-2669
omin	-2670
part	-2671
▁fle	-2672
▁side	-2673
▁gains	-2674
▁commod	-2675
usterity	-2676
▁Economic	-2677
▁responsibility	-2678
▁link	-2679
▁Mexic	-2680
▁reasons	-2681
▁according	-2682
%.	-2683
ots	-2684
pro	-2685
▁Sw	-2686
ries	-2687
▁fig	-2688
▁mac	-2689
▁cand	-2690
▁tend	-2691
▁distrib	-2692
▁Security	-2693
uth	-2694
▁helped	-2695
▁contract	-2696
ero	-2697
lin	-2698
loc	-2699
▁let	-2700
ancer	-2701
ology	-2702
▁gradu	-2703
▁Japanese	-2704
▁advantage	-2705
▁host	-2706
▁mere	-2707
▁State	-2708
▁federal	-2709
SE	-2710
hem	-2711
▁Argentina	-2712
une	-2713
▁jour	-2714
▁clearly	-2715
▁minister	-2716
ressed	-2717
▁doubt	-2718
▁management	-2719
af	-2720
ech	-2721
ili	-2722
care	-2723
lier	-2724
omes	-2725
▁outcome	-2726
▁surv	-2727
▁trou	-2728
▁equity	-2729
▁imposs	-2730
▁collapse	-2731
▁creation	-2732
▁incentives	-2733
▁rob	-2734
acter	-2735
fortunately	-2736
sp	-2737
bol	-2738
ext	-2739
ogra	-2740
▁Des	-2741
▁came	-2742
▁summ	-2743
▁models	-2744
▁sanctions	-2745
aper	-2746
▁mess	-2747
▁thing	-2748
▁center	-2749
▁emphas	-2750
▁inev	-2751
▁basic	-2752
ilities	-2753
▁answer	-2754
▁candid	-2755
▁company	-2756
▁stronger	-2757
aud	-2758
▁cuts	-2759
▁imper	-2760
▁worth	-2761
▁special	-2762
▁negative	-2763
▁afford	-2764
▁stimulus	-2765
▁cal	-2766
▁det	-2767
right	-2768
▁Soviet	-2769
▁outside	-2770
▁competit	-2771
aries	-2772
▁flows	-2773
▁everyone	-2774
▁effectively	-2775
equ	-2776
pol	-2777
account	-2778
▁facing	-2779
▁liquid	-2780
▁savings	-2781
%,	-2782
lig	-2783
▁repe	-2784
▁soft	-2785
▁Reserve	-2786
▁allowed	-2787
▁focused	-2788
▁rapidly	-2789
7,	-2790
▁age	-2791
▁trust	-2792
▁choice	-2793
▁points	-2794
▁warming	-2795
▁communities	-2796
emic	-2797
▁Govern	-2798
▁forward	-2799
▁protest	-2800
▁quality	-2801
▁impossible	-2802
▁ste	-2803
▁2016	-2804
action	-2805
ograph	-2806
▁macro	-2807
▁elimin	-2808
▁skills	-2809
▁building	-2810
▁austerity	-2811
▁enterpris	-2812
▁treatment	-2813
▁suc	-2814
lling	-2815
▁Barack	-2816
▁Commun	-2817
▁Second	-2818
▁internal	-2819
▁consumers	-2820
els	-2821
ilt	-2822
off	-2823
osp	-2824
▁harm	-2825
ortion	-2826
▁divid	-2827
hel	-2828
ware	-2829
▁mid	-2830
▁won	-2831
▁conn	-2832
▁study	-2833
▁Donald	-2834
▁roughly	-2835
▁succeed	-2836
▁knowledge	-2837
of	-2838
cle	-2839
unt	-2840
iter	-2841
ossil	-2842
▁assoc	-2843
▁twent	-2844
▁personal	-2845
▁suggests	-2846
▁economics	-2847
▁bub	-2848
▁writ	-2849
▁chance	-2850
▁forced	-2851
▁referend	-2852
▁NA	-2853
▁Mar	-2854
▁men	-2855
gence	-2856
ustain	-2857
▁shared	-2858
▁reached	-2859
▁required	-2860
erc	-2861
work	-2862
▁wat	-2863
▁Just	-2864
▁basis	-2865
▁assess	-2866
▁damage	-2867
▁saving	-2868
▁independence	-2869
do	-2870
▁Dep	-2871
▁deg	-2872
ients	-2873
▁Geor	-2874
encies	-2875
▁affect	-2876
▁transform	-2877
iff	-2878
hens	-2879
used	-2880
▁dangerous	-2881
▁road	-2882
▁reject	-2883
economic	-2884
▁thereby	-2885
▁parliament	-2886
nces	-2887
▁gap	-2888
▁commer	-2889
▁societies	-2890
▁activities	-2891
▁Col	-2892
celer	-2893
▁belie	-2894
▁implic	-2895
▁instead	-2896
▁eventually	-2897
▁exe	-2898
▁flo	-2899
▁dollars	-2900
▁housing	-2901
▁service	-2902
▁proposed	-2903
▁mot	-2904
ustom	-2905
▁fast	-2906
opolit	-2907
▁vital	-2908
▁borders	-2909
▁brought	-2910
▁No	-2911
ites	-2912
ought	-2913
▁area	-2914
▁deter	-2915
▁explo	-2916
▁extra	-2917
▁ideas	-2918
ensions	-2919
▁losses	-2920
▁pursue	-2921
▁constra	-2922
▁experien	-2923
▁regulatory	-2924
retary	-2925
▁cross	-2926
▁poore	-2927
▁cancer	-2928
▁claims	-2929
▁contain	-2930
▁regulation	-2931
▁intervention	-2932
iety	-2933
▁Lib	-2934
▁virt	-2935
ishing	-2936
▁critic	-2937
▁attacks	-2938
abilities	-2939
draw	-2940
ptember	-2941
▁normal	-2942
▁engage	-2943
▁fossil	-2944
▁questions	-2945
▁Unfortunately	-2946
pr	-2947
▁15	-2948
▁II	-2949
▁bi	-2950
▁fix	-2951
▁analy	-2952
▁moral	-2953
9,	-2954
▁Tw	-2955
▁Ken	-2956
▁emp	-2957
iciency	-2958
▁family	-2959
itud	-2960
▁sym	-2961
▁seek	-2962
▁fully	-2963
▁September	-2964
▁core	-2965
▁simple	-2966
▁sources	-2967
oks	-2968
hers	-2969
▁From	-2970
▁days	-2971
▁Other	-2972
▁argue	-2973
▁corre	-2974
▁office	-2975
▁matters	-2976
▁committed	-2977
▁efficient	-2978
ann	-2979
▁tas	-2980
lands	-2981
▁events	-2982
▁Finally	-2983
▁deliver	-2984
nal	-2985
▁Go	-2986
▁limit	-2987
mb	-2988
▁-	-2989
▁reb	-2990
▁frag	-2991
ancial	-2992
▁Simil	-2993
▁reduced	-2994
▁increases	-2995
olid	-2996
▁10%	-2997
ashing	-2998
▁widely	-2999
fficient	-3000
▁immigration	-3001
ibly	-3002
▁Paris	-3003
▁minist	-3004
▁independent	-3005
war	-3006
rust	-3007
vert	-3008
▁agreed	-3009
▁regions	-3010
▁targets	-3011
▁accounts	-3012
ands	-3013
▁People	-3014
▁engine	-3015
▁victory	-3016
lled	-3017
▁196	-3018
arity	-3019
▁autom	-3020
▁clean	-3021
▁quant	-3022
▁yield	-3023
▁Despite	-3024
▁compared	-3025
▁thinking	-3026
ott	-3027
▁pain	-3028
▁plac	-3029
▁sound	-3030
▁person	-3031
▁electric	-3032
▁consensus	-3033
rehens	-3034
▁Islamic	-3035
▁crucial	-3036
▁trading	-3037
▁referendum	-3038
▁significantly	-3039
▁block	-3040
▁individuals	-3041
auc	-3042
▁0.	-3043
ender	-3044
order	-3045
▁mark	-3046
▁surve	-3047
▁allies	-3048
▁biggest	-3049
▁describ	-3050
▁encourage	-3051
▁migration	-3052
▁pus	-3053
▁trig	-3054
▁goals	-3055
▁shows	-3056
▁meaning	-3057
▁withdraw	-3058
▁membership	-3059
▁construction	-3060
ij	-3061
duct	-3062
rest	-3063
▁Eng	-3064
▁Nor	-3065
▁enh	-3066
▁vacc	-3067
▁super	-3068
▁precise	-3069
▁complete	-3070
▁providing	-3071
▁initiative	-3072
▁vulnerable	-3073
ried	-3074
rist	-3075
▁Rev	-3076
▁fri	-3077
▁Econom	-3078
▁legitim	-3079
▁thought	-3080
ventional	-3081
ustainable	-3082
mp	-3083
uct	-3084
umb	-3085
hern	-3086
▁red	-3087
ellig	-3088
erate	-3089
▁Over	-3090
▁parts	-3091
▁actions	-3092
▁conserv	-3093
▁provided	-3094
▁sufficient	-3095
val	-3096
augh	-3097
▁hop	-3098
▁sal	-3099
light	-3100
▁vast	-3101
▁Indian	-3102
▁stable	-3103
atically	-3104
co	-3105
aul	-3106
▁Bo	-3107
house	-3108
pping	-3109
▁scen	-3110
▁minim	-3111
▁tight	-3112
▁cultural	-3113
▁directly	-3114
▁property	-3115
▁bilateral	-3116
airs	-3117
angu	-3118
▁mut	-3119
▁nor	-3120
▁draw	-3121
eneral	-3122
▁aimed	-3123
▁field	-3124
▁Mexico	-3125
▁border	-3126
▁latest	-3127
▁falling	-3128
▁neighbors	-3129
▁importance	-3130
▁throughout	-3131
▁expectations	-3132
-2	-3133
eng	-3134
▁BE	-3135
▁adap	-3136
▁name	-3137
▁phys	-3138
atever	-3139
sector	-3140
▁secure	-3141
▁primary	-3142
▁promote	-3143
ats	-3144
ita	-3145
▁Sen	-3146
antic	-3147
▁front	-3148
▁commodity	-3149
oot	-3150
par	-3151
▁2000	-3152
▁NATO	-3153
▁inclus	-3154
▁trying	-3155
▁acceler	-3156
▁My	-3157
cast	-3158
fully	-3159
▁list	-3160
▁faces	-3161
▁steps	-3162
aterial	-3163
▁farmers	-3164
▁seeking	-3165
▁direction	-3166
▁commercial	-3167
aff	-3168
▁2.	-3169
▁purp	-3170
▁embra	-3171
▁minor	-3172
▁appear	-3173
▁burden	-3174
▁multilateral	-3175
▁30	-3176
▁unf	-3177
▁orig	-3178
▁whole	-3179
▁seemed	-3180
▁facilit	-3181
▁difference	-3182
▁mal	-3183
▁opin	-3184
▁save	-3185
▁heart	-3186
▁enable	-3187
▁culture	-3188
▁pattern	-3189
▁geopolit	-3190
▁therefore	-3191
▁ultimately	-3192
▁uncertainty	-3193
cont	-3194
rain	-3195
▁193	-3196
▁Not	-3197
▁custom	-3198
▁nation	-3199
▁partly	-3200
▁radical	-3201
CD	-3202
rus	-3203
▁12	-3204
▁Med	-3205
▁era	-3206
▁margin	-3207
▁followed	-3208
my	-3209
car	-3210
▁Pl	-3211
ulated	-3212
▁Trade	-3213
▁supposed	-3214
▁character	-3215
▁religious	-3216
ony	-3217
▁$2	-3218
▁plat	-3219
▁imbal	-3220
▁Likewise	-3221
oman	-3222
▁Joh	-3223
▁sup	-3224
▁House	-3225
▁strategies	-3226
..	-3227
nam	-3228
andon	-3229
▁laws	-3230
▁reve	-3231
undred	-3232
▁displ	-3233
▁thous	-3234
▁argued	-3235
▁consist	-3236
▁leaving	-3237
▁subject	-3238
▁contrary	-3239
▁terrorism	-3240
ING	-3241
elt	-3242
▁Am	-3243
eria	-3244
▁game	-3245
policy	-3246
▁Though	-3247
▁abroad	-3248
▁turned	-3249
▁becomes	-3250
▁default	-3251
▁imports	-3252
▁announced	-3253
▁competitive	-3254
yl	-3255
ORK	-3256
izes	-3257
ocks	-3258
▁Cam	-3259
▁city	-3260
▁mand	-3261
▁push	-3262
▁sens	-3263
▁drive	-3264
▁plans	-3265
▁tools	-3266
▁material	-3267
▁produced	-3268
▁students	-3269
▁bro	-3270
ondon	-3271
▁YORK	-3272
▁book	-3273
▁hour	-3274
▁summit	-3275
▁theory	-3276
▁journal	-3277
▁Republican	-3278
▁politically	-3279
▁Ke	-3280
ique	-3281
▁Ham	-3282
▁John	-3283
▁wind	-3284
▁zero	-3285
▁Treat	-3286
▁recon	-3287
▁story	-3288
▁London	-3289
▁capita	-3290
▁faster	-3291
▁nature	-3292
▁option	-3293
▁Secretary	-3294
▁pollution	-3295
▁responsible	-3296
▁understanding	-3297
men	-3298
sec	-3299
requ	-3300
going	-3301
rowth	-3302
outher	-3303
▁mortg	-3304
▁wants	-3305
▁extent	-3306
▁scenar	-3307
▁abandon	-3308
▁liquidity	-3309
ubl	-3310
▁Last	-3311
racies	-3312
▁Chile	-3313
▁barri	-3314
▁truth	-3315
▁execut	-3316
▁conclud	-3317
▁reflects	-3318
oy	-3319
ety	-3320
urm	-3321
rene	-3322
▁buy	-3323
▁volat	-3324
▁argument	-3325
▁confront	-3326
▁profession	-3327
DS	-3328
ox	-3329
OND	-3330
edly	-3331
▁Its	-3332
ether	-3333
gency	-3334
▁port	-3335
▁week	-3336
▁rural	-3337
▁serve	-3338
▁limits	-3339
▁bankers	-3340
anu	-3341
aled	-3342
ignt	-3343
ONDON	-3344
▁size	-3345
▁circum	-3346
▁apparent	-3347
▁immediate	-3348
▁insurance	-3349
gn	-3350
back	-3351
illed	-3352
▁Comp	-3353
illing	-3354
▁adopt	-3355
▁wages	-3356
▁LONDON	-3357
▁platform	-3358
▁authority	-3359
▁currencies	-3360
▁Republicans	-3361
7%	-3362
ls	-3363
nder	-3364
▁exc	-3365
ignty	-3366
▁lose	-3367
onents	-3368
▁going	-3369
reprene	-3370
▁exceed	-3371
▁broader	-3372
▁context	-3373
▁standard	-3374
▁University	-3375
▁efficiency	-3376
▁agriculture	-3377
▁enterprises	-3378
▁substantial	-3379
oses	-3380
asion	-3381
orial	-3382
third	-3383
▁cash	-3384
▁imag	-3385
outhern	-3386
▁Treaty	-3387
▁urgent	-3388
▁adopted	-3389
rehensive	-3390
▁activity	-3391
▁payments	-3392
▁borrowing	-3393
arc	-3394
▁CA	-3395
▁Ph	-3396
inton	-3397
▁coup	-3398
▁safe	-3399
porary	-3400
▁Organ	-3401
▁sides	-3402
▁talks	-3403
century	-3404
▁comprom	-3405
▁hundred	-3406
▁Similarly	-3407
▁Mac	-3408
▁Sea	-3409
ulate	-3410
▁dict	-3411
▁flex	-3412
▁tell	-3413
levant	-3414
actions	-3415
▁Climate	-3416
▁reduction	-3417
erke	-3418
▁pan	-3419
▁Only	-3420
▁here	-3421
▁final	-3422
ovember	-3423
▁compar	-3424
▁happen	-3425
▁earlier	-3426
▁excessive	-3427
▁prospects	-3428
▁initiatives	-3429
▁regulations	-3430
cause	-3431
▁publ	-3432
▁calls	-3433
▁takes	-3434
holders	-3435
related	-3436
▁Invest	-3437
▁Clinton	-3438
▁elected	-3439
▁lending	-3440
4%	-3441
utes	-3442
▁advoc	-3443
▁carry	-3444
▁worry	-3445
▁demands	-3446
▁intellig	-3447
▁specific	-3448
▁deflation	-3449
▁assistance	-3450
1%	-3451
1.	-3452
▁changed	-3453
▁promise	-3454
▁November	-3455
▁populist	-3456
▁revenues	-3457
▁addressing	-3458
▁historical	-3459
▁competitiveness	-3460
fect	-3461
uine	-3462
▁stagn	-3463
▁causes	-3464
▁easily	-3465
▁improving	-3466
▁agreements	-3467
▁diplomatic	-3468
5,	-3469
▁hy	-3470
know	-3471
▁1990	-3472
▁Saud	-3473
▁built	-3474
▁solid	-3475
lements	-3476
orthern	-3477
▁origin	-3478
▁practices	-3479
▁subsidies	-3480
▁legitimacy	-3481
lif	-3482
enth	-3483
▁lot	-3484
ching	-3485
ilies	-3486
iring	-3487
▁range	-3488
▁measure	-3489
▁achieved	-3490
▁allowing	-3491
▁contribute	-3492
▁scientific	-3493
▁sovereignty	-3494
6%	-3495
reced	-3496
▁June	-3497
▁Sing	-3498
▁fuels	-3499
▁shown	-3500
▁police	-3501
▁safety	-3502
▁finally	-3503
▁migrants	-3504
▁slowdown	-3505
▁Organization	-3506
▁ty	-3507
▁log	-3508
▁paid	-3509
▁enorm	-3510
▁spent	-3511
▁easing	-3512
recedented	-3513
▁Financial	-3514
▁precisely	-3515
▁Palestinian	-3516
3%	-3517
SEAN	-3518
ethe	-3519
▁try	-3520
aches	-3521
▁depos	-3522
▁spend	-3523
▁deaths	-3524
▁driven	-3525
▁improved	-3526
▁estimated	-3527
ains	-3528
icro	-3529
usion	-3530
itting	-3531
▁oblig	-3532
▁stabil	-3533
▁neither	-3534
▁diseases	-3535
▁unprecedented	-3536
▁transformation	-3537
cale	-3538
ureauc	-3539
▁online	-3540
▁appears	-3541
reciation	-3542
▁agricultural	-3543
▁$3	-3544
anda	-3545
look	-3546
erkel	-3547
state	-3548
uting	-3549
▁Dece	-3550
▁acqu	-3551
▁merely	-3552
▁produc	-3553
▁Consider	-3554
▁families	-3555
▁provides	-3556
▁geopolitical	-3557
bank	-3558
stit	-3559
vail	-3560
▁hit	-3561
iable	-3562
▁your	-3563
▁langu	-3564
▁inform	-3565
▁planet	-3566
▁concent	-3567
▁conduct	-3568
▁happened	-3569
MB	-3570
see	-3571
▁Ass	-3572
▁hur	-3573
comes	-3574
scale	-3575
idency	-3576
▁separ	-3577
▁Merkel	-3578
▁factor	-3579
▁advance	-3580
▁anything	-3581
▁entreprene	-3582
ops	-3583
▁His	-3584
▁Soc	-3585
ittee	-3586
▁Aust	-3587
▁batt	-3588
▁wage	-3589
▁December	-3590
▁regulators	-3591
mar	-3592
orb	-3593
upp	-3594
iles	-3595
▁Mal	-3596
coming	-3597
reland	-3598
▁meant	-3599
▁perman	-3600
▁speech	-3601
▁experts	-3602
▁quarter	-3603
▁revenue	-3604
▁training	-3605
▁structure	-3606
▁associated	-3607
▁scientists	-3608
▁macroeconomic	-3609
▁€	-3610
isc	-3611
ych	-3612
▁100	-3613
idesp	-3614
lantic	-3615
▁George	-3616
▁temper	-3617
▁Eastern	-3618
▁bureauc	-3619
▁running	-3620
idespread	-3621
ructuring	-3622
▁received	-3623
▁sometimes	-3624
▁considerable	-3625
cap	-3626
fin	-3627
ugh	-3628
▁wel	-3629
▁Both	-3630
▁spur	-3631
▁equal	-3632
▁optim	-3633
▁narrow	-3634
▁Ireland	-3635
ded	-3636
lar	-3637
itig	-3638
lied	-3639
▁pun	-3640
▁dead	-3641
▁mach	-3642
▁went	-3643
▁Polit	-3644
▁acknow	-3645
▁opinion	-3646
▁present	-3647
▁conflicts	-3648
▁electricity	-3649
pay	-3650
▁Co	-3651
orks	-3652
▁York	-3653
▁fell	-3654
▁prime	-3655
ference	-3656
▁connect	-3657
▁sustained	-3658
▁operations	-3659
▁possibility	-3660
hib	-3661
uild	-3662
ynes	-3663
acific	-3664
ifying	-3665
istics	-3666
rative	-3667
▁shock	-3668
itative	-3669
▁remark	-3670
▁unable	-3671
standing	-3672
▁raising	-3673
▁barriers	-3674
▁changing	-3675
▁designed	-3676
▁resulting	-3677
IV	-3678
TON	-3679
owned	-3680
ellect	-3681
▁worst	-3682
▁Because	-3683
▁helping	-3684
▁returns	-3685
▁communic	-3686
▁consolid	-3687
▁strength	-3688
▁Democrats	-3689
▁exception	-3690
▁principles	-3691
▁widespread	-3692
ote	-3693
bles	-3694
▁Their	-3695
▁debts	-3696
▁closer	-3697
▁destro	-3698
▁Israeli	-3699
▁confere	-3700
▁greatest	-3701
▁principle	-3702
sis	-3703
▁ec	-3704
mark	-3705
▁Har	-3706
hetor	-3707
inary	-3708
▁meth	-3709
▁rare	-3710
▁ASEAN	-3711
▁occup	-3712
▁medical	-3713
▁started	-3714
▁circumst	-3715
▁remained	-3716
▁supported	-3717
▁transport	-3718
EN	-3719
▁Ma	-3720
fall	-3721
icip	-3722
▁enj	-3723
▁task	-3724
▁victim	-3725
▁Austral	-3726
▁amounts	-3727
▁highest	-3728
▁managed	-3729
▁forecast	-3730
▁economist	-3731
EL	-3732
aves	-3733
▁Cal	-3734
endit	-3735
▁Anot	-3736
▁bail	-3737
▁capt	-3738
▁rele	-3739
▁manip	-3740
▁stake	-3741
▁deploy	-3742
▁insist	-3743
▁rhetor	-3744
▁Another	-3745
▁Perhaps	-3746
▁prevail	-3747
▁Parliament	-3748
▁democracies	-3749
7.	-3750
▁CO	-3751
▁ban	-3752
▁dism	-3753
▁pack	-3754
▁bound	-3755
▁prove	-3756
▁double	-3757
▁giving	-3758
▁depends	-3759
▁incomes	-3760
▁addition	-3761
▁launched	-3762
▁outcomes	-3763
▁thousands	-3764
▁instability	-3765
▁comprehensive	-3766
uck	-3767
inet	-3768
ijing	-3769
urren	-3770
▁2010	-3771
▁Saudi	-3772
▁adapt	-3773
▁viewed	-3774
etheless	-3775
▁generate	-3776
▁restrict	-3777
▁implemented	-3778
pri	-3779
iagn	-3780
▁sum	-3781
ables	-3782
▁Thus	-3783
▁ratio	-3784
▁choose	-3785
▁disrupt	-3786
▁message	-3787
▁agencies	-3788
2%	-3789
rich	-3790
▁der	-3791
risis	-3792
▁insp	-3793
atures	-3794
raction	-3795
▁crimin	-3796
▁instru	-3797
▁places	-3798
▁threats	-3799
▁entirely	-3800
▁expendit	-3801
▁promises	-3802
▁productive	-3803
▁circumstances	-3804
AS	-3805
ares	-3806
▁tro	-3807
rimin	-3808
▁team	-3809
▁treaty	-3810
▁fighting	-3811
▁estimates	-3812
▁intellect	-3813
ira	-3814
lows	-3815
▁pace	-3816
ietnam	-3817
▁eight	-3818
▁space	-3819
▁belief	-3820
▁disput	-3821
ashington	-3822
▁controls	-3823
▁function	-3824
▁struggle	-3825
▁universal	-3826
▁collective	-3827
umm	-3828
wan	-3829
▁Dav	-3830
▁lies	-3831
idered	-3832
▁learn	-3833
▁percent	-3834
▁receive	-3835
▁schools	-3836
▁fundament	-3837
▁legislation	-3838
▁restructuring	-3839
8%	-3840
Ch	-3841
fuel	-3842
▁pen	-3843
▁vers	-3844
▁ended	-3845
▁frequ	-3846
▁mention	-3847
▁considered	-3848
▁experienced	-3849
▁partnership	-3850
▁strengthening	-3851
ray	-3852
run	-3853
▁Ju	-3854
▁50%	-3855
▁har	-3856
ipher	-3857
which	-3858
▁welf	-3859
reasury	-3860
▁easier	-3861
▁trends	-3862
▁Vietnam	-3863
▁appropri	-3864
▁capitalism	-3865
▁intelligence	-3866
▁Gu	-3867
▁spir	-3868
aching	-3869
govern	-3870
▁drugs	-3871
▁raised	-3872
▁suffer	-3873
▁Beijing	-3874
▁refugee	-3875
▁enormous	-3876
▁presidency	-3877
nic	-3878
urb	-3879
▁($	-3880
▁bul	-3881
▁mer	-3882
▁unw	-3883
▁defe	-3884
▁Greek	-3885
▁seven	-3886
▁Christ	-3887
▁moving	-3888
▁General	-3889
▁welfare	-3890
▁southern	-3891
▁undermine	-3892
▁Democratic	-3893
adequ	-3894
▁2006	-3895
▁stem	-3896
▁tack	-3897
anuary	-3898
▁light	-3899
▁views	-3900
▁visit	-3901
▁anyone	-3902
▁unless	-3903
▁genuine	-3904
▁rhetoric	-3905
▁everywhere	-3906
▁objectives	-3907
ios	-3908
yle	-3909
▁Bl	-3910
Euro	-3911
▁ord	-3912
▁drop	-3913
▁wars	-3914
▁During	-3915
▁Rather	-3916
▁robust	-3917
▁January	-3918
▁absence	-3919
▁justice	-3920
▁perspect	-3921
▁scenario	-3922
▁coalition	-3923
▁territorial	-3924
kept	-3925
▁Non	-3926
▁Cold	-3927
▁isol	-3928
▁sell	-3929
▁whom	-3930
▁revers	-3931
▁repeated	-3932
▁weakness	-3933
▁adjustment	-3934
4,	-3935
sc	-3936
rid	-3937
▁Er	-3938
▁alloc	-3939
▁comput	-3940
▁intens	-3941
▁concept	-3942
▁smaller	-3943
▁combined	-3944
.)	-3945
▁gl	-3946
▁wa	-3947
▁203	-3948
▁Tai	-3949
▁Those	-3950
▁adequ	-3951
▁asked	-3952
▁solar	-3953
▁accomp	-3954
▁medium	-3955
▁mostly	-3956
▁offers	-3957
▁dynamic	-3958
▁getting	-3959
▁profits	-3960
▁hundreds	-3961
▁involved	-3962
▁otherwise	-3963
▁Washington	-3964
gen	-3965
▁50	-3966
whel	-3967
▁194	-3968
▁HIV	-3969
▁Whe	-3970
aling	-3971
▁prem	-3972
Europe	-3973
▁hands	-3974
▁lines	-3975
flation	-3976
▁Instit	-3977
▁Keynes	-3978
▁played	-3979
▁resist	-3980
▁complic	-3981
▁driving	-3982
▁declared	-3983
▁disaster	-3984
▁resource	-3985
▁Communist	-3986
▁inevitable	-3987
hic	-3988
ogue	-3989
▁sen	-3990
▁sex	-3991
ronic	-3992
▁arms	-3993
iction	-3994
▁Canad	-3995
▁worked	-3996
▁poorest	-3997
▁ensuring	-3998
▁peripher	-3999
▁transfer	-4000
▁Revolution	-4001
▁credibility	-4002
▁squ	-4003
▁Kong	-4004
▁diss	-4005
▁resil	-4006
▁Colomb	-4007
▁Taiwan	-4008
▁deeply	-4009
▁compens	-4010
▁decided	-4011
▁enforce	-4012
▁implies	-4013
▁inadequ	-4014
▁sharply	-4015
▁priority	-4016
▁tensions	-4017
▁everything	-4018
ode	-4019
▁2%	-4020
dden	-4021
enez	-4022
ores	-4023
itude	-4024
level	-4025
▁Hong	-4026
▁wast	-4027
▁Under	-4028
▁aware	-4029
▁remov	-4030
▁bubble	-4031
▁owners	-4032
▁proved	-4033
▁affairs	-4034
▁himself	-4035
▁creditors	-4036
▁generally	-4037
▁promoting	-4038
▁terrorist	-4039
▁imbalances	-4040
DGE	-4041
los	-4042
MBRI	-4043
more	-4044
uses	-4045
▁beg	-4046
rison	-4047
▁colle	-4048
▁forms	-4049
▁quite	-4050
▁stage	-4051
MBRIDGE	-4052
enezuel	-4053
▁ongoing	-4054
▁persist	-4055
▁CAMBRIDGE	-4056
▁populations	-4057
ods	-4058
ints	-4059
▁Port	-4060
▁joint	-4061
▁fallen	-4062
▁lesson	-4063
▁options	-4064
▁overwhel	-4065
▁expanding	-4066
▁developments	-4067
▁intellectual	-4068
3,	-4069
AR	-4070
-200	-4071
iate	-4072
uman	-4073
▁due	-4074
▁Swed	-4075
▁2008,	-4076
▁round	-4077
itation	-4078
▁Health	-4079
▁arrange	-4080
▁correct	-4081
▁lessons	-4082
▁Venezuel	-4083
▁resistance	-4084
▁distribution	-4085
aria	-4086
▁Nig	-4087
antly	-4088
inent	-4089
▁bott	-4090
▁obst	-4091
▁Third	-4092
▁faced	-4093
▁hours	-4094
▁perce	-4095
▁trial	-4096
▁hardly	-4097
▁prefer	-4098
▁underp	-4099
▁includes	-4100
▁typically	-4101
▁greenhouse	-4102
▁differences	-4103
cto	-4104
▁DC	-4105
▁ey	-4106
ames	-4107
inks	-4108
reet	-4109
▁Octo	-4110
▁base	-4111
▁firm	-4112
▁root	-4113
carbon	-4114
▁sought	-4115
▁tariff	-4116
▁October	-4117
▁various	-4118
▁collabor	-4119
▁leverage	-4120
▁overcome	-4121
▁diplomacy	-4122
▁ministers	-4123
▁innovative	-4124
5.	-4125
ieth	-4126
raft	-4127
aught	-4128
▁March	-4129
▁accum	-4130
▁mount	-4131
▁mainly	-4132
▁stands	-4133
▁sudden	-4134
▁heavily	-4135
▁proposal	-4136
▁"	-4137
book	-4138
fers	-4139
▁Bro	-4140
▁Man	-4141
▁Cour	-4142
▁compl	-4143
▁fears	-4144
▁speak	-4145
▁actors	-4146
▁cutting	-4147
▁usually	-4148
▁patients	-4149
▁expensive	-4150
▁potentially	-4151
▁organization	-4152
▁ep	-4153
ager	-4154
long	-4155
▁20%	-4156
▁Why	-4157
▁dro	-4158
▁hor	-4159
▁Then	-4160
▁join	-4161
▁rely	-4162
▁dimin	-4163
▁obser	-4164
▁formal	-4165
▁multip	-4166
▁Without	-4167
▁regimes	-4168
▁practice	-4169
▁profound	-4170
▁guarantee	-4171
▁objective	-4172
▁technical	-4173
▁percentage	-4174
2,	-4175
oz	-4176
doğ	-4177
▁ut	-4178
sels	-4179
▁BRI	-4180
doğan	-4181
eenth	-4182
▁earn	-4183
▁gone	-4184
▁ties	-4185
▁tried	-4186
▁assert	-4187
▁devast	-4188
▁forest	-4189
▁Erdoğan	-4190
▁resolve	-4191
▁mechanisms	-4192
▁establishment	-4193
CS	-4194
▁10	-4195
aren	-4196
ping	-4197
asing	-4198
▁stay	-4199
▁told	-4200
▁1990’	-4201
▁cheap	-4202
▁stead	-4203
▁track	-4204
▁vehic	-4205
▁gender	-4206
▁emerged	-4207
▁bankrupt	-4208
▁virtually	-4209
▁authoritarian	-4210
▁entrepreneurs	-4211
▁participation	-4212
rud	-4213
apore	-4214
ffect	-4215
▁pled	-4216
▁blame	-4217
▁cycle	-4218
▁aggreg	-4219
▁defend	-4220
▁coordin	-4221
▁volatility	-4222
▁commitments	-4223
▁implications	-4224
Es	-4225
pet	-4226
ull	-4227
iders	-4228
▁2020	-4229
▁Ital	-4230
▁acad	-4231
▁goes	-4232
▁sold	-4233
▁talk	-4234
itious	-4235
▁works	-4236
▁confron	-4237
▁partner	-4238
▁reinfor	-4239
▁relevant	-4240
▁Ber	-4241
▁room	-4242
Americ	-4243
▁Court	-4244
▁medic	-4245
▁credible	-4246
▁language	-4247
▁conference	-4248
▁Pr	-4249
sych	-4250
heast	-4251
▁susp	-4252
▁chann	-4253
▁diagn	-4254
▁exact	-4255
▁motiv	-4256
▁Poland	-4257
▁recomm	-4258
▁unique	-4259
▁useful	-4260
▁appoint	-4261
▁involve	-4262
▁offered	-4263
▁purpose	-4264
▁pursuing	-4265
▁suffering	-4266
ev	-4267
ECD	-4268
aut	-4269
▁vo	-4270
ague	-4271
alle	-4272
rack	-4273
wing	-4274
▁mor	-4275
astro	-4276
▁2009	-4277
▁2015,	-4278
▁ethnic	-4279
▁causing	-4280
▁conclus	-4281
▁whereas	-4282
▁described	-4283
▁territory	-4284
ery	-4285
oil	-4286
▁Me	-4287
atis	-4288
▁30%	-4289
illeg	-4290
▁upon	-4291
▁Count	-4292
▁deval	-4293
▁heavy	-4294
▁hopes	-4295
▁Korean	-4296
▁Portug	-4297
▁figure	-4298
▁travel	-4299
▁mistake	-4300
▁Singapore	-4301
▁permanent	-4302
▁immigrants	-4303
2.	-4304
enh	-4305
anks	-4306
agers	-4307
uries	-4308
▁grew	-4309
▁Hamas	-4310
▁Still	-4311
▁mitig	-4312
▁Social	-4313
▁learning	-4314
▁whatever	-4315
▁renewable	-4316
▁Fortunately	-4317
-19	-4318
The	-4319
iot	-4320
fort	-4321
ties	-4322
▁Sil	-4323
▁gir	-4324
▁sil	-4325
arency	-4326
▁Beyond	-4327
▁Policy	-4328
▁friends	-4329
▁numbers	-4330
▁Treasury	-4331
▁prepared	-4332
▁starters	-4333
▁aggregate	-4334
▁investing	-4335
▁processes	-4336
▁remaining	-4337
▁dramatically	-4338
▁transactions	-4339
uk	-4340
▁Do	-4341
▁dri	-4342
abled	-4343
▁1980	-4344
▁OECD	-4345
▁excl	-4346
▁ones	-4347
herent	-4348
▁shape	-4349
▁spect	-4350
uations	-4351
▁replace	-4352
▁turning	-4353
▁planning	-4354
▁declining	-4355
▁positions	-4356
▁producers	-4357
▁unsustainable	-4358
leb	-4359
uous	-4360
▁195	-4361
▁Jew	-4362
▁Sch	-4363
acerb	-4364
▁July	-4365
stream	-4366
▁mobil	-4367
▁weeks	-4368
▁youth	-4369
urities	-4370
▁applic	-4371
▁desper	-4372
▁explan	-4373
▁choices	-4374
▁exacerb	-4375
▁failing	-4376
▁determine	-4377
▁movements	-4378
▁temporary	-4379
▁discussion	-4380
8,	-4381
time	-4382
▁Eth	-4383
▁Two	-4384
▁type	-4385
luding	-4386
▁Arabia	-4387
▁accord	-4388
▁remind	-4389
▁destroy	-4390
▁Australia	-4391
▁integrated	-4392
▁recognized	-4393
▁counterpart	-4394
▁generations	-4395
ift	-4396
iant	-4397
▁hon	-4398
fense	-4399
▁Will	-4400
▁2010,	-4401
▁persu	-4402
ialogue	-4403
ructive	-4404
▁deeper	-4405
▁ruling	-4406
ographic	-4407
▁equally	-4408
▁annually	-4409
▁continuing	-4410
▁combination	-4411
▁immediately	-4412
▁conventional	-4413
▁3.	-4414
▁40%	-4415
▁Car	-4416
▁mur	-4417
▁sto	-4418
anted	-4419
▁Bang	-4420
▁army	-4421
▁bear	-4422
▁fost	-4423
▁faith	-4424
▁grown	-4425
▁illeg	-4426
▁elites	-4427
▁infect	-4428
▁troops	-4429
▁divided	-4430
▁promised	-4431
▁introduced	-4432
dr	-4433
bled	-4434
rage	-4435
chang	-4436
count	-4437
▁body	-4438
▁lend	-4439
▁knows	-4440
▁signs	-4441
▁degree	-4442
▁humans	-4443
▁learned	-4444
▁inadequate	-4445
▁appropriate	-4446
US	-4447
enn	-4448
itz	-4449
lad	-4450
let	-4451
ancy	-4452
power	-4453
▁Here	-4454
▁wond	-4455
▁board	-4456
▁court	-4457
▁delay	-4458
▁dream	-4459
▁schem	-4460
ivalent	-4461
▁battle	-4462
▁holding	-4463
▁pension	-4464
▁published	-4465
▁destruction	-4466
DGs	-4467
debt	-4468
eron	-4469
ikes	-4470
first	-4471
▁Serb	-4472
▁calc	-4473
▁cell	-4474
▁feed	-4475
iences	-4476
▁issued	-4477
▁losing	-4478
▁parent	-4479
▁summer	-4480
▁undert	-4481
▁billions	-4482
▁ambitious	-4483
▁electoral	-4484
▁twentieth	-4485
▁Investment	-4486
▁perspective	-4487
▁transparency	-4488
add	-4489
▁Kos	-4490
▁bre	-4491
itter	-4492
oking	-4493
▁foot	-4494
▁fulf	-4495
▁phil	-4496
▁stra	-4497
inking	-4498
▁begun	-4499
▁solve	-4500
▁studies	-4501
▁analysis	-4502
▁occurred	-4503
▁starting	-4504
▁addressed	-4505
▁aggressive	-4506
▁candidates	-4507
▁corporations	-4508
▁sustainability	-4509
son	-4510
▁li	-4511
bola	-4512
iled	-4513
▁sea	-4514
▁wis	-4515
▁Fore	-4516
▁aris	-4517
▁bold	-4518
idents	-4519
▁conver	-4520
▁stress	-4521
▁happens	-4522
▁putting	-4523
ibilities	-4524
▁bringing	-4525
▁ordinary	-4526
▁purchases	-4527
▁represents	-4528
▁quantitative	-4529
▁requirements	-4530
4.	-4531
axim	-4532
llor	-4533
▁evol	-4534
▁fert	-4535
▁psych	-4536
▁react	-4537
▁Syrian	-4538
▁plants	-4539
▁preced	-4540
▁reluct	-4541
▁believed	-4542
▁Committee	-4543
▁observers	-4544
▁reflected	-4545
aza	-4546
cons	-4547
▁Act	-4548
licit	-4549
lines	-4550
▁anim	-4551
▁2014,	-4552
▁Kosov	-4553
▁Leban	-4554
▁exerc	-4555
▁imped	-4556
▁desire	-4557
▁legisl	-4558
▁England	-4559
▁Indones	-4560
▁species	-4561
▁trigger	-4562
▁Partners	-4563
▁tradition	-4564
▁Depression	-4565
▁encouraging	-4566
la	-4567
resp	-4568
▁Prot	-4569
▁gave	-4570
rowing	-4571
▁2013,	-4572
▁Ebola	-4573
▁looks	-4574
▁nomin	-4575
▁ready	-4576
▁gained	-4577
▁impose	-4578
▁nations	-4579
▁playing	-4580
▁underpin	-4581
▁priorities	-4582
▁underlying	-4583
▁economically	-4584
BO	-4585
gu	-4586
asc	-4587
gas	-4588
acco	-4589
ches	-4590
ylum	-4591
ested	-4592
ilipp	-4593
orpor	-4594
orient	-4595
▁2012,	-4596
▁Trans	-4597
▁enjoy	-4598
▁grand	-4599
▁monit	-4600
▁assume	-4601
▁critics	-4602
▁discipl	-4603
▁healthy	-4604
▁conservative	-4605
ze	-4606
ula	-4607
▁Kh	-4608
iers	-4609
▁Abe	-4610
▁Bal	-4611
atisf	-4612
class	-4613
iforn	-4614
iling	-4615
aration	-4616
▁detail	-4617
▁killed	-4618
▁offset	-4619
▁Philipp	-4620
▁perfect	-4621
▁restore	-4622
▁victims	-4623
▁Californ	-4624
▁rational	-4625
▁seriously	-4626
▁contributed	-4627
▁Palestinians	-4628
▁liberalization	-4629
ken	-4630
conn	-4631
enty	-4632
ires	-4633
▁Our	-4634
works	-4635
▁peak	-4636
▁trip	-4637
apital	-4638
roduct	-4639
▁paper	-4640
▁confir	-4641
▁twenty	-4642
▁Brother	-4643
▁Cameron	-4644
▁reports	-4645
▁towards	-4646
▁although	-4647
▁contracts	-4648
▁inclusive	-4649
che	-4650
▁60%	-4651
▁Nob	-4652
▁ric	-4653
ading	-4654
▁fire	-4655
ustrial	-4656
▁related	-4657
▁underst	-4658
▁surprise	-4659
igor	-4660
ogle	-4661
reen	-4662
▁80%	-4663
▁BER	-4664
ibiot	-4665
▁flaw	-4666
lihood	-4667
▁Kenya	-4668
▁fixed	-4669
▁leads	-4670
russels	-4671
▁modest	-4672
▁signed	-4673
▁exactly	-4674
▁imposed	-4675
▁trouble	-4676
▁dramatic	-4677
▁identity	-4678
▁protests	-4679
▁reaching	-4680
▁experiment	-4681
▁proportion	-4682
▁Partnership	-4683
imb	-4684
unn	-4685
-201	-4686
with	-4687
anied	-4688
▁cyber	-4689
▁enact	-4690
▁maxim	-4691
▁tough	-4692
▁Kosovo	-4693
▁profit	-4694
▁Portugal	-4695
▁investig	-4696
▁physical	-4697
▁possibly	-4698
▁achieving	-4699
▁criticism	-4700
▁equivalent	-4701
▁protecting	-4702
▁substantially	-4703
arsh	-4704
▁wid	-4705
▁Road	-4706
▁Vlad	-4707
▁accur	-4708
▁added	-4709
▁decis	-4710
▁earth	-4711
▁truly	-4712
uilding	-4713
▁Canada	-4714
▁arrest	-4715
▁asylum	-4716
▁decide	-4717
▁emerge	-4718
▁obstac	-4719
▁compris	-4720
▁figures	-4721
▁violent	-4722
▁Brussels	-4723
▁Colombia	-4724
▁affected	-4725
▁disputes	-4726
▁Indonesia	-4727
▁emergence	-4728
▁proposals	-4729
▁transfers	-4730
▁approaches	-4731
▁establishing	-4732
▁accountability	-4733
▁got	-4734
▁quo	-4735
alyst	-4736
▁2007	-4737
▁tact	-4738
icious	-4739
▁fewer	-4740
▁users	-4741
▁Sweden	-4742
▁active	-4743
▁mutual	-4744
▁Constit	-4745
▁suffered	-4746
▁candidate	-4747
▁accompanied	-4748
▁journalists	-4749
EO	-4750
ana	-4751
▁11	-4752
▁25	-4753
onom	-4754
pril	-4755
▁Unt	-4756
anish	-4757
mented	-4758
▁2011,	-4759
▁aging	-4760
▁armed	-4761
▁compe	-4762
appoint	-4763
▁Google	-4764
▁showed	-4765
exchange	-4766
▁content	-4767
▁secular	-4768
▁concerned	-4769
▁practical	-4770
▁California	-4771
▁attractive	-4772
▁supporting	-4773
▁recognition	-4774
ns	-4775
eth	-4776
ney	-4777
oly	-4778
ulf	-4779
▁Te	-4780
aily	-4781
osis	-4782
▁Jin	-4783
▁Reg	-4784
irect	-4785
ugust	-4786
▁AIDS	-4787
▁Turk	-4788
▁Wall	-4789
▁bomb	-4790
itably	-4791
ospital	-4792
▁Energy	-4793
▁superv	-4794
▁researc	-4795
▁identify	-4796
▁networks	-4797
▁gradually	-4798
▁accounting	-4799
ani	-4800
cks	-4801
mon	-4802
rog	-4803
▁40	-4804
ifth	-4805
imir	-4806
▁east	-4807
▁inde	-4808
border	-4809
ground	-4810
overed	-4811
rating	-4812
▁girls	-4813
▁liter	-4814
country	-4815
▁mobile	-4816
▁engaged	-4817
▁setting	-4818
▁Vladimir	-4819
▁mortgage	-4820
▁platforms	-4821
▁institution	-4822
▁nationalism	-4823
GO	-4824
eb	-4825
era	-4826
adow	-4827
ibet	-4828
pric	-4829
reme	-4830
▁fem	-4831
▁mix	-4832
▁shr	-4833
▁ver	-4834
lades	-4835
▁Shan	-4836
▁exit	-4837
igrant	-4838
▁elite	-4839
▁revol	-4840
▁bottom	-4841
▁observ	-4842
▁senior	-4843
▁survey	-4844
▁symbol	-4845
European	-4846
▁Italian	-4847
▁Jinping	-4848
▁antibiot	-4849
▁boosting	-4850
▁criminal	-4851
▁historic	-4852
▁supplies	-4853
▁borrowers	-4854
▁constitutional	-4855
CC	-4856
ASH	-4857
▁13	-4858
▁Em	-4859
ison	-4860
▁thr	-4861
▁Plan	-4862
INGTON	-4863
crisis	-4864
ladesh	-4865
▁Until	-4866
▁celeb	-4867
▁costly	-4868
▁fueled	-4869
▁wanted	-4870
▁defined	-4871
▁network	-4872
▁notably	-4873
▁alliance	-4874
▁equality	-4875
▁reported	-4876
▁Venezuela	-4877
▁evolution	-4878
▁highlight	-4879
▁Bangladesh	-4880
▁preventing	-4881
gic	-4882
iop	-4883
ipe	-4884
▁Mc	-4885
mbly	-4886
▁Ant	-4887
▁Off	-4888
▁fal	-4889
ained	-4890
secut	-4891
▁Face	-4892
▁Paul	-4893
▁Spec	-4894
▁April	-4895
Pacific	-4896
▁paying	-4897
▁Muslims	-4898
▁welcome	-4899
ASHINGTON	-4900
▁previously	-4901
▁surprising	-4902
▁Governments	-4903
▁implementation	-4904
ghai	-4905
ional	-4906
▁brut	-4907
▁iron	-4908
▁phen	-4909
▁Nobel	-4910
▁Tibet	-4911
▁August	-4912
▁shocks	-4913
▁Foreign	-4914
▁centers	-4915
▁closely	-4916
▁Shanghai	-4917
▁eliminate	-4918
▁determined	-4919
▁remarkable	-4920
▁Nonetheless	-4921
ih	-4922
ocu	-4923
pass	-4924
▁aud	-4925
igned	-4926
orted	-4927
▁chem	-4928
▁irre	-4929
▁none	-4930
▁wake	-4931
▁reput	-4932
▁sales	-4933
▁tempt	-4934
▁Chance	-4935
▁Growth	-4936
▁search	-4937
▁Lebanon	-4938
▁benefic	-4939
▁weather	-4940
▁accepted	-4941
▁dialogue	-4942
▁expanded	-4943
▁intended	-4944
liferation	-4945
ordination	-4946
▁employees	-4947
▁incentive	-4948
▁opponents	-4949
▁perceived	-4950
▁pressures	-4951
▁WASHINGTON	-4952
▁compromise	-4953
▁structures	-4954
▁maintaining	-4955
▁researchers	-4956
8.	-4957
AI	-4958
▁Ne	-4959
▁Cont	-4960
▁Prog	-4961
▁crop	-4962
▁race	-4963
arters	-4964
icking	-4965
▁ideal	-4966
▁parad	-4967
▁uncon	-4968
artment	-4969
urrency	-4970
▁Ethiop	-4971
▁chronic	-4972
▁explicit	-4973
▁humanity	-4974
▁managers	-4975
▁managing	-4976
▁peaceful	-4977
▁periphery	-4978
oke	-4979
bert	-4980
free	-4981
idel	-4982
ingu	-4983
oubt	-4984
▁Ange	-4985
▁Gaza	-4986
driven	-4987
iberal	-4988
▁surely	-4989
▁warned	-4990
▁Conserv	-4991
▁Iranian	-4992
▁anticip	-4993
▁embrace	-4994
▁mandate	-4995
▁operate	-4996
▁pushing	-4997
▁included	-4998
▁opposite	-4999
▁centuries	-5000
▁engagement	-5001
▁resolution	-5002
▁nationalist	-5003
▁humanitarian	-5004
▁restrictions	-5005
▁parliamentary	-5006
comm	-5007
etic	-5008
▁Any	-5009
▁Mod	-5010
▁dow	-5011
uable	-5012
▁cong	-5013
▁enem	-5014
▁nine	-5015
▁outs	-5016
contro	-5017
▁Every	-5018
▁apply	-5019
▁defeat	-5020
▁incomp	-5021
▁rating	-5022
▁creates	-5023
▁enhance	-5024
▁exposed	-5025
intensive	-5026
▁interven	-5027
▁phenomen	-5028
▁negotiate	-5029
▁sentiment	-5030
▁essentially	-5031
rs	-5032
OEs	-5033
iti	-5034
rap	-5035
ahar	-5036
appe	-5037
lete	-5038
mosp	-5039
▁lay	-5040
▁arch	-5041
▁says	-5042
▁Libya	-5043
▁micro	-5044
▁rival	-5045
▁smart	-5046
▁pushed	-5047
▁sheets	-5048
▁weight	-5049
national	-5050
oriented	-5051
security	-5052
▁express	-5053
▁subsequ	-5054
▁Facebook	-5055
▁northern	-5056
▁shifting	-5057
▁survival	-5058
▁threatened	-5059
▁withdrawal	-5060
▁undermining	-5061
▁constitution	-5062
ife	-5063
oud	-5064
iang	-5065
rown	-5066
▁nav	-5067
arely	-5068
ipped	-5069
▁Hung	-5070
▁exam	-5071
ultane	-5072
▁champ	-5073
▁scope	-5074
ogether	-5075
reement	-5076
▁atmosp	-5077
▁bailout	-5078
▁keeping	-5079
▁opening	-5080
▁Countries	-5081
▁promising	-5082
▁solidarity	-5083
▁supporters	-5084
▁Philippines	-5085
▁devastating	-5086
▁educational	-5087
▁innovations	-5088
ari	-5089
atal	-5090
lock	-5091
▁Ear	-5092
▁Rom	-5093
▁asp	-5094
being	-5095
oming	-5096
onent	-5097
▁fort	-5098
resent	-5099
▁alike	-5100
▁deals	-5101
▁downt	-5102
▁Macron	-5103
▁closed	-5104
▁ignore	-5105
▁Further	-5106
▁initial	-5107
▁rejected	-5108
▁targeted	-5109
▁Institute	-5110
▁concluded	-5111
▁primarily	-5112
inct	-5113
urch	-5114
▁Cub	-5115
▁sus	-5116
ament	-5117
▁gold	-5118
inding	-5119
▁doesn	-5120
▁rebal	-5121
▁tests	-5122
ventions	-5123
▁illegal	-5124
▁sharing	-5125
▁advances	-5126
▁deterior	-5127
▁simultane	-5128
▁imperative	-5129
▁legitimate	-5130
▁securities	-5131
▁universities	-5132
▁contributions	-5133
CA	-5134
imp	-5135
rue	-5136
pted	-5137
▁Add	-5138
▁Bel	-5139
▁Bern	-5140
▁epid	-5141
▁rose	-5142
▁shap	-5143
aining	-5144
lected	-5145
▁toler	-5146
cession	-5147
▁conven	-5148
▁crimes	-5149
▁legacy	-5150
▁prison	-5151
▁budgets	-5152
▁marginal	-5153
▁neighbor	-5154
▁vehicles	-5155
▁emergency	-5156
▁understood	-5157
▁instruments	-5158
▁willingness	-5159
DR	-5160
iny	-5161
▁Sud	-5162
bling	-5163
▁Burm	-5164
▁Once	-5165
▁born	-5166
▁disag	-5167
▁moved	-5168
▁risky	-5169
▁Street	-5170
▁prohib	-5171
▁slight	-5172
▁taxpay	-5173
▁However	-5174
▁Whether	-5175
▁players	-5176
▁survive	-5177
▁tariffs	-5178
▁failures	-5179
▁hospital	-5180
▁momentum	-5181
▁extremely	-5182
▁facilitate	-5183
▁constraints	-5184
▁demographic	-5185
▁necessarily	-5186
▁threatening	-5187
▁coordination	-5188
ume	-5189
▁17	-5190
▁3%	-5191
▁QE	-5192
fare	-5193
olst	-5194
▁Are	-5195
break	-5196
▁Krem	-5197
clical	-5198
▁allows	-5199
▁joined	-5200
▁libert	-5201
▁reward	-5202
ophistic	-5203
▁Kremlin	-5204
▁Nigeria	-5205
▁ethical	-5206
▁imagine	-5207
ineteenth	-5208
▁globally	-5209
▁minority	-5210
▁populism	-5211
▁strongly	-5212
▁ownership	-5213
▁bankruptcy	-5214
▁obligations	-5215
9%	-5216
sk	-5217
uit	-5218
uty	-5219
▁Su	-5220
cean	-5221
rote	-5222
▁ded	-5223
icial	-5224
▁Forum	-5225
▁Human	-5226
▁index	-5227
ulating	-5228
▁absorb	-5229
▁placed	-5230
▁weaker	-5231
▁capable	-5232
▁corrupt	-5233
▁adequate	-5234
▁coverage	-5235
▁deposits	-5236
▁downward	-5237
▁offering	-5238
▁regarded	-5239
▁vaccines	-5240
▁operating	-5241
▁Chancellor	-5242
utr	-5243
▁90%	-5244
▁Mor	-5245
▁sac	-5246
▁Summ	-5247
▁ment	-5248
abling	-5249
airman	-5250
pected	-5251
▁black	-5252
▁guide	-5253
▁heads	-5254
▁newly	-5255
▁phase	-5256
▁attrib	-5257
▁tackle	-5258
▁calling	-5259
▁claimed	-5260
▁collaps	-5261
▁enabled	-5262
▁finding	-5263
▁downturn	-5264
▁systemic	-5265
▁threaten	-5266
▁stagnation	-5267
▁demonstrated	-5268
yal	-5269
▁1%	-5270
▁16	-5271
▁Ac	-5272
▁BR	-5273
what	-5274
▁Sub	-5275
▁Sup	-5276
▁esc	-5277
adays	-5278
▁sort	-5279
▁Again	-5280
▁reass	-5281
▁twice	-5282
▁linked	-5283
▁series	-5284
▁stance	-5285
ffective	-5286
reaching	-5287
▁adverse	-5288
▁autonom	-5289
▁comfort	-5290
▁discover	-5291
▁presence	-5292
▁regardless	-5293
▁explanation	-5294
▁improvement	-5295
▁capabilities	-5296
▁depreciation	-5297
bit	-5298
ole	-5299
udd	-5300
▁Tal	-5301
▁ben	-5302
▁via	-5303
erous	-5304
point	-5305
rence	-5306
▁burn	-5307
▁resc	-5308
▁absol	-5309
▁older	-5310
▁votes	-5311
agement	-5312
▁Senate	-5313
▁interp	-5314
▁raises	-5315
▁secret	-5316
▁viable	-5317
▁artific	-5318
▁wealthy	-5319
▁inevitably	-5320
▁terrorists	-5321
AD	-5322
PP	-5323
aba	-5324
how	-5325
ino	-5326
iox	-5327
▁Lab	-5328
▁alt	-5329
▁anx	-5330
▁tim	-5331
trade	-5332
usive	-5333
▁High	-5334
▁tour	-5335
▁BRICS	-5336
▁coast	-5337
▁woman	-5338
osystem	-5339
▁Market	-5340
▁father	-5341
▁proced	-5342
▁satisf	-5343
ifically	-5344
▁applied	-5345
▁bubbles	-5346
▁opposed	-5347
ressional	-5348
▁standing	-5349
▁condition	-5350
▁customers	-5351
▁displaced	-5352
▁dominated	-5353
▁sophistic	-5354
▁accelerate	-5355
▁reasonable	-5356
ux	-5357
duc	-5358
▁5%	-5359
▁Ky	-5360
irth	-5361
▁Big	-5362
▁eru	-5363
▁tow	-5364
rific	-5365
▁2011	-5366
▁fate	-5367
▁magn	-5368
▁tort	-5369
▁wave	-5370
rights	-5371
▁artic	-5372
▁blood	-5373
▁chief	-5374
▁flood	-5375
▁speed	-5376
▁wrote	-5377
▁Change	-5378
▁Rights	-5379
▁appeal	-5380
▁ending	-5381
▁served	-5382
function	-5383
oubtedly	-5384
▁Spanish	-5385
▁broadly	-5386
▁dispute	-5387
▁looking	-5388
▁warning	-5389
▁destabil	-5390
▁revealed	-5391
▁advantages	-5392
▁settlement	-5393
▁transparent	-5394
▁counterparts	-5395
▁$4	-5396
▁14	-5397
iver	-5398
ompl	-5399
unis	-5400
▁$1.	-5401
▁70%	-5402
▁She	-5403
▁sch	-5404
China	-5405
ommod	-5406
▁kept	-5407
▁wors	-5408
ivered	-5409
▁Austr	-5410
▁bolst	-5411
▁diver	-5412
▁escal	-5413
▁multi	-5414
▁skept	-5415
▁table	-5416
▁buying	-5417
▁entail	-5418
▁fragile	-5419
▁nominal	-5420
▁painful	-5421
▁Stability	-5422
▁acknowled	-5423
▁dependent	-5424
▁dictators	-5425
▁completely	-5426
▁controvers	-5427
▁disappoint	-5428
▁extraordin	-5429
▁implementing	-5430
IA	-5431
▁TB	-5432
rete	-5433
vard	-5434
▁lag	-5435
anmar	-5436
itness	-5437
urally	-5438
▁David	-5439
▁Never	-5440
ishment	-5441
ulative	-5442
▁thanks	-5443
veraging	-5444
▁Harvard	-5445
▁released	-5446
▁repression	-5447
▁ideological	-5448
▁contribution	-5449
▁consolidation	-5450
9.	-5451
ha	-5452
▁·	-5453
cri	-5454
uff	-5455
▁60	-5456
ebru	-5457
▁anc	-5458
▁cha	-5459
▁die	-5460
▁fil	-5461
▁mus	-5462
known	-5463
▁aims	-5464
00,000	-5465
▁Franc	-5466
▁daily	-5467
▁norms	-5468
▁plant	-5469
ebruary	-5470
termath	-5471
through	-5472
▁condem	-5473
▁extend	-5474
▁harder	-5475
▁retail	-5476
▁retire	-5477
▁carried	-5478
▁diverse	-5479
▁package	-5480
▁pursued	-5481
▁religion	-5482
▁aftermath	-5483
▁delivered	-5484
▁ecosystem	-5485
▁repeatedly	-5486
▁undoubtedly	-5487
▁participants	-5488
▁professional	-5489
olar	-5490
▁CEO	-5491
▁Law	-5492
▁Naz	-5493
▁tob	-5494
▁crow	-5495
▁emot	-5496
▁reck	-5497
▁Found	-5498
▁Sudan	-5499
▁Tunis	-5500
▁defin	-5501
▁holds	-5502
▁logic	-5503
▁penal	-5504
▁Recent	-5505
▁Resear	-5506
▁aspect	-5507
▁chains	-5508
▁courts	-5509
▁except	-5510
▁intent	-5511
▁latter	-5512
▁philos	-5513
▁tobacco	-5514
including	-5515
▁concrete	-5516
▁elements	-5517
▁enabling	-5518
▁examples	-5519
▁patterns	-5520
▁properly	-5521
▁discrimin	-5522
▁encouraged	-5523
▁arrangements	-5524
▁strengthened	-5525
▁successfully	-5526
▁interventions	-5527
na	-5528
BOC	-5529
ONG	-5530
egu	-5531
empl	-5532
▁obt	-5533
▁pie	-5534
style	-5535
anging	-5536
estate	-5537
▁apart	-5538
▁surge	-5539
▁voted	-5540
▁Spring	-5541
▁bigger	-5542
▁divers	-5543
▁donors	-5544
▁review	-5545
▁slower	-5546
outheast	-5547
▁reserve	-5548
▁February	-5549
▁moderate	-5550
▁returned	-5551
fe	-5552
.5%	-5553
ket	-5554
ozy	-5555
she	-5556
rish	-5557
▁cry	-5558
▁ple	-5559
sight	-5560
▁cars	-5561
▁docu	-5562
▁pret	-5563
▁turm	-5564
▁zone	-5565
▁monop	-5566
▁polls	-5567
▁Labour	-5568
▁Strate	-5569
▁acting	-5570
▁decent	-5571
▁leaves	-5572
▁wonder	-5573
levision	-5574
▁Myanmar	-5575
▁compete	-5576
▁realize	-5577
▁turmoil	-5578
ufficient	-5579
▁accommod	-5580
▁announce	-5581
▁balanced	-5582
▁educated	-5583
▁outbreak	-5584
▁severely	-5585
▁generated	-5586
▁atmosphere	-5587
▁nineteenth	-5588
▁Furthermore	-5589
▁antibiotics	-5590
▁challenging	-5591
▁flexibility	-5592
▁alternatives	-5593
GDP	-5594
isp	-5595
now	-5596
ple	-5597
view	-5598
▁hyd	-5599
ellow	-5600
▁$100	-5601
▁ball	-5602
▁clin	-5603
▁rout	-5604
▁sole	-5605
arkozy	-5606
growth	-5607
health	-5608
thirds	-5609
▁delib	-5610
▁links	-5611
▁posed	-5612
▁prede	-5613
▁recip	-5614
▁scand	-5615
▁unity	-5616
▁actual	-5617
▁charge	-5618
▁escape	-5619
▁yields	-5620
▁disappe	-5621
▁pointed	-5622
▁reverse	-5623
▁Ethiopia	-5624
▁emphasis	-5625
▁valuable	-5626
▁workforce	-5627
▁consistent	-5628
▁dependence	-5629
▁mainstream	-5630
▁prosperous	-5631
▁improvements	-5632
▁App	-5633
▁Cle	-5634
Sahar	-5635
ollah	-5636
using	-5637
▁2016,	-5638
▁shale	-5639
Saharan	-5640
▁caught	-5641
▁estate	-5642
▁rarely	-5643
▁relief	-5644
▁shifts	-5645
▁slowing	-5646
▁variety	-5647
▁multiple	-5648
▁populists	-5649
▁predecess	-5650
▁generating	-5651
▁struggling	-5652
▁negotiating	-5653
▁manipulation	-5654
▁temperatures	-5655
IP	-5656
▁Ah	-5657
▁El	-5658
aded	-5659
inced	-5660
▁Four	-5661
▁Gulf	-5662
▁bill	-5663
▁hege	-5664
ailand	-5665
▁equip	-5666
▁overh	-5667
▁pharm	-5668
rations	-5669
▁launch	-5670
▁perpet	-5671
▁poorer	-5672
▁strike	-5673
▁volunt	-5674
▁Sarkozy	-5675
▁Through	-5676
▁command	-5677
▁killing	-5678
▁minimum	-5679
▁parents	-5680
▁stopped	-5681
▁flexible	-5682
▁conducted	-5683
▁narrative	-5684
▁stimulate	-5685
▁conclusion	-5686
▁purchasing	-5687
▁tightening	-5688
RIS	-5689
emb	-5690
ias	-5691
ips	-5692
rew	-5693
urd	-5694
▁25%	-5695
price	-5696
▁loan	-5697
▁vill	-5698
adjust	-5699
commun	-5700
▁helps	-5701
▁south	-5702
▁waste	-5703
▁Angela	-5704
▁Defense	-5705
▁Turkish	-5706
▁fueling	-5707
▁mission	-5708
▁prolong	-5709
▁Thailand	-5710
▁declined	-5711
▁mobility	-5712
▁expertise	-5713
▁responses	-5714
▁shortfall	-5715
▁guarantees	-5716
▁resilience	-5717
▁statistics	-5718
▁expenditures	-5719
oes	-5720
oon	-5721
▁Im	-5722
▁Kim	-5723
▁swe	-5724
gered	-5725
itect	-5726
party	-5727
▁qual	-5728
asters	-5729
▁1980’	-5730
▁acute	-5731
▁advis	-5732
▁alarm	-5733
▁crime	-5734
▁frust	-5735
▁wider	-5736
▁Agency	-5737
▁Nether	-5738
▁Unlike	-5739
▁combat	-5740
▁safegu	-5741
▁spirit	-5742
▁weaken	-5743
▁wisdom	-5744
▁accompl	-5745
▁proceed	-5746
▁worried	-5747
inflation	-5748
▁Islamist	-5749
▁computer	-5750
▁publicly	-5751
▁somewhat	-5752
▁isolation	-5753
▁producing	-5754
▁provision	-5755
▁commission	-5756
▁Netherlands	-5757
▁devaluation	-5758
▁effectiveness	-5759
▁relationships	-5760
CE	-5761
We	-5762
ius	-5763
xic	-5764
▁PA	-5765
ador	-5766
arak	-5767
cker	-5768
lish	-5769
▁bra	-5770
agger	-5771
ashed	-5772
oning	-5773
▁Lead	-5774
lessly	-5775
ptions	-5776
▁gives	-5777
▁noted	-5778
▁risen	-5779
ortions	-5780
▁Serbia	-5781
▁apprec	-5782
▁barely	-5783
▁depart	-5784
▁female	-5785
▁friend	-5786
▁shares	-5787
American	-5788
▁comment	-5789
▁expense	-5790
ependence	-5791
inational	-5792
▁absolute	-5793
▁academic	-5794
▁disorder	-5795
▁informal	-5796
▁measured	-5797
▁meetings	-5798
▁architect	-5799
▁similarly	-5800
▁policymaking	-5801
AV	-5802
▁Pen	-5803
ivate	-5804
▁Much	-5805
▁SOEs	-5806
▁blam	-5807
▁pill	-5808
▁runs	-5809
▁seas	-5810
▁tele	-5811
estern	-5812
▁2001,	-5813
▁polar	-5814
▁gather	-5815
▁height	-5816
▁saying	-5817
▁slowly	-5818
▁ignored	-5819
▁inflows	-5820
▁profess	-5821
▁attempts	-5822
▁seemingly	-5823
▁suggested	-5824
▁taxpayers	-5825
▁discipline	-5826
EY	-5827
ica	-5828
oor	-5829
rum	-5830
▁$5	-5831
▁aw	-5832
▁202	-5833
▁Yes	-5834
▁hot	-5835
▁saw	-5836
acing	-5837
idden	-5838
ordan	-5839
▁blow	-5840
▁trap	-5841
▁wait	-5842
alysts	-5843
illenn	-5844
iments	-5845
▁Burma	-5846
▁Peace	-5847
▁enlar	-5848
▁heard	-5849
▁minds	-5850
product	-5851
▁advice	-5852
▁united	-5853
▁waters	-5854
▁someone	-5855
▁Research	-5856
▁democrat	-5857
▁carefully	-5858
▁expressed	-5859
▁mortgages	-5860
▁triggered	-5861
▁Foundation	-5862
▁attempting	-5863
▁presidents	-5864
CO	-5865
ma	-5866
ini	-5867
raf	-5868
rig	-5869
soc	-5870
▁Os	-5871
▁je	-5872
▁od	-5873
agen	-5874
cles	-5875
▁Den	-5876
▁vac	-5877
inian	-5878
▁alle	-5879
▁curb	-5880
▁grid	-5881
▁vent	-5882
ounded	-5883
▁2009,	-5884
▁autoc	-5885
▁Robert	-5886
▁broken	-5887
▁resort	-5888
▁stories	-5889
▁version	-5890
▁limiting	-5891
▁outright	-5892
▁suddenly	-5893
▁recommend	-5894
▁responded	-5895
▁unwilling	-5896
▁assessment	-5897
▁executives	-5898
▁frequently	-5899
▁maintained	-5900
▁considerably	-5901
▁fundamentally	-5902
port	-5903
prof	-5904
▁Aut	-5905
▁Pan	-5906
agues	-5907
emics	-5908
▁None	-5909
▁Sunn	-5910
▁prud	-5911
ashion	-5912
itudes	-5913
urance	-5914
▁2000,	-5915
▁catch	-5916
▁refer	-5917
osition	-5918
▁argues	-5919
▁define	-5920
▁opened	-5921
▁transl	-5922
▁transm	-5923
▁unders	-5924
▁Supreme	-5925
▁gradual	-5926
▁treated	-5927
▁Southeast	-5928
▁convinced	-5929
▁Department	-5930
▁participate	-5931
▁sophisticated	-5932
?”	-5933
tt	-5934
que	-5935
ugg	-5936
▁Li	-5937
iban	-5938
rees	-5939
▁Dar	-5940
▁lie	-5941
integ	-5942
odies	-5943
ection	-5944
▁2015.	-5945
▁Roman	-5946
▁abuse	-5947
▁homes	-5948
▁newsp	-5949
▁traff	-5950
▁Jordan	-5951
▁cooper	-5952
▁fourth	-5953
▁murder	-5954
▁overse	-5955
▁Taliban	-5956
▁charges	-5957
▁renewed	-5958
▁showing	-5959
▁witness	-5960
▁exercise	-5961
▁invested	-5962
▁resulted	-5963
▁ambitions	-5964
▁diversity	-5965
▁executive	-5966
▁predicted	-5967
▁television	-5968
▁university	-5969
▁acknowledge	-5970
▁progressive	-5971
▁fundamentals	-5972
TA	-5973
ami	-5974
grad	-5975
ocol	-5976
▁Bet	-5977
eping	-5978
ilemm	-5979
inded	-5980
nings	-5981
▁Educ	-5982
▁died	-5983
▁drag	-5984
▁pool	-5985
▁puts	-5986
▁Blair	-5987
▁Goals	-5988
▁Group	-5989
▁facts	-5990
▁false	-5991
▁moves	-5992
▁north	-5993
▁ruled	-5994
develop	-5995
ressing	-5996
▁talent	-5997
atlantic	-5998
▁assumed	-5999
▁routine	-6000
▁vaccine	-6001
▁Atlantic	-6002
▁annivers	-6003
▁chemical	-6004
▁creative	-6005
▁damaging	-6006
▁weakened	-6007
▁arguments	-6008
▁demanding	-6009
▁equipment	-6010
▁statement	-6011
▁weakening	-6012
▁concerning	-6013
▁controlled	-6014
▁indicators	-6015
governmental	-6016
▁consequence	-6017
▁coordinated	-6018
▁appreciation	-6019
▁experiencing	-6020
▁simultaneously	-6021
▁transportation	-6022
ES	-6023
zz	-6024
cor	-6025
adic	-6026
amed	-6027
face	-6028
onia	-6029
▁Cop	-6030
▁Mub	-6031
▁doz	-6032
▁hab	-6033
▁rig	-6034
place	-6035
▁text	-6036
▁uses	-6037
▁Board	-6038
▁White	-6039
▁cells	-6040
▁night	-6041
▁poses	-6042
▁steel	-6043
▁types	-6044
▁white	-6045
perform	-6046
▁Public	-6047
▁presum	-6048
▁proven	-6049
▁voting	-6050
▁channel	-6051
▁contrad	-6052
▁evident	-6053
▁selling	-6054
▁Egyptian	-6055
▁decisive	-6056
▁Represent	-6057
▁benefited	-6058
▁requiring	-6059
▁affordable	-6060
▁expenditure	-6061
▁Constitution	-6062
▁communication	-6063
▁extraordinary	-6064
gia	-6065
hab	-6066
mad	-6067
uan	-6068
kers	-6069
oted	-6070
ragm	-6071
▁ast	-6072
▁bit	-6073
▁lob	-6074
▁2017	-6075
▁Five	-6076
▁dark	-6077
▁eyes	-6078
ioxide	-6079
▁eager	-6080
▁thres	-6081
▁usual	-6082
▁advert	-6083
▁brings	-6084
▁exclud	-6085
▁manner	-6086
▁shadow	-6087
▁Clearly	-6088
▁Hungary	-6089
▁Justice	-6090
▁Mubarak	-6091
▁deposit	-6092
▁dismiss	-6093
▁eastern	-6094
▁malaria	-6095
▁Northern	-6096
▁dominant	-6097
▁nowadays	-6098
▁pressing	-6099
▁straight	-6100
▁supports	-6101
▁urgently	-6102
▁awareness	-6103
▁initially	-6104
▁apparently	-6105
▁phenomenon	-6106
▁rebalancing	-6107
▁shareholders	-6108
IB	-6109
KEL	-6110
pan	-6111
▁$6	-6112
odes	-6113
oles	-6114
osen	-6115
▁15%	-6116
▁1970	-6117
▁Asse	-6118
▁Bill	-6119
▁Cuba	-6120
▁Holl	-6121
▁bloc	-6122
▁gets	-6123
▁seed	-6124
▁shut	-6125
▁trib	-6126
istrib	-6127
ranean	-6128
▁Assad	-6129
▁crack	-6130
▁imply	-6131
▁kinds	-6132
veraged	-6133
▁BERKEL	-6134
▁strict	-6135
currency	-6136
interest	-6137
▁payment	-6138
▁privile	-6139
▁Political	-6140
▁threshold	-6141
▁impressive	-6142
▁reductions	-6143
▁reputation	-6144
▁complicated	-6145
▁enforcement	-6146
▁consistently	-6147
▁insufficient	-6148
HI	-6149
bor	-6150
gor	-6151
oms	-6152
body	-6153
cost	-6154
oked	-6155
rant	-6156
resh	-6157
rity	-6158
▁Ben	-6159
▁cul	-6160
enses	-6161
iking	-6162
opard	-6163
unger	-6164
▁pure	-6165
▁rail	-6166
▁wish	-6167
astrop	-6168
erving	-6169
▁birth	-6170
▁chain	-6171
▁simpl	-6172
▁staff	-6173
enhagen	-6174
growing	-6175
▁deprec	-6176
▁plenty	-6177
▁rulers	-6178
idelines	-6179
▁dealing	-6180
▁empower	-6181
connected	-6182
▁BERKELEY	-6183
▁distingu	-6184
▁financed	-6185
▁reliable	-6186
▁Democracy	-6187
▁Palestine	-6188
▁connected	-6189
▁governing	-6190
▁inclusion	-6191
▁organized	-6192
▁ourselves	-6193
▁reluctant	-6194
▁Copenhagen	-6195
▁meaningful	-6196
▁minorities	-6197
▁Sustainable	-6198
▁foundations	-6199
▁problematic	-6200
▁breakthrough	-6201
▁compensation	-6202
▁contributing	-6203
▁characterized	-6204
Is	-6205
alf	-6206
▁Sm	-6207
anke	-6208
isan	-6209
lash	-6210
▁dim	-6211
essim	-6212
▁Conf	-6213
▁PBOC	-6214
▁True	-6215
▁cast	-6216
▁felt	-6217
▁send	-6218
econom	-6219
umping	-6220
▁crash	-6221
▁insol	-6222
▁lacks	-6223
▁Malays	-6224
▁stocks	-6225
adjusted	-6226
▁discoura	-6227
▁reliance	-6228
▁Christian	-6229
▁happening	-6230
▁surpluses	-6231
▁discussions	-6232
▁engineering	-6233
▁recognizing	-6234
▁urbanization	-6235
▁multinational	-6236
eda	-6237
sey	-6238
urt	-6239
▁$7	-6240
▁IP	-6241
usal	-6242
▁Bas	-6243
▁Cyp	-6244
▁Xia	-6245
claim	-6246
▁Char	-6247
▁Hist	-6248
▁epis	-6249
▁hurt	-6250
▁unex	-6251
▁Among	-6252
▁aside	-6253
▁entit	-6254
▁image	-6255
▁match	-6256
▁write	-6257
▁divide	-6258
▁remote	-6259
▁English	-6260
▁forcing	-6261
▁refused	-6262
▁Africans	-6263
▁Assembly	-6264
▁extended	-6265
▁focusing	-6266
▁prosecut	-6267
▁reaction	-6268
▁reconcil	-6269
▁slightly	-6270
▁catastrop	-6271
▁dominance	-6272
▁exporters	-6273
▁projected	-6274
▁realistic	-6275
▁assumption	-6276
▁foreigners	-6277
▁identified	-6278
▁subsequent	-6279
▁demonstrate	-6280
▁inefficient	-6281
eal	-6282
ein	-6283
ria	-6284
ande	-6285
hand	-6286
otic	-6287
▁205	-6288
▁Dut	-6289
▁cop	-6290
▁gun	-6291
▁lab	-6292
onial	-6293
▁Hill	-6294
holder	-6295
▁Frank	-6296
▁anger	-6297
▁deleg	-6298
▁oppose	-6299
▁scheme	-6300
▁foresee	-6301
▁fulfill	-6302
▁jeopard	-6303
▁justify	-6304
▁methods	-6305
▁traject	-6306
▁accurate	-6307
▁civilian	-6308
▁imposing	-6309
▁lowering	-6310
▁sacrific	-6311
▁underest	-6312
▁favorable	-6313
▁materials	-6314
▁prevented	-6315
▁threatens	-6316
▁facilities	-6317
▁anniversary	-6318
▁partnerships	-6319
▁collaboration	-6320
...	-6321
olf	-6322
▁4.	-6323
orld	-6324
phic	-6325
ruit	-6326
▁Som	-6327
aceut	-6328
▁1930	-6329
▁City	-6330
▁eval	-6331
▁pick	-6332
▁rank	-6333
▁teac	-6334
▁2007,	-6335
▁repay	-6336
▁voice	-6337
▁watch	-6338
illance	-6339
▁Norway	-6340
▁Unless	-6341
▁backed	-6342
▁brutal	-6343
▁Mediter	-6344
▁capture	-6345
▁dangers	-6346
▁dropped	-6347
▁removed	-6348
aceutical	-6349
▁Bernanke	-6350
▁adopting	-6351
▁imperial	-6352
▁mitigate	-6353
▁occasion	-6354
▁separate	-6355
▁ultimate	-6356
▁Agreement	-6357
▁component	-6358
▁regarding	-6359
▁artificial	-6360
▁liabilities	-6361
▁Mediterranean	-6362
▁internationally	-6363
▁representatives	-6364
EA	-6365
ley	-6366
tax	-6367
vis	-6368
▁1,	-6369
aeda	-6370
beit	-6371
born	-6372
onds	-6373
stan	-6374
▁BEI	-6375
asive	-6376
enced	-6377
urers	-6378
▁enth	-6379
▁2008.	-6380
▁Front	-6381
▁PARIS	-6382
▁novel	-6383
▁seeks	-6384
▁driver	-6385
▁inside	-6386
▁mother	-6387
▁openly	-6388
▁passed	-6389
▁slowed	-6390
▁Capital	-6391
▁accused	-6392
▁alleged	-6393
▁consult	-6394
▁gaining	-6395
▁greatly	-6396
▁planned	-6397
▁undersc	-6398
▁appeared	-6399
▁backlash	-6400
▁champion	-6401
▁confident	-6402
▁statements	-6403
▁undermined	-6404
3.	-6405
CT	-6406
oto	-6407
▁Cz	-6408
agan	-6409
arce	-6410
imal	-6411
rine	-6412
supp	-6413
▁fra	-6414
dered	-6415
utral	-6416
▁barg	-6417
establ	-6418
iously	-6419
racted	-6420
▁Alger	-6421
▁arise	-6422
▁badly	-6423
▁crypt	-6424
▁fresh	-6425
▁pragm	-6426
theless	-6427
▁Berlin	-6428
▁adding	-6429
▁dilemm	-6430
▁eradic	-6431
▁famili	-6432
▁signal	-6433
▁steady	-6434
▁Already	-6435
▁debates	-6436
▁decreas	-6437
▁spectac	-6438
▁analysts	-6439
▁dynamics	-6440
▁preserve	-6441
▁remember	-6442
▁upcoming	-6443
▁abandoned	-6444
▁stabilize	-6445
▁automation	-6446
▁background	-6447
▁colleagues	-6448
▁comparable	-6449
▁overwhelming	-6450
▁vulnerability	-6451
▁understandable	-6452
SEL	-6453
adv	-6454
fol	-6455
ked	-6456
rank	-6457
▁Mao	-6458
▁Nic	-6459
▁Pet	-6460
▁Coop	-6461
▁Deng	-6462
▁hero	-6463
▁turb	-6464
▁wild	-6465
▁Sunni	-6466
▁aspir	-6467
▁fails	-6468
▁postp	-6469
▁attend	-6470
▁couple	-6471
▁flight	-6472
▁island	-6473
▁regist	-6474
ominated	-6475
▁Denmark	-6476
▁Tunisia	-6477
▁courage	-6478
▁substit	-6479
▁machines	-6480
▁mobilize	-6481
▁purchase	-6482
▁activists	-6483
▁wellbeing	-6484
▁beneficial	-6485
▁negotiated	-6486
▁applications	-6487
▁surveillance	-6488
▁modernization	-6489
▁pharmaceutical	-6490
▁unconventional	-6491
CP	-6492
DI	-6493
amb	-6494
▁Hu	-6495
JING	-6496
▁Far	-6497
▁avo	-6498
oples	-6499
osure	-6500
▁SDGs	-6501
▁brid	-6502
▁dele	-6503
▁gaps	-6504
▁knew	-6505
▁outl	-6506
▁plun	-6507
▁roll	-6508
▁stre	-6509
▁unit	-6510
▁arbit	-6511
▁forth	-6512
▁virus	-6513
▁propag	-6514
▁sexual	-6515
▁unrest	-6516
chnology	-6517
▁avoided	-6518
▁doctors	-6519
▁exchang	-6520
▁feature	-6521
▁lenders	-6522
▁machine	-6523
▁Business	-6524
▁approved	-6525
▁persuade	-6526
▁replaced	-6527
▁underway	-6528
▁accounted	-6529
▁targeting	-6530
▁revolutionary	-6531
▁discrimination	-6532
BI	-6533
NA	-6534
bur	-6535
tic	-6536
aunt	-6537
iest	-6538
uate	-6539
▁500	-6540
▁Sal	-6541
apers	-6542
hered	-6543
reens	-6544
▁Free	-6545
▁ally	-6546
▁forg	-6547
▁pose	-6548
▁wise	-6549
iaries	-6550
invest	-6551
tering	-6552
▁1970’	-6553
▁drawn	-6554
▁sites	-6555
▁turns	-6556
▁Center	-6557
▁Should	-6558
▁basket	-6559
▁hunger	-6560
▁notion	-6561
▁retain	-6562
utrition	-6563
▁BEIJING	-6564
▁cheaper	-6565
▁entered	-6566
▁missile	-6567
▁streets	-6568
▁written	-6569
▁estimate	-6570
▁finances	-6571
▁mistakes	-6572
▁original	-6573
▁treaties	-6574
▁Education	-6575
▁construct	-6576
▁obstacles	-6577
▁prolonged	-6578
▁Convention	-6579
▁perception	-6580
▁Brotherhood	-6581
▁bureaucracy	-6582
▁dictatorship	-6583
▁surprisingly	-6584
NP	-6585
lu	-6586
zb	-6587
osn	-6588
▁24	-6589
dict	-6590
etty	-6591
ilib	-6592
mony	-6593
odox	-6594
omed	-6595
such	-6596
uris	-6597
▁Hit	-6598
democ	-6599
▁Each	-6600
▁didn	-6601
▁ease	-6602
▁judg	-6603
▁Earth	-6604
▁Power	-6605
▁seats	-6606
▁toxic	-6607
essions	-6608
zbollah	-6609
▁enthus	-6610
▁marked	-6611
▁chances	-6612
▁convers	-6613
▁skilled	-6614
▁medicine	-6615
▁mounting	-6616
▁openness	-6617
▁attitudes	-6618
▁intention	-6619
▁obviously	-6620
▁presented	-6621
▁sensitive	-6622
▁foundation	-6623
▁convergence	-6624
▁protectionism	-6625
6,	-6626
yan	-6627
▁21	-6628
▁eg	-6629
SELS	-6630
ihad	-6631
lder	-6632
outs	-6633
▁Aff	-6634
▁meg	-6635
▁slo	-6636
isher	-6637
unity	-6638
▁Balk	-6639
▁Camb	-6640
▁Jews	-6641
▁cate	-6642
USSELS	-6643
ighter	-6644
minded	-6645
▁2005,	-6646
▁Gates	-6647
▁Somal	-6648
▁falls	-6649
▁famous	-6650
▁traged	-6651
▁uphold	-6652
▁enacted	-6653
▁enlarge	-6654
▁joining	-6655
▁liberty	-6656
▁missing	-6657
▁portfol	-6658
▁winning	-6659
▁conclude	-6660
▁ideology	-6661
▁mortality	-6662
▁redistrib	-6663
▁Industrial	-6664
▁compelling	-6665
▁trajectory	-6666
▁considering	-6667
▁neighboring	-6668
▁neighborhood	-6669
▁considerations	-6670
DB	-6671
SA	-6672
bed	-6673
iev	-6674
lex	-6675
rav	-6676
win	-6677
abwe	-6678
alls	-6679
pper	-6680
tech	-6681
▁Her	-6682
▁Jun	-6683
▁Mos	-6684
▁Wen	-6685
▁dys	-6686
▁hed	-6687
ophob	-6688
sheet	-6689
water	-6690
▁Zimb	-6691
▁hear	-6692
▁onto	-6693
▁pict	-6694
accept	-6695
energy	-6696
inated	-6697
▁align	-6698
▁check	-6699
▁gross	-6700
▁manif	-6701
▁storm	-6702
▁Church	-6703
▁fields	-6704
▁foster	-6705
▁judges	-6706
▁binding	-6707
▁fashion	-6708
▁patient	-6709
▁pricing	-6710
▁restric	-6711
▁testing	-6712
▁BRUSSELS	-6713
▁Zimbabwe	-6714
▁autonomy	-6715
▁findings	-6716
▁reversed	-6717
▁surround	-6718
▁alongside	-6719
▁disasters	-6720
▁existence	-6721
▁involving	-6722
▁resilient	-6723
▁shortages	-6724
▁complement	-6725
▁procedures	-6726
▁reinforced	-6727
def	-6728
▁27	-6729
▁Ha	-6730
▁Rw	-6731
▁sy	-6732
ivot	-6733
ruck	-6734
▁Out	-6735
▁hyp	-6736
icism	-6737
itime	-6738
▁2004	-6739
▁Back	-6740
▁Rich	-6741
▁Scot	-6742
▁fine	-6743
▁vice	-6744
▁word	-6745
icated	-6746
▁2013.	-6747
▁Dutch	-6748
▁books	-6749
▁juris	-6750
▁plaus	-6751
▁print	-6752
▁Jewish	-6753
▁bodies	-6754
▁degrad	-6755
▁dispos	-6756
▁explos	-6757
▁namely	-6758
▁scarce	-6759
▁unfair	-6760
building	-6761
▁Nuclear	-6762
▁landing	-6763
▁outlook	-6764
▁prepare	-6765
▁Malaysia	-6766
▁adoption	-6767
▁disinteg	-6768
▁enhanced	-6769
▁epidemic	-6770
▁numerous	-6771
▁overseas	-6772
▁Hezbollah	-6773
▁desperate	-6774
▁succeeded	-6775
▁Economists	-6776
▁accountable	-6777
▁adjustments	-6778
▁catastrophe	-6779
▁temperature	-6780
▁transformed	-6781
▁concentrated	-6782
CH	-6783
roc	-6784
coni	-6785
fire	-6786
icon	-6787
inst	-6788
oned	-6789
orsi	-6790
size	-6791
▁neo	-6792
▁spl	-6793
▁tri	-6794
▁une	-6795
rates	-6796
riend	-6797
▁Bash	-6798
▁desp	-6799
▁dign	-6800
▁indu	-6801
▁symp	-6802
▁toll	-6803
▁2006,	-6804
▁Czech	-6805
▁Three	-6806
▁adult	-6807
▁grave	-6808
▁harsh	-6809
respons	-6810
▁Berlus	-6811
▁Hitler	-6812
▁incumb	-6813
▁lowest	-6814
▁pessim	-6815
▁unions	-6816
▁Against	-6817
▁Germans	-6818
▁Program	-6819
▁careful	-6820
▁dioxide	-6821
▁granted	-6822
▁lasting	-6823
▁pursuit	-6824
astrophic	-6825
▁Hollande	-6826
▁Scotland	-6827
▁accident	-6828
▁anywhere	-6829
▁indicate	-6830
▁inherent	-6831
▁invasion	-6832
▁recorded	-6833
▁integrity	-6834
▁interpret	-6835
▁motivated	-6836
▁depression	-6837
▁disruption	-6838
▁interested	-6839
▁dysfunction	-6840
▁influential	-6841
▁Nevertheless	-6842
▁difficulties	-6843
imm	-6844
ums	-6845
▁Gh	-6846
band	-6847
fund	-6848
irty	-6849
ooth	-6850
rick	-6851
rors	-6852
▁You	-6853
▁cab	-6854
▁eye	-6855
▁sem	-6856
▁tum	-6857
ailed	-6858
child	-6859
inger	-6860
▁AIIB	-6861
▁cope	-6862
▁jump	-6863
alling	-6864
irable	-6865
▁2010.	-6866
▁Morsi	-6867
▁tasks	-6868
largest	-6869
▁dispar	-6870
▁exists	-6871
ependent	-6872
▁Austria	-6873
▁anxiety	-6874
▁arguing	-6875
▁feeling	-6876
▁genetic	-6877
▁torture	-6878
efficient	-6879
▁approval	-6880
▁believes	-6881
▁overlook	-6882
government	-6883
▁Keynesian	-6884
▁deepening	-6885
▁divisions	-6886
▁explained	-6887
▁protected	-6888
▁residents	-6889
▁Berlusconi	-6890
▁Conference	-6891
▁emphasized	-6892
▁responding	-6893
▁supposedly	-6894
▁unilateral	-6895
▁announcement	-6896
▁inflationary	-6897
DA	-6898
aks	-6899
new	-6900
uls	-6901
▁4%	-6902
berg	-6903
emen	-6904
izon	-6905
rect	-6906
▁Adm	-6907
▁Mad	-6908
▁Moh	-6909
▁hes	-6910
eting	-6911
grade	-6912
olars	-6913
oping	-6914
▁Food	-6915
▁Jean	-6916
▁Supp	-6917
▁lawy	-6918
▁pull	-6919
▁sets	-6920
▁star	-6921
ipping	-6922
▁2017,	-6923
▁Inter	-6924
▁cease	-6925
▁hydro	-6926
▁School	-6927
▁resent	-6928
▁richer	-6929
cription	-6930
▁backing	-6931
▁disturb	-6932
▁grounds	-6933
▁nowhere	-6934
▁shifted	-6935
▁Alliance	-6936
▁Whatever	-6937
▁complain	-6938
▁constant	-6939
▁explains	-6940
▁familiar	-6941
▁generous	-6942
▁mutually	-6943
▁resolved	-6944
▁worrying	-6945
▁introduce	-6946
▁contradict	-6947
▁persistent	-6948
▁retirement	-6949
▁legislative	-6950
6.	-6951
ply	-6952
▁23	-6953
▁Mu	-6954
iful	-6955
rase	-6956
rium	-6957
▁Env	-6958
▁Rel	-6959
▁SDR	-6960
▁bip	-6961
▁dub	-6962
▁mag	-6963
orrow	-6964
ourse	-6965
vency	-6966
▁acts	-6967
▁doct	-6968
▁ends	-6969
▁halt	-6970
▁heat	-6971
chmark	-6972
ervice	-6973
iances	-6974
icians	-6975
stable	-6976
▁Medic	-6977
▁abund	-6978
▁crops	-6979
▁donor	-6980
▁elder	-6981
▁enfor	-6982
▁finds	-6983
▁skill	-6984
lihoods	-6985
▁albeit	-6986
▁headed	-6987
▁privat	-6988
▁select	-6989
▁spring	-6990
▁struck	-6991
▁upward	-6992
▁volume	-6993
rational	-6994
▁closing	-6995
▁paralle	-6996
▁ratings	-6997
▁rightly	-6998
roportion	-6999
▁Strategy	-7000
▁distinct	-7001
▁proclaim	-7002
▁civilians	-7003
▁inability	-7004
▁operation	-7005
▁prominent	-7006
▁altogether	-7007
▁criticized	-7008
▁extremists	-7009
▁prevailing	-7010
▁Cooperation	-7011
▁competitors	-7012
▁declaration	-7013
▁eliminating	-7014
▁importantly	-7015
▁involvement	-7016
▁sufficiently	-7017
ef	-7018
spe	-7019
▁7%	-7020
▁Ug	-7021
anes	-7022
ests	-7023
ille	-7024
indu	-7025
▁Inf	-7026
▁Let	-7027
▁fun	-7028
▁seg	-7029
▁cart	-7030
▁date	-7031
▁tons	-7032
advant	-7033
necess	-7034
orship	-7035
ployed	-7036
rained	-7037
▁Crime	-7038
▁Initi	-7039
▁brain	-7040
▁laure	-7041
▁plays	-7042
▁saved	-7043
forward	-7044
▁abuses	-7045
▁chosen	-7046
▁funded	-7047
▁poorly	-7048
▁prompt	-7049
▁ratios	-7050
▁stream	-7051
▁weapon	-7052
emporary	-7053
▁ancient	-7054
▁exploit	-7055
▁fastest	-7056
▁forests	-7057
▁picture	-7058
▁tactics	-7059
▁talking	-7060
▁younger	-7061
▁balances	-7062
▁channels	-7063
▁convince	-7064
▁earnings	-7065
▁exposure	-7066
▁famously	-7067
▁implicit	-7068
▁software	-7069
▁taxation	-7070
▁unaccept	-7071
▁collapsed	-7072
▁forecasts	-7073
▁reinforce	-7074
iodiversity	-7075
▁recognizes	-7076
▁confronting	-7077
▁constrained	-7078
▁contraction	-7079
▁enlargement	-7080
▁catastrophic	-7081
▁controversial	-7082
▁administrative	-7083
);	-7084
90	-7085
ER	-7086
EU	-7087
LA	-7088
no	-7089
tr	-7090
afi	-7091
cow	-7092
dig	-7093
▁6.	-7094
▁MI	-7095
ding	-7096
real	-7097
soft	-7098
▁Dra	-7099
▁Few	-7100
▁Imp	-7101
▁Net	-7102
▁bid	-7103
▁ble	-7104
▁web	-7105
night	-7106
▁2001	-7107
▁2005	-7108
▁burd	-7109
▁deny	-7110
▁male	-7111
▁outf	-7112
▁vary	-7113
aution	-7114
gorith	-7115
ounced	-7116
▁2014.	-7117
▁2030.	-7118
▁Irish	-7119
▁Somet	-7120
▁conce	-7121
▁happy	-7122
▁pound	-7123
▁roads	-7124
▁seize	-7125
sharing	-7126
▁Before	-7127
▁Reform	-7128
▁advent	-7129
▁agency	-7130
▁asking	-7131
▁belong	-7132
▁Hillary	-7133
▁Juncker	-7134
▁Pacific	-7135
▁enemies	-7136
▁illness	-7137
▁peoples	-7138
▁relying	-7139
ideration	-7140
▁dominate	-7141
▁features	-7142
▁superior	-7143
▁competing	-7144
▁cooperate	-7145
▁disadvant	-7146
▁fertility	-7147
▁premature	-7148
▁reporting	-7149
▁allocation	-7150
▁expression	-7151
▁guaranteed	-7152
▁treatments	-7153
▁Conservative	-7154
▁disproportion	-7155
MR	-7156
athy	-7157
itch	-7158
▁300	-7159
▁Lis	-7160
▁McK	-7161
▁ang	-7162
▁gar	-7163
atism	-7164
chain	-7165
ifies	-7166
itzer	-7167
▁Silk	-7168
▁meat	-7169
▁pipe	-7170
▁rain	-7171
▁reap	-7172
▁rock	-7173
▁spot	-7174
▁subm	-7175
▁unle	-7176
active	-7177
▁chaos	-7178
▁input	-7179
▁jihad	-7180
▁Moscow	-7181
▁Reagan	-7182
▁Rwanda	-7183
▁Summit	-7184
▁career	-7185
▁inject	-7186
▁invent	-7187
▁marria	-7188
▁refuse	-7189
▁remove	-7190
▁rooted	-7191
▁settle	-7192
▁sooner	-7193
▁Islands	-7194
▁Special	-7195
▁ceiling	-7196
▁citizen	-7197
▁distant	-7198
▁intense	-7199
▁regular	-7200
▁surpass	-7201
▁delivery	-7202
▁disagree	-7203
▁employed	-7204
▁investor	-7205
▁missiles	-7206
▁sensible	-7207
▁Consensus	-7208
▁Recession	-7209
▁benchmark	-7210
▁communist	-7211
▁integrate	-7212
▁intervene	-7213
▁principal	-7214
▁resolving	-7215
▁secondary	-7216
▁livelihoods	-7217
▁congressional	-7218
WI	-7219
hi	-7220
cel	-7221
ghi	-7222
▁TV	-7223
aval	-7224
educ	-7225
ione	-7226
olly	-7227
owed	-7228
spec	-7229
▁Ang	-7230
▁Lar	-7231
▁Mah	-7232
▁Ult	-7233
▁nom	-7234
▁pul	-7235
erman	-7236
ollar	-7237
polit	-7238
▁coun	-7239
▁laid	-7240
▁note	-7241
▁tech	-7242
Brexit	-7243
ispens	-7244
owners	-7245
▁McKin	-7246
▁Women	-7247
▁ample	-7248
▁giant	-7249
▁innoc	-7250
▁navig	-7251
▁plumm	-7252
▁route	-7253
▁stark	-7254
▁stood	-7255
▁Corpor	-7256
▁disarm	-7257
▁exclus	-7258
▁fairly	-7259
▁rescue	-7260
▁triump	-7261
▁Environ	-7262
▁Georgia	-7263
▁closest	-7264
▁drivers	-7265
▁elector	-7266
▁element	-7267
▁erupted	-7268
▁immense	-7269
▁possess	-7270
▁tragedy	-7271
▁Russians	-7272
▁constitu	-7273
▁holdings	-7274
▁meantime	-7275
▁monopoly	-7276
▁observed	-7277
▁purposes	-7278
▁realized	-7279
▁soldiers	-7280
▁striking	-7281
▁volatile	-7282
▁attempted	-7283
▁computers	-7284
▁discussed	-7285
▁safeguard	-7286
▁successor	-7287
▁Initiative	-7288
▁optimistic	-7289
▁weaknesses	-7290
▁commodities	-7291
▁revolutions	-7292
▁deflationary	-7293
▁respectively	-7294
▁communications	-7295
HO	-7296
▁[	-7297
akh	-7298
ett	-7299
▁ES	-7300
agon	-7301
atar	-7302
coin	-7303
eted	-7304
gers	-7305
roll	-7306
uity	-7307
▁191	-7308
▁Cor	-7309
▁San	-7310
▁fit	-7311
▁glo	-7312
▁hub	-7313
▁sun	-7314
prime	-7315
tical	-7316
▁Sand	-7317
▁abol	-7318
▁code	-7319
▁grav	-7320
▁quot	-7321
rators	-7322
redict	-7323
▁Davos	-7324
▁Times	-7325
▁facto	-7326
▁fluct	-7327
▁guard	-7328
▁train	-7329
▁zones	-7330
alities	-7331
▁Draghi	-7332
▁Within	-7333
▁blamed	-7334
▁doubts	-7335
▁flawed	-7336
▁parity	-7337
▁declare	-7338
▁paradox	-7339
▁pledged	-7340
▁scandal	-7341
ronically	-7342
▁Chairman	-7343
▁avoiding	-7344
▁declines	-7345
▁foremost	-7346
▁steadily	-7347
▁troubled	-7348
▁Brazilian	-7349
▁affecting	-7350
▁initiated	-7351
▁discovered	-7352
▁enterprise	-7353
▁infectious	-7354
▁assumptions	-7355
▁nonetheless	-7356
▁predictable	-7357
▁accelerating	-7358
▁proliferation	-7359
80	-7360
OS	-7361
ny	-7362
arr	-7363
irm	-7364
▁5.	-7365
▁Lo	-7366
fold	-7367
lets	-7368
lymp	-7369
made	-7370
wind	-7371
▁$10	-7372
▁Ann	-7373
▁cas	-7374
▁hom	-7375
edded	-7376
▁Pact	-7377
▁Peru	-7378
▁flee	-7379
▁mism	-7380
▁myth	-7381
▁scre	-7382
▁ster	-7383
▁suic	-7384
▁uphe	-7385
▁entry	-7386
▁lived	-7387
▁overt	-7388
▁remed	-7389
▁sympt	-7390
erately	-7391
iration	-7392
▁Cyprus	-7393
▁Lisbon	-7394
▁Others	-7395
▁cycles	-7396
▁endors	-7397
▁exempl	-7398
▁resign	-7399
▁solely	-7400
▁trials	-7401
quarters	-7402
▁Finance	-7403
▁Switzer	-7404
▁aspects	-7405
▁classes	-7406
▁customs	-7407
▁harmful	-7408
▁reduces	-7409
struction	-7410
▁McKinsey	-7411
▁claiming	-7412
▁division	-7413
▁founding	-7414
▁geograph	-7415
▁incorpor	-7416
▁accepting	-7417
▁advocates	-7418
▁plausible	-7419
▁Ultimately	-7420
▁collateral	-7421
▁explicitly	-7422
▁likelihood	-7423
▁Switzerland	-7424
▁desperately	-7425
▁represented	-7426
▁supervision	-7427
▁underpinned	-7428
▁acknowledged	-7429
▁constructive	-7430
▁consideration	-7431
▁straightforward	-7432
OM	-7433
cu	-7434
ón	-7435
Ass	-7436
cer	-7437
ham	-7438
igm	-7439
len	-7440
ses	-7441
sun	-7442
▁(1	-7443
AIDS	-7444
igen	-7445
mmet	-7446
olas	-7447
ught	-7448
▁Che	-7449
▁Dis	-7450
▁gam	-7451
▁mun	-7452
▁tom	-7453
erted	-7454
itate	-7455
▁2003	-7456
▁Chen	-7457
▁Marx	-7458
▁Sino	-7459
▁cens	-7460
▁fill	-7461
▁pays	-7462
▁tail	-7463
imated	-7464
▁2012.	-7465
▁Catal	-7466
▁Olymp	-7467
▁blind	-7468
▁ranks	-7469
▁sheet	-7470
▁unequ	-7471
astrous	-7472
▁Author	-7473
▁Greens	-7474
▁Uganda	-7475
▁begins	-7476
▁interd	-7477
▁upgrad	-7478
ilibrium	-7479
▁Algeria	-7480
▁Somalia	-7481
▁cabinet	-7482
▁coastal	-7483
▁deserve	-7484
▁fishing	-7485
▁focuses	-7486
▁schemes	-7487
▁somehow	-7488
▁actively	-7489
▁criteria	-7490
▁embraced	-7491
▁fraction	-7492
▁maritime	-7493
▁produces	-7494
▁teachers	-7495
▁unnecess	-7496
▁destroyed	-7497
▁imbalance	-7498
▁naturally	-7499
▁restoring	-7500
▁comparison	-7501
▁insecurity	-7502
▁achievement	-7503
▁experiences	-7504
▁professionals	-7505
oo	-7506
asp	-7507
bas	-7508
mal	-7509
sen	-7510
▁Qu	-7511
bted	-7512
cell	-7513
▁Abd	-7514
▁Had	-7515
▁dur	-7516
▁los	-7517
elect	-7518
icing	-7519
itely	-7520
redit	-7521
scape	-7522
▁Deal	-7523
▁Emer	-7524
▁Shia	-7525
▁Shin	-7526
▁brib	-7527
▁fasc	-7528
▁feas	-7529
▁lift	-7530
▁love	-7531
▁melt	-7532
▁mood	-7533
apping	-7534
iating	-7535
iciary	-7536
lights	-7537
reform	-7538
▁Popul	-7539
▁honor	-7540
▁loyal	-7541
▁contag	-7542
▁empire	-7543
▁looked	-7544
▁memory	-7545
▁missed	-7546
▁relies	-7547
▁smooth	-7548
▁stated	-7549
ollowing	-7550
▁details	-7551
▁dilemma	-7552
▁earthqu	-7553
▁spurred	-7554
▁technoc	-7555
▁attitude	-7556
▁cultures	-7557
▁cyclical	-7558
▁indebted	-7559
▁involves	-7560
▁reminder	-7561
▁alliances	-7562
▁confirmed	-7563
▁definition	-7564
▁diminished	-7565
▁disastrous	-7566
▁propaganda	-7567
▁suggesting	-7568
▁distributed	-7569
▁achievements	-7570
▁biodiversity	-7571
▁bureaucratic	-7572
▁stakeholders	-7573
▁concentration	-7574
It	-7575
oe	-7576
anz	-7577
lor	-7578
sur	-7579
aker	-7580
iced	-7581
oler	-7582
rill	-7583
▁bab	-7584
▁dog	-7585
▁ran	-7586
▁son	-7587
Assad	-7588
haust	-7589
ivals	-7590
think	-7591
▁Roma	-7592
▁bust	-7593
▁sequ	-7594
▁suit	-7595
▁trem	-7596
▁tsun	-7597
incing	-7598
▁Kyoto	-7599
▁Ocean	-7600
▁gases	-7601
▁haven	-7602
▁inequ	-7603
▁pione	-7604
ounding	-7605
▁Cambod	-7606
▁Having	-7607
▁Simply	-7608
▁agents	-7609
▁fellow	-7610
▁occurs	-7611
▁turbul	-7612
▁voices	-7613
ceptions	-7614
ologists	-7615
▁Twitter	-7616
▁aggress	-7617
▁applies	-7618
▁bolster	-7619
▁college	-7620
▁elderly	-7621
▁follows	-7622
▁legally	-7623
▁municip	-7624
▁periods	-7625
▁telling	-7626
▁waiting	-7627
▁algorith	-7628
▁clearing	-7629
▁doctrine	-7630
▁entering	-7631
▁indirect	-7632
▁overhaul	-7633
industrial	-7634
▁Economics	-7635
▁exchanges	-7636
▁receiving	-7637
▁acceptable	-7638
▁delivering	-7639
▁frameworks	-7640
▁arrangement	-7641
▁existential	-7642
▁destabilizing	-7643
me	-7644
RID	-7645
Sem	-7646
col	-7647
jud	-7648
▁70	-7649
▁Op	-7650
cher	-7651
cure	-7652
iary	-7653
ocal	-7654
velt	-7655
▁NGO	-7656
▁isn	-7657
ADRID	-7658
erson	-7659
exist	-7660
ishes	-7661
under	-7662
▁Modi	-7663
▁Nazi	-7664
▁bias	-7665
▁card	-7666
▁erod	-7667
▁inex	-7668
▁prox	-7669
▁terr	-7670
irical	-7671
othing	-7672
▁James	-7673
▁bills	-7674
▁burst	-7675
▁coinc	-7676
▁deriv	-7677
▁inher	-7678
▁lands	-7679
▁merit	-7680
▁notes	-7681
▁rigid	-7682
▁sight	-7683
▁valid	-7684
capital	-7685
osevelt	-7686
society	-7687
ultural	-7688
▁Crisis	-7689
▁Review	-7690
▁forget	-7691
▁formed	-7692
▁harmon	-7693
▁method	-7694
▁paraly	-7695
▁tempor	-7696
▁cryptoc	-7697
▁doubled	-7698
▁looming	-7699
▁prefere	-7700
▁release	-7701
▁visible	-7702
▁warfare	-7703
▁advocate	-7704
▁ambition	-7705
▁coherent	-7706
▁demanded	-7707
▁laureate	-7708
▁minimize	-7709
▁scholars	-7710
▁widening	-7711
controlled	-7712
ispensable	-7713
▁employers	-7714
▁extensive	-7715
▁overwhelm	-7716
▁preferred	-7717
▁realities	-7718
▁complexity	-7719
▁politician	-7720
▁popularity	-7721
▁prevention	-7722
▁violations	-7723
▁exacerbated	-7724
▁functioning	-7725
▁contemporary	-7726
▁deleveraging	-7727
▁expansionary	-7728
▁confrontation	-7729
70	-7730
cul	-7731
tar	-7732
▁8%	-7733
▁CD	-7734
▁CN	-7735
ELHI	-7736
aces	-7737
ache	-7738
atri	-7739
laud	-7740
rand	-7741
well	-7742
▁WTO	-7743
▁raw	-7744
▁wal	-7745
▁yen	-7746
Semit	-7747
arked	-7748
craft	-7749
inter	-7750
▁Wolf	-7751
▁deem	-7752
▁depr	-7753
▁duty	-7754
▁flag	-7755
ailing	-7756
▁2004,	-7757
▁Assoc	-7758
▁DELHI	-7759
▁dying	-7760
▁split	-7761
▁tends	-7762
iations	-7763
oration	-7764
▁Report	-7765
▁honest	-7766
▁precip	-7767
▁restra	-7768
▁robots	-7769
▁Francis	-7770
▁dignity	-7771
▁richest	-7772
▁tension	-7773
▁venture	-7774
illennium	-7775
▁admitted	-7776
▁arguably	-7777
▁carrying	-7778
▁colonial	-7779
▁deployed	-7780
▁engaging	-7781
▁informed	-7782
▁manifest	-7783
▁outflows	-7784
▁quarters	-7785
▁theories	-7786
corruption	-7787
▁Greenspan	-7788
▁Roosevelt	-7789
▁attracted	-7790
▁committee	-7791
▁headlines	-7792
▁judiciary	-7793
▁returning	-7794
▁selection	-7795
▁confronted	-7796
▁ecosystems	-7797
▁monitoring	-7798
▁punishment	-7799
▁aspirations	-7800
▁comparative	-7801
▁dangerously	-7802
▁destructive	-7803
▁temporarily	-7804
▁architecture	-7805
▁protectionist	-7806
▁traditionally	-7807
▁transatlantic	-7808
▁interconnected	-7809
▁representative	-7810
."	-7811
EM	-7812
ky	-7813
yc	-7814
▁‘	-7815
ola	-7816
vey	-7817
▁28	-7818
▁7.	-7819
▁ST	-7820
ball	-7821
hani	-7822
left	-7823
▁AMR	-7824
▁Equ	-7825
▁Est	-7826
▁Exp	-7827
▁Inc	-7828
▁Rec	-7829
atter	-7830
inces	-7831
▁1997	-7832
▁Mich	-7833
▁Stud	-7834
▁caut	-7835
▁cold	-7836
▁pand	-7837
▁perv	-7838
▁rend	-7839
▁rent	-7840
▁seat	-7841
▁warm	-7842
arians	-7843
friend	-7844
licted	-7845
uction	-7846
▁2020.	-7847
▁Iraqi	-7848
▁Moroc	-7849
▁Where	-7850
▁Yemen	-7851
▁brand	-7852
▁categ	-7853
▁cohes	-7854
▁fault	-7855
▁grant	-7856
▁hyper	-7857
▁immun	-7858
▁owned	-7859
▁resur	-7860
leading	-7861
▁MADRID	-7862
▁System	-7863
▁denied	-7864
▁freely	-7865
▁revive	-7866
▁versus	-7867
▁vested	-7868
communic	-7869
▁Whereas	-7870
▁devices	-7871
▁devoted	-7872
▁drought	-7873
▁factory	-7874
▁farming	-7875
▁neutral	-7876
▁privacy	-7877
▁student	-7878
▁Xiaoping	-7879
▁borrowed	-7880
investment	-7881
▁Following	-7882
▁Otherwise	-7883
▁campaigns	-7884
▁landscape	-7885
▁philosoph	-7886
▁adaptation	-7887
▁challenged	-7888
▁components	-7889
▁guidelines	-7890
▁reflecting	-7891
▁unexpected	-7892
▁financially	-7893
▁operational	-7894
▁predictions	-7895
▁introduction	-7896
RC	-7897
ao	-7898
va	-7899
FOR	-7900
ael	-7901
hou	-7902
▁6%	-7903
aked	-7904
ixon	-7905
onym	-7906
unch	-7907
▁192	-7908
▁Mil	-7909
alley	-7910
egoti	-7911
iants	-7912
omics	-7913
vered	-7914
▁Good	-7915
▁Tony	-7916
▁Year	-7917
▁lobb	-7918
▁luck	-7919
▁wins	-7920
▁Fried	-7921
▁Macri	-7922
▁admit	-7923
▁draft	-7924
▁grows	-7925
▁hedge	-7926
▁piece	-7927
▁waves	-7928
aunting	-7929
▁Crimea	-7930
▁Fourth	-7931
▁detect	-7932
▁overth	-7933
▁pledge	-7934
▁Economy	-7935
▁Finland	-7936
▁acquire	-7937
▁enables	-7938
▁exhaust	-7939
▁lacking	-7940
▁placing	-7941
▁statist	-7942
▁triumph	-7943
▁2008-200	-7944
▁assuming	-7945
▁creditor	-7946
▁feasible	-7947
▁frequent	-7948
▁marriage	-7949
▁obstacle	-7950
▁optimism	-7951
▁province	-7952
▁tendency	-7953
▁tomorrow	-7954
▁Ukrainian	-7955
▁advancing	-7956
▁appealing	-7957
▁extremism	-7958
▁precedent	-7959
▁strongest	-7960
▁ecological	-7961
▁exacerbate	-7962
▁irrelevant	-7963
▁renewables	-7964
▁unemployed	-7965
▁differently	-7966
▁equilibrium	-7967
▁highlighted	-7968
▁speculative	-7969
▁transaction	-7970
▁Policymakers	-7971
▁reconciliation	-7972
UN	-7973
ils	-7974
ima	-7975
osm	-7976
zed	-7977
▁Gü	-7978
-199	-7979
AVEN	-7980
▁35%	-7981
▁Air	-7982
▁Cur	-7983
▁Del	-7984
▁Who	-7985
▁bed	-7986
▁map	-7987
▁scr	-7988
▁tap	-7989
dated	-7990
ouris	-7991
▁1960	-7992
▁Decl	-7993
▁Prem	-7994
▁amid	-7995
▁cure	-7996
▁mira	-7997
▁pact	-7998
▁toug	-7999
▁wall	-8000
istant	-8001
▁HAVEN	-8002
▁Nixon	-8003
▁dereg	-8004
▁drove	-8005
▁hoped	-8006
▁incre	-8007
▁roles	-8008
▁seeds	-8009
▁ultra	-8010
▁anemic	-8011
▁animal	-8012
▁bought	-8013
▁fisher	-8014
▁hurric	-8015
▁lately	-8016
▁reveal	-8017
▁serves	-8018
▁therap	-8019
capacity	-8020
▁Leaders	-8021
▁Morocco	-8022
▁animals	-8023
▁islands	-8024
▁lawyers	-8025
▁revival	-8026
▁scrutin	-8027
▁shaping	-8028
▁vicious	-8029
mentation	-8030
▁Governor	-8031
▁Israelis	-8032
▁Protocol	-8033
▁directed	-8034
▁implying	-8035
▁maximize	-8036
▁pensions	-8037
▁regulate	-8038
▁troubles	-8039
▁Community	-8040
▁Islamists	-8041
▁childhood	-8042
▁desirable	-8043
▁followers	-8044
▁hospitals	-8045
▁successes	-8046
▁undertake	-8047
▁Government	-8048
▁accomplish	-8049
▁highlights	-8050
▁intentions	-8051
▁occupation	-8052
▁centralized	-8053
▁foreseeable	-8054
▁availability	-8055
▁specifically	-8056
▁disintegration	-8057
▁x	-8058
ito	-8059
kin	-8060
high	-8061
lict	-8062
offs	-8063
trad	-8064
▁Kar	-8065
▁PRI	-8066
▁bio	-8067
▁cum	-8068
▁ham	-8069
addam	-8070
astic	-8071
iques	-8072
liers	-8073
shore	-8074
▁Real	-8075
▁Wood	-8076
▁calm	-8077
▁curt	-8078
▁subt	-8079
addafi	-8080
guided	-8081
liance	-8082
taking	-8083
thodox	-8084
uggish	-8085
▁1930’	-8086
▁2003,	-8087
▁Mario	-8088
▁Qatar	-8089
▁arsen	-8090
▁brink	-8091
▁depth	-8092
▁enemy	-8093
▁fraud	-8094
▁phone	-8095
▁vigor	-8096
▁Office	-8097
▁Saddam	-8098
▁Valley	-8099
▁detain	-8100
▁fortun	-8101
▁obtain	-8102
lessness	-8103
ortheast	-8104
▁Mexican	-8105
▁assault	-8106
▁carries	-8107
▁corresp	-8108
▁evolved	-8109
▁implied	-8110
▁indefin	-8111
▁monitor	-8112
▁retreat	-8113
▁stagger	-8114
▁typical	-8115
▁choosing	-8116
▁defaults	-8117
▁imported	-8118
▁ministry	-8119
performing	-8120
▁communism	-8121
▁contained	-8122
▁disappear	-8123
▁emphasize	-8124
▁justified	-8125
▁magnitude	-8126
▁recapital	-8127
▁adequately	-8128
▁capitalist	-8129
▁provisions	-8130
▁Association	-8131
▁degradation	-8132
▁distortions	-8133
▁exclusively	-8134
▁unification	-8135
25	-8136
BC	-8137
Wh	-8138
ek	-8139
”:	-8140
▁,	-8141
asy	-8142
kov	-8143
och	-8144
odd	-8145
ois	-8146
oul	-8147
▁fr	-8148
▁ox	-8149
▁sn	-8150
cend	-8151
cked	-8152
emer	-8153
izer	-8154
orse	-8155
▁11,	-8156
▁Pik	-8157
▁fan	-8158
▁ing	-8159
asant	-8160
ranch	-8161
skept	-8162
▁Cost	-8163
▁enjo	-8164
▁sees	-8165
▁site	-8166
▁tied	-8167
▁unus	-8168
backed	-8169
▁Ahmad	-8170
▁Apple	-8171
▁actor	-8172
▁consc	-8173
▁flaws	-8174
▁mixed	-8175
▁panic	-8176
▁rally	-8177
▁relax	-8178
▁revel	-8179
▁spill	-8180
▁stuck	-8181
content	-8182
enophob	-8183
station	-8184
▁Bashar	-8185
▁Making	-8186
▁behave	-8187
▁calcul	-8188
▁helium	-8189
▁interm	-8190
▁metric	-8191
▁permit	-8192
▁plural	-8193
▁purely	-8194
▁repair	-8195
▁shaped	-8196
▁spiral	-8197
▁suspic	-8198
cyclical	-8199
▁Piketty	-8200
▁Premier	-8201
▁Several	-8202
▁arrived	-8203
▁complac	-8204
▁contest	-8205
▁impover	-8206
▁notable	-8207
▁strikes	-8208
▁Agricult	-8209
▁Cambodia	-8210
▁amounted	-8211
▁audience	-8212
▁displace	-8213
▁enduring	-8214
▁equipped	-8215
▁generals	-8216
▁hegemony	-8217
▁producer	-8218
▁supervis	-8219
democratic	-8220
▁Sometimes	-8221
▁crackdown	-8222
▁criminals	-8223
▁equitable	-8224
▁factories	-8225
▁genuinely	-8226
▁preparing	-8227
▁providers	-8228
▁recovered	-8229
▁regularly	-8230
denominated	-8231
information	-8232
▁Developing	-8233
▁creativity	-8234
▁recessions	-8235
▁sanitation	-8236
▁accordingly	-8237
▁anticipated	-8238
▁requirement	-8239
▁accumulation	-8240
▁transmission	-8241
▁unacceptable	-8242
▁indispensable	-8243
▁Infrastructure	-8244
▁vulnerabilities	-8245
-3	-8246
EC	-8247
Th	-8248
tw	-8249
ARC	-8250
cho	-8251
iro	-8252
▁€1	-8253
hors	-8254
risk	-8255
▁1.5	-8256
▁Bol	-8257
▁Emp	-8258
▁Ren	-8259
▁Tax	-8260
▁arm	-8261
▁haz	-8262
▁inj	-8263
▁pet	-8264
▁twe	-8265
ceans	-8266
digit	-8267
icted	-8268
rones	-8269
▁Bosn	-8270
▁IPCC	-8271
▁Park	-8272
▁cogn	-8273
▁evil	-8274
▁tens	-8275
▁veto	-8276
▁Basel	-8277
▁Gülen	-8278
▁Qaeda	-8279
▁alien	-8280
▁brief	-8281
▁escap	-8282
▁proud	-8283
▁safer	-8284
comings	-8285
ilitary	-8286
inction	-8287
ulators	-8288
▁Asians	-8289
▁corner	-8290
▁letter	-8291
▁lifted	-8292
▁relied	-8293
▁seeing	-8294
▁stakes	-8295
▁Neither	-8296
▁Richard	-8297
▁combine	-8298
▁neglect	-8299
▁ranging	-8300
▁request	-8301
▁signals	-8302
▁smoking	-8303
▁suspect	-8304
▁worries	-8305
financial	-8306
▁acquired	-8307
▁adjusted	-8308
▁arrested	-8309
▁captured	-8310
▁diagnost	-8311
▁dynamism	-8312
▁innocent	-8313
▁insights	-8314
▁interact	-8315
▁isolated	-8316
▁meltdown	-8317
▁stemming	-8318
▁Authority	-8319
▁Churchill	-8320
▁accession	-8321
▁buildings	-8322
▁imperfect	-8323
▁incumbent	-8324
▁pragmatic	-8325
▁rejection	-8326
▁shrinking	-8327
responsible	-8328
▁constitute	-8329
▁deterrence	-8330
▁earthquake	-8331
▁electorate	-8332
▁instrument	-8333
▁undermines	-8334
▁containment	-8335
▁frustration	-8336
▁reinforcing	-8337
▁polarization	-8338
▁representing	-8339
▁shortcomings	-8340
▁dysfunctional	-8341
ps	-8342
LIN	-8343
ago	-8344
nel	-8345
tor	-8346
ulg	-8347
ups	-8348
▁$8	-8349
▁Ed	-8350
anth	-8351
comp	-8352
sing	-8353
▁$50	-8354
▁Cup	-8355
▁End	-8356
▁Fut	-8357
▁Jer	-8358
▁Kaz	-8359
▁Tob	-8360
▁bon	-8361
▁kil	-8362
▁liv	-8363
▁ost	-8364
▁pal	-8365
▁rac	-8366
aning	-8367
backs	-8368
comed	-8369
hetic	-8370
olved	-8371
▁HONG	-8372
▁KONG	-8373
▁MDGs	-8374
▁Vice	-8375
▁diet	-8376
▁kick	-8377
▁rand	-8378
▁sake	-8379
▁stal	-8380
▁stif	-8381
▁Green	-8382
▁Worse	-8383
▁cards	-8384
▁ignor	-8385
▁incon	-8386
▁incur	-8387
▁ocean	-8388
▁topic	-8389
General	-8390
▁Better	-8391
▁adults	-8392
▁approx	-8393
▁bright	-8394
▁circle	-8395
▁ethics	-8396
▁floods	-8397
▁lifest	-8398
▁theore	-8399
▁thrive	-8400
▁worker	-8401
election	-8402
▁100,000	-8403
▁Freedom	-8404
▁brother	-8405
▁drawing	-8406
▁exceeds	-8407
▁horizon	-8408
▁soaring	-8409
▁unified	-8410
▁unknown	-8411
▁daunting	-8412
▁embedded	-8413
▁judgment	-8414
▁judicial	-8415
▁securing	-8416
▁socially	-8417
▁diagnosis	-8418
▁discovery	-8419
▁newspaper	-8420
▁spreading	-8421
▁appreciate	-8422
▁benefiting	-8423
▁compensate	-8424
▁expectancy	-8425
▁fragmented	-8426
▁impression	-8427
▁obligation	-8428
▁advertising	-8429
▁approaching	-8430
▁disruptions	-8431
▁predecessor	-8432
▁territories	-8433
▁interference	-8434
▁transnational	-8435
▁Representatives	-8436
As	-8437
PA	-8438
bu	-8439
NCE	-8440
des	-8441
jad	-8442
uzz	-8443
▁BO	-8444
anim	-8445
brid	-8446
inal	-8447
▁aug	-8448
▁cyn	-8449
▁pra	-8450
▁yes	-8451
archy	-8452
ashes	-8453
ester	-8454
fifth	-8455
owing	-8456
ronts	-8457
▁2002	-8458
▁Coal	-8459
▁Prov	-8460
▁bulk	-8461
▁door	-8462
▁edge	-8463
▁fees	-8464
▁fool	-8465
▁tiny	-8466
NCETON	-8467
ilater	-8468
inejad	-8469
▁Ghana	-8470
▁camps	-8471
▁consp	-8472
▁midst	-8473
▁quiet	-8474
▁sheer	-8475
▁stret	-8476
viously	-8477
▁Common	-8478
▁Kazakh	-8479
▁fertil	-8480
▁mathem	-8481
▁mental	-8482
▁oceans	-8483
▁relent	-8484
▁taught	-8485
affected	-8486
▁classic	-8487
▁consume	-8488
▁dismant	-8489
▁display	-8490
▁enjoyed	-8491
▁issuing	-8492
▁migrant	-8493
▁mineral	-8494
▁sending	-8495
▁serving	-8496
▁surface	-8497
▁traders	-8498
▁trained	-8499
▁tremend	-8500
▁director	-8501
▁equities	-8502
▁governed	-8503
▁tradable	-8504
▁treating	-8505
▁watching	-8506
▁welcomed	-8507
▁PRINCETON	-8508
▁appointed	-8509
▁occurring	-8510
▁oversight	-8511
▁screening	-8512
▁unpredict	-8513
▁Millennium	-8514
▁Throughout	-8515
▁aggression	-8516
▁eliminated	-8517
▁incomplete	-8518
▁irrational	-8519
▁peripheral	-8520
▁temptation	-8521
▁triggering	-8522
▁cooperative	-8523
▁disarmament	-8524
▁restructure	-8525
▁commentators	-8526
▁evolutionary	-8527
▁determination	-8528
▁characteristics	-8529
40	-8530
eu	-8531
▁.	-8532
WII	-8533
cup	-8534
esh	-8535
lov	-8536
▁22	-8537
▁Sy	-8538
adly	-8539
good	-8540
hman	-8541
need	-8542
▁Ban	-8543
▁Bit	-8544
▁BoE	-8545
▁Don	-8546
▁Hen	-8547
▁Ref	-8548
▁Ric	-8549
▁Sri	-8550
▁lic	-8551
▁sho	-8552
ander	-8553
ernal	-8554
front	-8555
ounce	-8556
speed	-8557
uated	-8558
▁Next	-8559
▁Pric	-8560
▁exec	-8561
▁film	-8562
▁odds	-8563
▁ramp	-8564
▁sect	-8565
▁spok	-8566
▁tide	-8567
orious	-8568
regard	-8569
retion	-8570
▁2009.	-8571
▁2016.	-8572
▁2050,	-8573
▁Above	-8574
▁Child	-8575
▁Prize	-8576
▁Water	-8577
▁Would	-8578
▁chose	-8579
▁grasp	-8580
▁squee	-8581
atories	-8582
endment	-8583
version	-8584
▁bloody	-8585
▁deepen	-8586
▁injust	-8587
▁master	-8588
▁physic	-8589
inations	-8590
▁Bitcoin	-8591
▁affects	-8592
▁blocked	-8593
▁compact	-8594
▁delayed	-8595
▁suffers	-8596
▁tsunami	-8597
▁unpopul	-8598
▁whereby	-8599
▁Brothers	-8600
▁Emerging	-8601
▁distress	-8602
▁endorsed	-8603
▁insisted	-8604
▁inspired	-8605
▁shortage	-8606
▁sluggish	-8607
▁unstable	-8608
▁warnings	-8609
▁xenophob	-8610
ilaterally	-8611
management	-8612
productive	-8613
▁Argentine	-8614
▁addresses	-8615
▁empirical	-8616
▁happiness	-8617
▁indicates	-8618
▁meanwhile	-8619
▁medicines	-8620
▁scenarios	-8621
▁translate	-8622
▁abandoning	-8623
▁disruptive	-8624
▁processing	-8625
▁staggering	-8626
▁ineffective	-8627
▁preferences	-8628
▁speculation	-8629
▁collectively	-8630
▁historically	-8631
▁predecessors	-8632
▁significance	-8633
-7	-8634
Le	-8635
hr	-8636
sm	-8637
zo	-8638
án	-8639
iam	-8640
▁La	-8641
▁id	-8642
agog	-8643
azon	-8644
ford	-8645
▁$2.	-8646
▁Day	-8647
▁Pre	-8648
▁Sam	-8649
▁Squ	-8650
▁Tay	-8651
▁Ten	-8652
▁Ter	-8653
▁asy	-8654
▁sky	-8655
added	-8656
ropri	-8657
▁Acad	-8658
▁Darf	-8659
▁Fran	-8660
▁Lank	-8661
▁hide	-8662
▁keen	-8663
▁town	-8664
▁wife	-8665
compet	-8666
idance	-8667
iteers	-8668
manuel	-8669
owered	-8670
unning	-8671
▁2011.	-8672
▁Arabs	-8673
▁Chief	-8674
▁Index	-8675
▁Stand	-8676
▁alleg	-8677
▁angry	-8678
▁breat	-8679
▁climb	-8680
▁param	-8681
▁retal	-8682
▁style	-8683
defense	-8684
renched	-8685
▁Lehman	-8686
▁absent	-8687
▁assist	-8688
▁barrel	-8689
▁behalf	-8690
▁deemed	-8691
▁impede	-8692
▁losers	-8693
▁parlia	-8694
▁poised	-8695
▁punish	-8696
▁resemb	-8697
▁soared	-8698
arations	-8699
▁Johnson	-8700
▁assumes	-8701
▁asymmet	-8702
▁breakup	-8703
▁burdens	-8704
▁burning	-8705
▁damaged	-8706
▁reading	-8707
▁urgency	-8708
▁village	-8709
urrencies	-8710
▁describe	-8711
▁disputed	-8712
▁distrust	-8713
▁dividend	-8714
▁excluded	-8715
▁frontier	-8716
▁governor	-8717
▁predomin	-8718
▁speaking	-8719
▁tackling	-8720
ifications	-8721
▁contagion	-8722
▁departure	-8723
▁emotional	-8724
▁extending	-8725
▁nutrition	-8726
▁promotion	-8727
▁respected	-8728
▁boundaries	-8729
▁correction	-8730
▁difficulty	-8731
▁accelerated	-8732
▁accumulated	-8733
▁controlling	-8734
▁excessively	-8735
▁parliaments	-8736
▁protections	-8737
▁aggressively	-8738
▁connectivity	-8739
▁fragmentation	-8740
▁recommendations	-8741
60	-8742
IS	-8743
▁&	-8744
500	-8745
due	-8746
emy	-8747
irs	-8748
lav	-8749
uum	-8750
▁2,	-8751
▁Ev	-8752
▁na	-8753
aret	-8754
char	-8755
ords	-8756
▁Age	-8757
▁SAN	-8758
▁coc	-8759
▁lux	-8760
▁mil	-8761
armed	-8762
eterm	-8763
izers	-8764
▁2018	-8765
▁Does	-8766
▁Jose	-8767
▁Mass	-8768
▁Near	-8769
▁Sant	-8770
▁boss	-8771
▁cosm	-8772
▁nets	-8773
▁pock	-8774
encing	-8775
erated	-8776
imalay	-8777
incial	-8778
▁2017.	-8779
▁2030,	-8780
▁Civil	-8781
▁drast	-8782
▁fifth	-8783
▁griev	-8784
▁humil	-8785
▁plain	-8786
▁reloc	-8787
▁rises	-8788
▁store	-8789
▁teach	-8790
▁trump	-8791
anthrop	-8792
diction	-8793
ervices	-8794
▁BERLIN	-8795
▁Histor	-8796
▁differ	-8797
▁phones	-8798
▁random	-8799
▁rivals	-8800
▁solved	-8801
▁tested	-8802
▁Banking	-8803
▁Charter	-8804
▁booming	-8805
▁convert	-8806
▁degrees	-8807
▁extends	-8808
▁rebuild	-8809
▁refusal	-8810
▁unclear	-8811
effective	-8812
▁Together	-8813
▁chairman	-8814
▁comprise	-8815
▁downside	-8816
▁entities	-8817
▁philosop	-8818
▁promoted	-8819
▁terrible	-8820
▁decentral	-8821
▁dividends	-8822
▁healthier	-8823
▁prevailed	-8824
▁strengths	-8825
▁upgrading	-8826
▁Kazakhstan	-8827
▁collection	-8828
▁connection	-8829
▁convincing	-8830
▁discontent	-8831
▁profitable	-8832
▁reluctance	-8833
▁situations	-8834
▁sustaining	-8835
withstanding	-8836
▁Ahmadinejad	-8837
▁application	-8838
▁assessments	-8839
▁comfortable	-8840
▁interesting	-8841
▁impoverished	-8842
▁overcapacity	-8843
▁automatically	-8844
▁manufacturers	-8845
▁normalization	-8846
30	-8847
aug	-8848
umn	-8849
ctic	-8850
norm	-8851
thal	-8852
▁Dec	-8853
▁Opp	-8854
▁Web	-8855
▁Wil	-8856
▁eat	-8857
▁unm	-8858
Japan	-8859
aying	-8860
fired	-8861
green	-8862
othes	-8863
ousse	-8864
world	-8865
worth	-8866
▁Dire	-8867
▁FARC	-8868
▁Kurd	-8869
▁Poor	-8870
▁abst	-8871
▁leng	-8872
▁soil	-8873
atible	-8874
global	-8875
orting	-8876
profit	-8877
▁Banks	-8878
▁Doing	-8879
▁Elect	-8880
▁alter	-8881
▁cited	-8882
▁marks	-8883
▁miles	-8884
▁pivot	-8885
▁tells	-8886
▁towns	-8887
▁upris	-8888
economy	-8889
roughts	-8890
▁Almost	-8891
▁Darfur	-8892
▁advers	-8893
▁deadly	-8894
▁excell	-8895
▁illust	-8896
▁images	-8897
▁lender	-8898
▁listen	-8899
▁savers	-8900
▁slogan	-8901
▁sphere	-8902
▁tragic	-8903
▁unfold	-8904
friendly	-8905
▁Himalay	-8906
▁authors	-8907
▁debtors	-8908
▁endless	-8909
▁forever	-8910
▁gravity	-8911
▁harness	-8912
▁penalty	-8913
▁portray	-8914
▁records	-8915
▁visited	-8916
rexiteers	-8917
▁fairness	-8918
▁paradigm	-8919
▁parallel	-8920
▁reversal	-8921
▁undercut	-8922
▁cognitive	-8923
▁concerted	-8924
▁countless	-8925
▁dimension	-8926
▁functions	-8927
▁provinces	-8928
▁correspond	-8929
▁officially	-8930
▁bureaucrats	-8931
▁stabilizing	-8932
▁Specifically	-8933
HA	-8934
yo	-8935
”)	-8936
ker	-8937
vez	-8938
voc	-8939
▁Bh	-8940
▁Lu	-8941
Russ	-8942
airo	-8943
aise	-8944
burg	-8945
icul	-8946
usse	-8947
▁Dig	-8948
▁God	-8949
▁Lee	-8950
▁Sur	-8951
▁Vik	-8952
▁bes	-8953
▁box	-8954
▁ice	-8955
▁pil	-8956
athol	-8957
bonds	-8958
ercul	-8959
esity	-8960
ounds	-8961
▁Bret	-8962
▁Gold	-8963
▁Krug	-8964
▁Rome	-8965
▁buff	-8966
▁diam	-8967
▁feet	-8968
▁heed	-8969
▁plus	-8970
▁resh	-8971
▁sums	-8972
▁tang	-8973
▁wary	-8974
arious	-8975
ighted	-8976
saving	-8977
▁Panel	-8978
▁Swiss	-8979
▁acted	-8980
▁annex	-8981
▁crowd	-8982
▁euros	-8983
▁forge	-8984
▁maneu	-8985
▁music	-8986
▁polio	-8987
▁scarc	-8988
▁steep	-8989
▁teams	-8990
control	-8991
quarter	-8992
ratives	-8993
ubercul	-8994
▁Agenda	-8995
▁Cathol	-8996
▁Minist	-8997
▁Polish	-8998
▁abrupt	-8999
▁boards	-9000
▁dozens	-9001
▁earned	-9002
▁filled	-9003
▁firmly	-9004
▁houses	-9005
▁phrase	-9006
▁pretty	-9007
▁racial	-9008
▁regain	-9009
▁timing	-9010
▁Balkans	-9011
▁Krugman	-9012
▁Liberal	-9013
▁Project	-9014
▁Sanders	-9015
▁Success	-9016
▁answers	-9017
▁automob	-9018
▁charged	-9019
▁confirm	-9020
▁emulate	-9021
▁favored	-9022
▁founded	-9023
▁harvest	-9024
▁orderly	-9025
▁passing	-9026
▁suicide	-9027
▁vehicle	-9028
▁winners	-9029
▁writing	-9030
▁detailed	-9031
▁distance	-9032
▁droughts	-9033
▁eventual	-9034
▁guidance	-9035
▁impunity	-9036
▁orthodox	-9037
▁reckless	-9038
▁removing	-9039
orestation	-9040
▁Companies	-9041
▁condemned	-9042
▁extremist	-9043
▁illiberal	-9044
▁indicated	-9045
▁liability	-9046
uberculosis	-9047
▁Brexiteers	-9048
▁acceptance	-9049
▁attracting	-9050
▁discretion	-9051
▁entrenched	-9052
▁homeowners	-9053
▁misleading	-9054
▁preserving	-9055
▁protracted	-9056
▁techniques	-9057
▁undertaken	-9058
▁Corporation	-9059
▁consolidate	-9060
▁diminishing	-9061
▁distinguish	-9062
▁efficiently	-9063
▁experiments	-9064
▁facilitated	-9065
▁settlements	-9066
▁unnecessary	-9067
▁deliberately	-9068
▁demonstrates	-9069
▁jurisdiction	-9070
▁irresponsible	-9071
▁possibilities	-9072
▁privatization	-9073
▁psychological	-9074
▁overwhelmingly	-9075
Af	-9076
BA	-9077
In	-9078
UR	-9079
Ind	-9080
iol	-9081
▁80	-9082
amin	-9083
orce	-9084
room	-9085
ávez	-9086
▁Bay	-9087
▁Dub	-9088
▁FDI	-9089
▁Vol	-9090
▁alc	-9091
▁uni	-9092
aired	-9093
apped	-9094
erved	-9095
essed	-9096
hibit	-9097
lined	-9098
occup	-9099
overs	-9100
ruits	-9101
start	-9102
▁Army	-9103
▁Gaul	-9104
▁Long	-9105
▁Mart	-9106
▁Stal	-9107
▁cere	-9108
▁edit	-9109
▁fier	-9110
▁hike	-9111
▁pron	-9112
ancers	-9113
errill	-9114
▁2002,	-9115
▁Chair	-9116
▁Guant	-9117
▁accus	-9118
▁afflu	-9119
▁alive	-9120
▁chair	-9121
▁clout	-9122
▁hikes	-9123
▁indif	-9124
▁panel	-9125
▁pride	-9126
▁robot	-9127
▁stems	-9128
▁trick	-9129
▁unint	-9130
▁utter	-9131
aughter	-9132
igenous	-9133
▁Across	-9134
▁Ronald	-9135
▁Square	-9136
▁bacter	-9137
▁casual	-9138
▁denial	-9139
▁giants	-9140
▁median	-9141
▁preval	-9142
▁repeat	-9143
▁rivers	-9144
▁window	-9145
▁winner	-9146
secution	-9147
specific	-9148
▁Affairs	-9149
▁Charles	-9150
▁Science	-9151
▁boosted	-9152
▁covered	-9153
▁dubious	-9154
▁encount	-9155
▁hegemon	-9156
▁linking	-9157
▁premium	-9158
▁recruit	-9159
▁Thatcher	-9160
▁averaged	-9161
▁cautious	-9162
▁diminish	-9163
▁document	-9164
▁freedoms	-9165
▁imprison	-9166
▁infected	-9167
▁prompted	-9168
▁restored	-9169
▁scrutiny	-9170
▁Pakistani	-9171
▁allocated	-9172
▁declaring	-9173
▁disregard	-9174
▁gathering	-9175
▁intensify	-9176
▁literally	-9177
▁municipal	-9178
▁portfolio	-9179
▁prisoners	-9180
▁reference	-9181
▁reforming	-9182
▁suppliers	-9183
▁Protection	-9184
▁biological	-9185
▁censorship	-9186
▁escalating	-9187
▁indigenous	-9188
▁motivation	-9189
▁presumably	-9190
▁provincial	-9191
▁tremendous	-9192
▁compromises	-9193
▁connections	-9194
▁continental	-9195
▁exceptional	-9196
▁expectation	-9197
▁inspiration	-9198
▁introducing	-9199
▁civilization	-9200
▁facilitating	-9201
▁fluctuations	-9202
▁investigation	-9203
Sh	-9204
ko	-9205
dec	-9206
kes	-9207
map	-9208
rim	-9209
thy	-9210
▁26	-9211
▁35	-9212
arus	-9213
asse	-9214
bial	-9215
even	-9216
life	-9217
omas	-9218
step	-9219
▁150	-9220
▁75%	-9221
▁Bre	-9222
▁Dam	-9223
▁Jud	-9224
▁NCD	-9225
▁esp	-9226
▁peg	-9227
ellen	-9228
orage	-9229
otten	-9230
print	-9231
ravel	-9232
trans	-9233
▁Bund	-9234
▁Pers	-9235
▁Post	-9236
▁Prom	-9237
▁beat	-9238
▁diff	-9239
▁fake	-9240
▁gene	-9241
▁grim	-9242
▁olig	-9243
▁peer	-9244
▁semi	-9245
▁vide	-9246
cially	-9247
erates	-9248
estock	-9249
losure	-9250
needed	-9251
▁Franç	-9252
▁Major	-9253
▁ambig	-9254
▁cliff	-9255
▁hence	-9256
▁inhab	-9257
▁ought	-9258
▁refin	-9259
▁river	-9260
induced	-9261
seekers	-9262
▁Chávez	-9263
▁Future	-9264
▁Marine	-9265
▁Shinzo	-9266
▁Twenty	-9267
▁Yellen	-9268
▁bridge	-9269
▁cleare	-9270
▁curric	-9271
▁errors	-9272
▁hidden	-9273
▁inputs	-9274
▁orient	-9275
▁oversh	-9276
▁spends	-9277
▁starts	-9278
▁street	-9279
▁unanim	-9280
▁Belarus	-9281
▁Summers	-9282
▁discred	-9283
▁hostile	-9284
▁margins	-9285
▁methane	-9286
▁pillars	-9287
▁postwar	-9288
▁virtual	-9289
enhancing	-9290
▁cohesion	-9291
▁customer	-9292
▁episodes	-9293
▁ignoring	-9294
▁inaction	-9295
▁mainland	-9296
▁postpone	-9297
▁stagnant	-9298
▁stressed	-9299
▁whenever	-9300
▁combating	-9301
▁completed	-9302
▁defending	-9303
▁depressed	-9304
▁diplomats	-9305
▁embracing	-9306
▁enhancing	-9307
▁exclusive	-9308
▁intermedi	-9309
▁maintains	-9310
▁personnel	-9311
▁troubling	-9312
▁voluntary	-9313
▁attributed	-9314
▁cumulative	-9315
▁Declaration	-9316
▁association	-9317
▁intensified	-9318
▁permanently	-9319
▁spectacular	-9320
▁statistical	-9321
▁conservation	-9322
▁subsidiaries	-9323
▁unilaterally	-9324
▁Congressional	-9325
▁Environmental	-9326
▁disappointing	-9327
▁unpredictable	-9328
,"	-9329
OK	-9330
afe	-9331
inf	-9332
kak	-9333
law	-9334
lie	-9335
pel	-9336
▁(“	-9337
▁--	-9338
▁Av	-9339
▁Up	-9340
FORD	-9341
abet	-9342
achs	-9343
atch	-9344
bean	-9345
drop	-9346
eter	-9347
hard	-9348
iast	-9349
that	-9350
umer	-9351
wage	-9352
zero	-9353
zing	-9354
▁Bor	-9355
▁Hol	-9356
▁Jan	-9357
▁Sol	-9358
▁kid	-9359
▁syn	-9360
Claud	-9361
lovak	-9362
roads	-9363
▁Belg	-9364
▁Dodd	-9365
▁Fear	-9366
▁Yanu	-9367
▁aren	-9368
▁cool	-9369
▁feat	-9370
▁mega	-9371
▁nurt	-9372
▁plag	-9373
Claude	-9374
astics	-9375
insula	-9376
kovych	-9377
ocracy	-9378
states	-9379
▁Lanka	-9380
▁Micro	-9381
▁Right	-9382
▁River	-9383
▁clash	-9384
▁dozen	-9385
▁spons	-9386
▁swift	-9387
assador	-9388
consist	-9389
instein	-9390
rategic	-9391
reating	-9392
▁Amazon	-9393
▁Bosnia	-9394
▁Either	-9395
▁Rousse	-9396
▁Viktor	-9397
▁aggrav	-9398
▁checks	-9399
▁drones	-9400
▁enrich	-9401
▁evolve	-9402
▁gotten	-9403
▁induce	-9404
▁ingred	-9405
▁notice	-9406
▁pillar	-9407
▁recall	-9408
▁recons	-9409
idential	-9410
▁Nicolas	-9411
▁Senator	-9412
▁Similar	-9413
▁article	-9414
▁entails	-9415
▁expects	-9416
▁intoler	-9417
▁minimal	-9418
▁outrage	-9419
▁satisfy	-9420
▁silence	-9421
▁surveys	-9422
▁verdict	-9423
insurance	-9424
resistant	-9425
▁Director	-9426
▁Emmanuel	-9427
▁François	-9428
▁alarming	-9429
▁dictator	-9430
▁offshore	-9431
▁thousand	-9432
▁Euroskept	-9433
▁dedicated	-9434
▁exclusion	-9435
▁intensity	-9436
▁livestock	-9437
▁misguided	-9438
▁overnight	-9439
▁pervasive	-9440
▁professor	-9441
▁sacrifice	-9442
▁Yanukovych	-9443
▁algorithms	-9444
▁constantly	-9445
▁coordinate	-9446
▁deployment	-9447
▁electronic	-9448
▁grievances	-9449
▁narratives	-9450
▁resentment	-9451
▁surrounding	-9452
▁entrepreneur	-9453
▁immunization	-9454
▁indefinitely	-9455
▁telecommunic	-9456
▁breakthroughs	-9457
▁stabilization	-9458
▁Constitutional	-9459
▁underestimated	-9460
▁environmentally	-9461
AT	-9462
KP	-9463
ka	-9464
TIP	-9465
eff	-9466
ont	-9467
sol	-9468
▁Ji	-9469
Year	-9470
ales	-9471
iasm	-9472
ogen	-9473
▁11%	-9474
▁30-	-9475
▁Ali	-9476
▁CCP	-9477
▁Gen	-9478
▁Oil	-9479
▁Rem	-9480
▁Spe	-9481
▁TPP	-9482
▁Tim	-9483
▁fat	-9484
▁sle	-9485
-2008	-9486
Frank	-9487
auses	-9488
ibaba	-9489
ienna	-9490
itage	-9491
oldov	-9492
olera	-9493
▁Belt	-9494
▁Snow	-9495
▁Wild	-9496
▁anch	-9497
▁hack	-9498
▁intr	-9499
▁loos	-9500
▁outp	-9501
▁pump	-9502
▁sale	-9503
▁shot	-9504
rorism	-9505
▁1,000	-9506
▁Boliv	-9507
▁Costa	-9508
▁Labor	-9509
▁Niger	-9510
▁Sachs	-9511
▁appet	-9512
▁chess	-9513
▁craft	-9514
▁irony	-9515
▁keeps	-9516
▁weigh	-9517
▁wield	-9518
iencies	-9519
ighting	-9520
private	-9521
▁Fiscal	-9522
▁Franco	-9523
▁Joseph	-9524
▁Moldov	-9525
▁acquis	-9526
▁ballot	-9527
▁feared	-9528
▁fronts	-9529
▁handle	-9530
▁overly	-9531
▁sounds	-9532
ineering	-9533
▁Bretton	-9534
▁Kurdish	-9535
▁Silicon	-9536
▁inspire	-9537
▁located	-9538
▁malaise	-9539
estically	-9540
istically	-9541
▁Administ	-9542
▁Franklin	-9543
▁bailouts	-9544
▁defining	-9545
▁disposal	-9546
▁flooding	-9547
▁imminent	-9548
▁irrevers	-9549
▁mathemat	-9550
▁opposing	-9551
▁assertive	-9552
▁democrats	-9553
▁fostering	-9554
▁graduates	-9555
▁indicator	-9556
▁insolvent	-9557
▁perfectly	-9558
▁reasoning	-9559
▁routinely	-9560
▁secretary	-9561
▁unpopular	-9562
▁workplace	-9563
▁worsening	-9564
▁Ironically	-9565
▁capability	-9566
▁globalized	-9567
▁identities	-9568
▁protesters	-9569
▁derivatives	-9570
▁determining	-9571
▁exemplified	-9572
▁interaction	-9573
▁recommended	-9574
▁replacement	-9575
▁nationalists	-9576
▁transforming	-9577
▁deteriorating	-9578
▁demonstrations	-9579
▁interpretation	-9580
BT	-9581
EP	-9582
GI	-9583
If	-9584
ec	-9585
iñ	-9586
ua	-9587
OMC	-9588
ahu	-9589
ras	-9590
rol	-9591
van	-9592
▁ho	-9593
▁om	-9594
alog	-9595
arks	-9596
conf	-9597
eneg	-9598
icit	-9599
nedy	-9600
okyo	-9601
pple	-9602
▁$3.	-9603
▁45%	-9604
▁BOJ	-9605
▁Dal	-9606
▁Jim	-9607
▁Lad	-9608
▁Xin	-9609
▁civ	-9610
▁dry	-9611
▁fre	-9612
▁hat	-9613
▁hem	-9614
▁ped	-9615
▁tit	-9616
▁vit	-9617
human	-9618
merce	-9619
organ	-9620
▁1.5%	-9621
▁1950	-9622
▁2030	-9623
▁Gene	-9624
▁NGOs	-9625
▁Time	-9626
▁culp	-9627
▁grip	-9628
▁sick	-9629
▁succ	-9630
▁unav	-9631
Palest	-9632
funded	-9633
uating	-9634
ussein	-9635
▁Exper	-9636
▁Tokyo	-9637
▁blunt	-9638
▁broke	-9639
▁drone	-9640
▁genes	-9641
▁judge	-9642
▁slump	-9643
umption	-9644
▁Former	-9645
▁Thomas	-9646
▁arrive	-9647
▁breast	-9648
▁cultiv	-9649
▁eroded	-9650
▁fought	-9651
▁grants	-9652
▁patent	-9653
▁shrink	-9654
▁stalem	-9655
▁vacuum	-9656
▁vastly	-9657
▁Hussein	-9658
▁Increas	-9659
▁Kennedy	-9660
▁Koreans	-9661
▁Markets	-9662
▁Michael	-9663
▁beliefs	-9664
▁broaden	-9665
▁clients	-9666
▁concess	-9667
▁conting	-9668
▁endorse	-9669
▁engines	-9670
▁illustr	-9671
▁insight	-9672
▁obesity	-9673
▁outsize	-9674
▁priorit	-9675
▁prudent	-9676
▁rethink	-9677
▁reveals	-9678
▁stalled	-9679
▁tempted	-9680
▁tougher	-9681
▁tourism	-9682
▁unequal	-9683
▁Friedman	-9684
▁assembly	-9685
▁attacked	-9686
▁backward	-9687
▁blocking	-9688
▁breaking	-9689
▁defeated	-9690
▁entitled	-9691
▁facility	-9692
▁formally	-9693
▁invented	-9694
▁opinions	-9695
▁receives	-9696
▁referred	-9697
▁tactical	-9698
▁Egyptians	-9699
▁advocated	-9700
▁breakdown	-9701
▁engineers	-9702
▁inconsist	-9703
▁interview	-9704
▁mandatory	-9705
▁performed	-9706
▁proposing	-9707
▁radically	-9708
▁sectarian	-9709
▁skeptical	-9710
▁socialist	-9711
▁surprised	-9712
development	-9713
▁attraction	-9714
▁blockchain	-9715
▁comprising	-9716
▁decisively	-9717
▁enthusiasm	-9718
▁hurricanes	-9719
▁newspapers	-9720
▁bondholders	-9721
▁conclusions	-9722
▁disparities	-9723
▁negotiation	-9724
▁philanthrop	-9725
▁deregulation	-9726
▁marginalized	-9727
▁Globalization	-9728
▁deforestation	-9729
▁industrialized	-9730
SF	-9731
amm	-9732
sum	-9733
vol	-9734
arat	-9735
bear	-9736
lose	-9737
lown	-9738
umes	-9739
writ	-9740
▁($1	-9741
▁Ach	-9742
▁Att	-9743
▁Com	-9744
▁Mel	-9745
▁fro	-9746
▁rid	-9747
▁tab	-9748
▁unh	-9749
apons	-9750
eline	-9751
field	-9752
iracy	-9753
osion	-9754
winds	-9755
▁Alan	-9756
▁Alex	-9757
▁Move	-9758
▁WWII	-9759
▁aver	-9760
▁baby	-9761
▁fant	-9762
▁hate	-9763
▁mild	-9764
Israel	-9765
▁1960’	-9766
▁2020,	-9767
▁Woods	-9768
▁allev	-9769
▁conqu	-9770
▁doors	-9771
▁farms	-9772
▁habit	-9773
▁intra	-9774
▁likes	-9775
▁mired	-9776
▁monet	-9777
▁names	-9778
▁outwe	-9779
▁ports	-9780
▁spoke	-9781
acities	-9782
ariably	-9783
connect	-9784
erating	-9785
levance	-9786
umbling	-9787
▁assass	-9788
▁benign	-9789
▁drives	-9790
▁excuse	-9791
▁inward	-9792
▁locked	-9793
▁silent	-9794
▁soccer	-9795
▁thinks	-9796
▁Alibaba	-9797
▁Romania	-9798
▁assured	-9799
▁caution	-9800
▁compare	-9801
▁dissent	-9802
▁ensuing	-9803
▁erosion	-9804
▁fleeing	-9805
▁flowing	-9806
▁holders	-9807
▁journey	-9808
▁metrics	-9809
▁minutes	-9810
▁ordered	-9811
▁solving	-9812
▁storage	-9813
▁trapped	-9814
developed	-9815
▁advisers	-9816
▁affluent	-9817
▁confined	-9818
▁defenses	-9819
▁friendly	-9820
▁instinct	-9821
▁maneuver	-9822
▁spectrum	-9823
▁symbolic	-9824
employment	-9825
▁assessing	-9826
▁depending	-9827
▁dismissed	-9828
▁historian	-9829
▁realizing	-9830
▁regulated	-9831
▁suspicion	-9832
otechnology	-9833
▁anticipate	-9834
▁complaints	-9835
▁developers	-9836
▁heightened	-9837
▁indication	-9838
▁infections	-9839
▁insolvency	-9840
▁overlooked	-9841
▁proclaimed	-9842
▁reportedly	-9843
▁traditions	-9844
▁turbulence	-9845
▁accommodate	-9846
▁negotiators	-9847
▁theoretical	-9848
▁conversation	-9849
▁longstanding	-9850
▁conservatives	-9851
▁strategically	-9852
▁representation	-9853
dep	-9854
fty	-9855
ixt	-9856
uma	-9857
▁nu	-9858
aine	-9859
aste	-9860
asty	-9861
euro	-9862
feld	-9863
hist	-9864
mare	-9865
namo	-9866
omic	-9867
ques	-9868
resa	-9869
riad	-9870
ster	-9871
uled	-9872
ulum	-9873
wood	-9874
▁Ent	-9875
▁Hel	-9876
▁Mem	-9877
▁Mic	-9878
▁Red	-9879
▁Rou	-9880
▁Six	-9881
▁Too	-9882
▁Yas	-9883
▁ven	-9884
▁vib	-9885
borne	-9886
igher	-9887
value	-9888
ánamo	-9889
▁1989	-9890
▁Anti	-9891
▁Budd	-9892
▁Gore	-9893
▁Mont	-9894
▁Tian	-9895
▁Wars	-9896
▁Zeal	-9897
▁cush	-9898
▁hire	-9899
▁item	-9900
▁leap	-9901
▁loud	-9902
▁mini	-9903
anyahu	-9904
school	-9905
supply	-9906
▁Artic	-9907
▁Large	-9908
▁Stock	-9909
▁boast	-9910
▁fines	-9911
▁lifet	-9912
▁named	-9913
▁prone	-9914
▁radio	-9915
▁rigor	-9916
▁roots	-9917
▁touch	-9918
▁upper	-9919
▁veget	-9920
athered	-9921
▁10,000	-9922
▁Action	-9923
▁Senkak	-9924
▁Stalin	-9925
▁Vienna	-9926
▁Warren	-9927
▁devise	-9928
▁doctor	-9929
▁electr	-9930
▁habits	-9931
▁myriad	-9932
▁seized	-9933
▁winter	-9934
▁Theresa	-9935
▁Zealand	-9936
▁bargain	-9937
▁condemn	-9938
▁consent	-9939
▁contact	-9940
▁episode	-9941
▁formula	-9942
▁handful	-9943
▁mindset	-9944
▁portion	-9945
▁removal	-9946
▁settled	-9947
▁spreads	-9948
▁strange	-9949
▁Einstein	-9950
▁Exchange	-9951
▁backdrop	-9952
▁clinical	-9953
▁consumed	-9954
▁contains	-9955
▁contempl	-9956
▁determin	-9957
▁headline	-9958
▁imagined	-9959
▁integral	-9960
▁partisan	-9961
▁presents	-9962
▁revision	-9963
▁selected	-9964
▁sweeping	-9965
▁traction	-9966
▁universe	-9967
ologically	-9968
▁Investors	-9969
▁Netanyahu	-9970
▁contribut	-9971
▁discourse	-9972
▁entertain	-9973
▁injustice	-9974
▁offensive	-9975
▁accessible	-9976
▁bargaining	-9977
▁emphasizes	-9978
▁invariably	-9979
▁ministries	-9980
▁supplement	-9981
▁businessmen	-9982
▁contributes	-9983
▁incremental	-9984
▁revelations	-9985
▁underscores	-9986
▁displacement	-9987
▁approximately	-9988
▁exceptionally	-9989
▁uncertainties	-9990
▁democratically	-9991
UL	-9992
big	-9993
iph	-9994
mas	-9995
net	-9996
pts	-9997
unc	-9998
abao	-9999
awat	-10000
hips	-10001
host	-10002
nard	-10003
ohol	-10004
rend	-10005
umin	-10006
uras	-10007
▁12%	-10008
▁CIA	-10009
▁Fuk	-10010
▁Mat	-10011
▁jun	-10012
▁nan	-10013
▁nic	-10014
▁pin	-10015
▁tor	-10016
arted	-10017
ierra	-10018
pered	-10019
ullah	-10020
urate	-10021
uties	-10022
▁0.5%	-10023
▁1998	-10024
▁Area	-10025
▁CEOs	-10026
▁Mark	-10027
▁Open	-10028
▁Trad	-10029
▁aged	-10030
▁cron	-10031
▁elig	-10032
▁flat	-10033
▁issu	-10034
▁maln	-10035
Soviet	-10036
dollar	-10037
elfare	-10038
elsius	-10039
eville	-10040
ieving	-10041
vation	-10042
wealth	-10043
▁2005.	-10044
▁Could	-10045
▁Haiti	-10046
▁array	-10047
▁dirty	-10048
▁fires	-10049
▁fract	-10050
▁fruit	-10051
▁inaug	-10052
▁incap	-10053
▁intim	-10054
▁loose	-10055
▁patri	-10056
▁vague	-10057
defined	-10058
keeping	-10059
lovakia	-10060
ologist	-10061
onymous	-10062
riminal	-10063
service	-10064
▁Jiabao	-10065
▁Refuge	-10066
▁Sierra	-10067
▁adhere	-10068
▁analog	-10069
▁demise	-10070
▁hazard	-10071
▁lacked	-10072
▁ratify	-10073
▁rememb	-10074
▁strain	-10075
▁traded	-10076
▁underg	-10077
balanced	-10078
resolved	-10079
▁Digital	-10080
▁History	-10081
▁Indians	-10082
▁Liberia	-10083
▁Maynard	-10084
▁bearing	-10085
▁cholera	-10086
▁despair	-10087
▁divorce	-10088
▁enlight	-10089
▁evasion	-10090
▁exagger	-10091
▁knowing	-10092
▁monopol	-10093
▁propose	-10094
▁revised	-10095
▁succumb	-10096
▁western	-10097
immigrant	-10098
izational	-10099
▁Iranians	-10100
▁Movement	-10101
▁Politics	-10102
▁aircraft	-10103
▁excesses	-10104
▁feedback	-10105
▁linkages	-10106
▁normally	-10107
▁packages	-10108
▁persists	-10109
▁republic	-10110
▁scandals	-10111
▁scarcity	-10112
▁allegedly	-10113
▁certainty	-10114
▁describes	-10115
▁footprint	-10116
▁forgotten	-10117
▁inherited	-10118
▁replacing	-10119
▁restraint	-10120
▁scientist	-10121
▁stalemate	-10122
▁suspected	-10123
▁Australian	-10124
▁Guantánamo	-10125
▁destroying	-10126
▁encourages	-10127
▁frustrated	-10128
▁overcoming	-10129
▁reconsider	-10130
▁respective	-10131
▁Politicians	-10132
▁concessions	-10133
▁constitutes	-10134
▁discredited	-10135
▁probability	-10136
▁projections	-10137
▁residential	-10138
▁respondents	-10139
▁trafficking	-10140
▁Independence	-10141
▁irreversible	-10142
▁Administration	-10143
!”	-10144
Cs	-10145
FA	-10146
RA	-10147
apt	-10148
bán	-10149
erg	-10150
fit	-10151
ikh	-10152
▁8.	-10153
▁Br	-10154
▁CP	-10155
▁Ox	-10156
atah	-10157
case	-10158
erry	-10159
ourg	-10160
tics	-10161
▁$20	-10162
▁Leg	-10163
▁MIT	-10164
▁Put	-10165
▁WHO	-10166
World	-10167
after	-10168
endas	-10169
ivial	-10170
jiang	-10171
licop	-10172
phone	-10173
▁2.5%	-10174
▁Bulg	-10175
▁Gord	-10176
▁ampl	-10177
▁belt	-10178
▁crus	-10179
▁dams	-10180
▁dual	-10181
▁empt	-10182
▁hind	-10183
▁impe	-10184
▁mant	-10185
▁obsc	-10186
▁shed	-10187
arrass	-10188
comers	-10189
ieties	-10190
oughly	-10191
uously	-10192
▁Alban	-10193
▁Armen	-10194
▁Fatah	-10195
▁Moham	-10196
▁Moral	-10197
▁avert	-10198
▁bases	-10199
▁coerc	-10200
▁color	-10201
▁drain	-10202
▁embod	-10203
▁feels	-10204
▁games	-10205
▁genoc	-10206
▁guess	-10207
▁peril	-10208
▁reaff	-10209
▁socio	-10210
▁spear	-10211
▁spike	-10212
▁swing	-10213
Western	-10214
arshall	-10215
artisan	-10216
ologies	-10217
▁Gaulle	-10218
▁Geneva	-10219
▁Martin	-10220
▁Nearly	-10221
▁Thanks	-10222
▁attain	-10223
▁bitter	-10224
▁debtor	-10225
▁desert	-10226
▁exempt	-10227
▁fierce	-10228
▁genome	-10229
▁harass	-10230
▁hiring	-10231
▁hoping	-10232
▁massac	-10233
▁oldest	-10234
▁scores	-10235
▁strang	-10236
▁worsen	-10237
▁Celsius	-10238
▁Earlier	-10239
▁Senkaku	-10240
▁agendas	-10241
▁alcohol	-10242
▁charism	-10243
▁cleaner	-10244
▁coupled	-10245
▁denying	-10246
▁elusive	-10247
▁interim	-10248
▁logical	-10249
▁outlets	-10250
▁partial	-10251
▁sitting	-10252
▁studied	-10253
▁vibrant	-10254
ternative	-10255
▁Austrian	-10256
▁Eurozone	-10257
▁Official	-10258
▁allocate	-10259
▁appetite	-10260
▁applying	-10261
▁covering	-10262
▁evolving	-10263
▁exporter	-10264
▁favorite	-10265
▁mistrust	-10266
▁officers	-10267
▁preoccup	-10268
▁printing	-10269
▁ratified	-10270
▁renegoti	-10271
▁respects	-10272
▁sentence	-10273
▁signaled	-10274
▁strictly	-10275
▁tangible	-10276
▁violated	-10277
▁Mechanism	-10278
▁attacking	-10279
▁considers	-10280
▁exhausted	-10281
▁explosion	-10282
▁formation	-10283
▁qualified	-10284
▁struggled	-10285
▁tolerance	-10286
▁withstand	-10287
▁compliance	-10288
▁compounded	-10289
▁conviction	-10290
▁discourage	-10291
▁disorderly	-10292
▁disturbing	-10293
▁enthusiast	-10294
▁profoundly	-10295
▁psychology	-10296
▁restricted	-10297
▁superpower	-10298
▁suspicious	-10299
▁unintended	-10300
▁complacency	-10301
▁composition	-10302
▁forecasting	-10303
▁identifying	-10304
▁proposition	-10305
▁publication	-10306
▁shareholder	-10307
proliferation	-10308
▁domestically	-10309
▁explanations	-10310
▁subsequently	-10311
▁justification	-10312
BM	-10313
ET	-10314
ey	-10315
▁£	-10316
bel	-10317
dis	-10318
epr	-10319
nov	-10320
obs	-10321
ped	-10322
too	-10323
▁9.	-10324
▁Ki	-10325
grid	-10326
ilip	-10327
inav	-10328
uble	-10329
uepr	-10330
▁16%	-10331
▁Ice	-10332
▁Old	-10333
▁Zed	-10334
▁flu	-10335
▁mir	-10336
▁pes	-10337
abric	-10338
agine	-10339
blown	-10340
board	-10341
eches	-10342
fuels	-10343
group	-10344
isite	-10345
oline	-10346
orbyn	-10347
rafat	-10348
rians	-10349
▁Debt	-10350
▁Kenn	-10351
▁Shar	-10352
▁auto	-10353
▁bets	-10354
▁clar	-10355
▁club	-10356
▁coff	-10357
▁mudd	-10358
▁pund	-10359
▁rush	-10360
▁thin	-10361
ensity	-10362
ibbean	-10363
idable	-10364
public	-10365
risome	-10366
usalem	-10367
▁1997,	-10368
▁Brown	-10369
▁Henry	-10370
▁Leone	-10371
▁Orbán	-10372
▁Scand	-10373
▁award	-10374
▁bleak	-10375
▁civic	-10376
▁crude	-10377
▁drops	-10378
▁erode	-10379
▁fatal	-10380
▁greed	-10381
▁irrig	-10382
liberal	-10383
uration	-10384
▁Michel	-10385
▁Romney	-10386
▁Santos	-10387
▁bluepr	-10388
▁entity	-10389
▁guided	-10390
▁plunge	-10391
▁regret	-10392
▁season	-10393
▁squand	-10394
▁square	-10395
▁unreal	-10396
▁Between	-10397
▁Qaddafi	-10398
▁appeals	-10399
▁arsenal	-10400
▁cancers	-10401
▁depress	-10402
▁fiction	-10403
▁hardest	-10404
▁lifting	-10405
▁miracle	-10406
▁talents	-10407
dependent	-10408
rudential	-10409
▁Canadian	-10410
▁Interest	-10411
▁abundant	-10412
▁attended	-10413
▁enforced	-10414
▁exceeded	-10415
▁feelings	-10416
▁floating	-10417
▁gasoline	-10418
▁literacy	-10419
▁obtained	-10420
▁outweigh	-10421
▁overhang	-10422
▁preceded	-10423
▁prevents	-10424
▁reformed	-10425
▁refusing	-10426
▁segments	-10427
▁stations	-10428
▁stunning	-10429
▁tolerate	-10430
▁Caribbean	-10431
▁Eurobonds	-10432
▁Obviously	-10433
▁Scandinav	-10434
▁arbitrary	-10435
▁ballistic	-10436
▁fragility	-10437
▁headwinds	-10438
▁hostility	-10439
▁impending	-10440
▁marketing	-10441
▁recipient	-10442
▁worrisome	-10443
▁accumulate	-10444
▁advocating	-10445
▁autocratic	-10446
▁bipartisan	-10447
▁capitalize	-10448
▁diagnostic	-10449
▁formidable	-10450
▁groundwork	-10451
▁indicating	-10452
▁innovators	-10453
▁journalism	-10454
▁mitigation	-10455
▁remarkably	-10456
▁remembered	-10457
▁substitute	-10458
▁coefficient	-10459
▁concentrate	-10460
▁conferences	-10461
▁correlation	-10462
▁elimination	-10463
▁forthcoming	-10464
▁philosopher	-10465
▁underground	-10466
▁interactions	-10467
▁manufactured	-10468
▁Conservatives	-10469
▁consequential	-10470
▁demonstrating	-10471
▁participating	-10472
▁profitability	-10473
▁Representative	-10474
▁disinformation	-10475
hy	-10476
su	-10477
zy	-10478
▁¥	-10479
200	-10480
FTA	-10481
MEs	-10482
Pro	-10483
TIA	-10484
UNI	-10485
agh	-10486
aur	-10487
omy	-10488
▁$9	-10489
▁90	-10490
▁Du	-10491
▁Pu	-10492
arth	-10493
away	-10494
iors	-10495
obyl	-10496
▁$40	-10497
▁DNA	-10498
▁Dem	-10499
▁Ecu	-10500
▁Ins	-10501
▁Jac	-10502
▁Pat	-10503
▁cri	-10504
▁lev	-10505
▁pit	-10506
▁rot	-10507
Islam	-10508
TIAGO	-10509
aksin	-10510
athan	-10511
eling	-10512
henko	-10513
icago	-10514
reach	-10515
track	-10516
vable	-10517
vedev	-10518
▁100%	-10519
▁Fram	-10520
▁Land	-10521
▁Lula	-10522
▁Nord	-10523
▁blog	-10524
German	-10525
hengen	-10526
licate	-10527
people	-10528
ppling	-10529
ulture	-10530
▁1990,	-10531
▁2001.	-10532
▁2007.	-10533
▁Abbas	-10534
▁Scott	-10535
▁Smith	-10536
▁borne	-10537
▁digit	-10538
▁recyc	-10539
▁rests	-10540
▁stick	-10541
▁tyran	-10542
America	-10543
arching	-10544
changed	-10545
ication	-10546
irected	-10547
iversal	-10548
▁Corbyn	-10549
▁Gordon	-10550
▁affair	-10551
▁anyway	-10552
▁culmin	-10553
▁expose	-10554
▁fright	-10555
▁hybrid	-10556
▁incurs	-10557
▁influx	-10558
▁lethal	-10559
▁luxury	-10560
▁poison	-10561
▁potent	-10562
▁provoc	-10563
▁safely	-10564
▁sensit	-10565
▁stages	-10566
▁tribal	-10567
hernobyl	-10568
▁Article	-10569
▁Britons	-10570
▁Moldova	-10571
▁Tibetan	-10572
▁Tobacco	-10573
▁adviser	-10574
▁clarity	-10575
▁emerges	-10576
▁examine	-10577
▁explore	-10578
▁illicit	-10579
▁intimid	-10580
▁invited	-10581
▁millenn	-10582
▁passion	-10583
▁physics	-10584
▁plagued	-10585
▁traffic	-10586
▁trivial	-10587
▁watched	-10588
prisingly	-10589
▁Medvedev	-10590
▁Recently	-10591
▁SANTIAGO	-10592
▁Schengen	-10593
▁bacteria	-10594
▁discount	-10595
▁occupied	-10596
▁operates	-10597
▁outdated	-10598
▁pipeline	-10599
▁speeches	-10600
▁suppress	-10601
▁Catalonia	-10602
▁Jerusalem	-10603
▁academics	-10604
▁believing	-10605
▁broadband	-10606
▁broadcast	-10607
▁celebrate	-10608
▁channeled	-10609
▁deploying	-10610
▁embarrass	-10611
▁extension	-10612
▁forefront	-10613
▁frequency	-10614
▁launching	-10615
▁penalties	-10616
▁trillions	-10617
▁withdrawn	-10618
▁witnessed	-10619
▁continuous	-10620
▁divergence	-10621
▁inherently	-10622
▁journalist	-10623
▁liberalism	-10624
▁manageable	-10625
▁originally	-10626
▁philosophy	-10627
▁privileged	-10628
▁succession	-10629
▁distinction	-10630
▁emphasizing	-10631
▁humiliation	-10632
▁perceptions	-10633
▁restricting	-10634
▁stimulating	-10635
▁technocrats	-10636
▁transitions	-10637
▁accomplished	-10638
▁exploitation	-10639
▁prescription	-10640
▁beneficiaries	-10641
▁clearinghouse	-10642
▁democratization	-10643
▁interdependence	-10644
-8	-10645
.,	-10646
PR	-10647
SB	-10648
YO	-10649
ta	-10650
”?	-10651
ask	-10652
bar	-10653
pre	-10654
rah	-10655
xon	-10656
▁65	-10657
▁9%	-10658
▁Bu	-10659
OKYO	-10660
cile	-10661
disc	-10662
lass	-10663
lege	-10664
moon	-10665
rock	-10666
sett	-10667
will	-10668
▁2.5	-10669
▁Cit	-10670
▁EEA	-10671
▁Imm	-10672
▁Kyi	-10673
▁Low	-10674
▁Ris	-10675
▁Suu	-10676
▁hus	-10677
▁van	-10678
UNICH	-10679
asure	-10680
atist	-10681
great	-10682
inery	-10683
isive	-10684
oston	-10685
otine	-10686
produ	-10687
richt	-10688
▁Jong	-10689
▁News	-10690
▁Soon	-10691
▁Thai	-10692
▁cert	-10693
▁echo	-10694
▁elev	-10695
▁fled	-10696
▁hung	-10697
▁hurd	-10698
▁intu	-10699
▁nurs	-10700
▁puzz	-10701
▁reun	-10702
▁ring	-10703
▁smok	-10704
▁tant	-10705
▁unth	-10706
▁vind	-10707
▁warn	-10708
esbank	-10709
headed	-10710
ourish	-10711
ournal	-10712
▁1989,	-10713
▁2006.	-10714
▁Black	-10715
▁Exxon	-10716
▁Maast	-10717
▁TOKYO	-10718
▁beaut	-10719
▁booms	-10720
▁cruel	-10721
▁globe	-10722
▁grass	-10723
▁infer	-10724
▁movie	-10725
▁naval	-10726
▁prize	-10727
▁subdu	-10728
▁throw	-10729
▁unite	-10730
comfort	-10731
raining	-10732
▁Arafat	-10733
▁Boston	-10734
▁MUNICH	-10735
▁Modern	-10736
▁convey	-10737
▁deputy	-10738
▁fabric	-10739
▁firing	-10740
▁hearts	-10741
▁lasted	-10742
▁mining	-10743
▁misman	-10744
▁nobody	-10745
▁panels	-10746
▁prejud	-10747
▁prolif	-10748
▁ranked	-10749
▁triple	-10750
▁wasted	-10751
▁wholes	-10752
▁wouldn	-10753
Semitism	-10754
curement	-10755
financed	-10756
▁Academy	-10757
▁Belgium	-10758
▁Chicago	-10759
▁Ecuador	-10760
▁Equally	-10761
▁Nothing	-10762
▁Poverty	-10763
▁Private	-10764
▁Snowden	-10765
▁Society	-10766
▁contend	-10767
▁credits	-10768
▁discern	-10769
▁educate	-10770
▁lagging	-10771
▁monthly	-10772
▁mothers	-10773
▁optimal	-10774
▁shorter	-10775
▁totally	-10776
▁unravel	-10777
▁unusual	-10778
reduction	-10779
▁Building	-10780
▁Democrat	-10781
▁Southern	-10782
▁centrist	-10783
▁deserves	-10784
▁emission	-10785
▁evaluate	-10786
▁guerrill	-10787
▁missions	-10788
▁moreover	-10789
▁pointing	-10790
▁prevails	-10791
▁standoff	-10792
▁symptoms	-10793
▁teaching	-10794
▁upheaval	-10795
especially	-10796
▁2008-2009	-10797
▁Microsoft	-10798
▁Northeast	-10799
▁autocrats	-10800
▁automated	-10801
▁champions	-10802
▁confronts	-10803
▁demograph	-10804
▁empowered	-10805
▁exceeding	-10806
▁ignorance	-10807
▁insisting	-10808
▁newcomers	-10809
▁nightmare	-10810
▁operators	-10811
▁overthrow	-10812
▁permitted	-10813
▁privately	-10814
▁reconcile	-10815
▁schooling	-10816
▁unchanged	-10817
▁Maastricht	-10818
▁autonomous	-10819
▁exceptions	-10820
▁explaining	-10821
▁fertilizer	-10822
▁influenced	-10823
▁insurgency	-10824
▁predicting	-10825
▁prediction	-10826
▁reinforces	-10827
▁repressive	-10828
▁unresolved	-10829
▁Agriculture	-10830
▁accusations	-10831
▁enlightened	-10832
▁macroeconom	-10833
▁understands	-10834
▁undertaking	-10835
▁Historically	-10836
▁calculations	-10837
▁disagreement	-10838
▁inequalities	-10839
▁perspectives	-10840
▁decentralized	-10841
▁predominantly	-10842
▁reconstruction	-10843
▁redistribution	-10844
▁experimentation	-10845
bl	-10846
ki	-10847
▁i	-10848
LAN	-10849
PEC	-10850
avi	-10851
awn	-10852
igl	-10853
oca	-10854
oha	-10855
ora	-10856
who	-10857
Chin	-10858
perc	-10859
seen	-10860
▁AKP	-10861
▁COP	-10862
▁Mur	-10863
▁Nat	-10864
▁Row	-10865
acies	-10866
atell	-10867
gical	-10868
rants	-10869
yield	-10870
▁Draw	-10871
▁Fail	-10872
▁Kash	-10873
▁Mult	-10874
▁Rest	-10875
▁Rica	-10876
▁Stan	-10877
▁TTIP	-10878
▁band	-10879
▁gest	-10880
▁gift	-10881
▁ling	-10882
▁ride	-10883
▁urge	-10884
ferent	-10885
fiscal	-10886
inians	-10887
seless	-10888
target	-10889
▁2,000	-10890
▁Fifth	-10891
▁Maybe	-10892
▁Parad	-10893
▁Techn	-10894
▁Using	-10895
▁brave	-10896
▁centr	-10897
▁defer	-10898
▁deple	-10899
▁effic	-10900
▁empty	-10901
▁fever	-10902
▁frict	-10903
▁knock	-10904
▁magic	-10905
▁overe	-10906
▁score	-10907
▁tanks	-10908
▁tries	-10909
▁units	-10910
Chinese	-10911
enomics	-10912
looking	-10913
tenance	-10914
ussions	-10915
▁Compet	-10916
▁Empire	-10917
▁Madrid	-10918
▁Prince	-10919
▁ancest	-10920
▁conced	-10921
▁contam	-10922
▁favors	-10923
▁ideals	-10924
▁insult	-10925
▁lesser	-10926
▁listed	-10927
▁native	-10928
▁nomine	-10929
▁plight	-10930
▁quotas	-10931
▁spoken	-10932
▁stores	-10933
▁string	-10934
▁Bolivia	-10935
▁Drawing	-10936
▁Imagine	-10937
▁Mohamed	-10938
▁Swedish	-10939
▁Wilders	-10940
▁antagon	-10941
▁careers	-10942
▁compass	-10943
▁council	-10944
▁ensures	-10945
▁extract	-10946
▁fallout	-10947
▁helicop	-10948
▁helpful	-10949
▁inhabit	-10950
▁install	-10951
▁maximum	-10952
▁militar	-10953
▁motives	-10954
▁prostit	-10955
▁pundits	-10956
▁rampant	-10957
▁refrain	-10958
▁renewal	-10959
▁rewards	-10960
▁stepped	-10961
▁transit	-10962
regulated	-10963
▁Olympics	-10964
▁emotions	-10965
▁gathered	-10966
▁incident	-10967
▁lifetime	-10968
▁memories	-10969
▁plastics	-10970
▁reviving	-10971
▁spurring	-10972
▁thriving	-10973
▁Chernobyl	-10974
▁Inflation	-10975
▁amounting	-10976
▁balancing	-10977
▁distorted	-10978
▁epidemics	-10979
▁fisheries	-10980
▁immigrant	-10981
▁languages	-10982
▁machinery	-10983
▁mentioned	-10984
▁orthodoxy	-10985
▁rationale	-10986
▁struggles	-10987
▁tightened	-10988
engineering	-10989
▁accurately	-10990
▁capacities	-10991
▁coalitions	-10992
▁committing	-10993
▁deliberate	-10994
▁disposable	-10995
▁insistence	-10996
▁positioned	-10997
▁reflection	-10998
▁safeguards	-10999
▁shortfalls	-11000
▁skepticism	-11001
▁disappeared	-11002
▁imagination	-11003
▁legislators	-11004
▁limitations	-11005
▁manufacture	-11006
▁materialize	-11007
▁occupations	-11008
▁procurement	-11009
▁prohibition	-11010
▁prosecutors	-11011
▁disadvantage	-11012
▁underpinning	-11013
▁collaborative	-11014
▁complementary	-11015
▁intellectuals	-11016
▁organizational	-11017
15	-11018
45	-11019
POR	-11020
ads	-11021
ald	-11022
ali	-11023
asi	-11024
cep	-11025
kew	-11026
vin	-11027
yip	-11028
▁MP	-11029
▁NP	-11030
aved	-11031
avor	-11032
clos	-11033
eded	-11034
enei	-11035
hous	-11036
igil	-11037
isms	-11038
last	-11039
lers	-11040
mail	-11041
obil	-11042
oung	-11043
unta	-11044
west	-11045
▁17%	-11046
▁Ash	-11047
▁Eff	-11048
▁FTA	-11049
▁ICT	-11050
▁Lag	-11051
▁Nap	-11052
▁Raj	-11053
▁aro	-11054
▁awa	-11055
▁bus	-11056
▁mel	-11057
▁odd	-11058
▁sad	-11059
▁sli	-11060
anged	-11061
anium	-11062
aucas	-11063
itant	-11064
itous	-11065
ppled	-11066
uinea	-11067
▁2050	-11068
▁Bhut	-11069
▁Crit	-11070
▁Data	-11071
▁Doha	-11072
▁FOMC	-11073
▁Home	-11074
▁Kham	-11075
▁Mahm	-11076
▁Mali	-11077
▁akin	-11078
▁bell	-11079
▁fish	-11080
▁king	-11081
▁laud	-11082
▁myst	-11083
▁nerv	-11084
▁plot	-11085
▁shel	-11086
▁woes	-11087
ankind	-11088
anship	-11089
enable	-11090
fueled	-11091
utable	-11092
▁2000.	-11093
▁Cairo	-11094
▁Event	-11095
▁Recep	-11096
▁Royal	-11097
▁bless	-11098
▁chart	-11099
▁enshr	-11100
▁floor	-11101
▁metap	-11102
▁peers	-11103
▁rever	-11104
▁scene	-11105
▁smugg	-11106
▁tumor	-11107
ersonal	-11108
finance	-11109
limited	-11110
weapons	-11111
▁Baltic	-11112
▁Budget	-11113
▁Guinea	-11114
▁Manuel	-11115
▁Tayyip	-11116
▁beings	-11117
▁cataly	-11118
▁compel	-11119
▁fixing	-11120
▁humili	-11121
▁laying	-11122
▁marine	-11123
▁orders	-11124
▁ostens	-11125
▁outset	-11126
▁pollut	-11127
▁proves	-11128
▁recipe	-11129
▁reperc	-11130
▁reserv	-11131
▁revolt	-11132
▁satell	-11133
▁shield	-11134
▁sports	-11135
▁swings	-11136
▁tenure	-11137
▁thrown	-11138
▁upside	-11139
entially	-11140
icrobial	-11141
ollywood	-11142
▁College	-11143
▁Thaksin	-11144
▁counted	-11145
▁curtail	-11146
▁cushion	-11147
▁hearing	-11148
▁ignores	-11149
▁imposes	-11150
▁letting	-11151
▁manager	-11152
▁morning	-11153
▁oversee	-11154
▁pockets	-11155
▁rebound	-11156
▁revived	-11157
▁subdued	-11158
▁surging	-11159
▁tighten	-11160
▁trusted	-11161
▁unavoid	-11162
▁uranium	-11163
▁Contrary	-11164
▁Khamenei	-11165
▁Marshall	-11166
▁Medicare	-11167
▁activism	-11168
▁daughter	-11169
▁decrease	-11170
▁doubling	-11171
▁engineer	-11172
▁executed	-11173
▁incompet	-11174
▁initiate	-11175
▁mistaken	-11176
▁misunder	-11177
▁narrowly	-11178
▁navigate	-11179
▁nicotine	-11180
▁oligarch	-11181
▁perceive	-11182
▁proposes	-11183
▁shocking	-11184
▁skeptics	-11185
▁Christmas	-11186
▁accompany	-11187
▁budgetary	-11188
▁capturing	-11189
▁collected	-11190
▁confusion	-11191
▁constrain	-11192
▁documents	-11193
▁excellent	-11194
▁incapable	-11195
▁outbreaks	-11196
▁radiation	-11197
▁reformers	-11198
▁resistant	-11199
▁somewhere	-11200
▁statehood	-11201
▁surpassed	-11202
▁Ukrainians	-11203
▁calculated	-11204
▁containing	-11205
▁convenient	-11206
▁depreciate	-11207
▁manipulate	-11208
▁militarily	-11209
▁portfolios	-11210
▁registered	-11211
▁sentiments	-11212
▁witnessing	-11213
▁Alternative	-11214
▁controversy	-11215
▁empowerment	-11216
▁eradication	-11217
▁illustrates	-11218
▁implication	-11219
▁maintenance	-11220
▁persecution	-11221
▁Transatlantic	-11222
▁entrepreneurial	-11223
▁multilateralism	-11224
IR	-11225
ST	-11226
jo	-11227
ano	-11228
ara	-11229
bes	-11230
elf	-11231
mod	-11232
onn	-11233
ota	-11234
oup	-11235
uts	-11236
▁AN	-11237
▁ax	-11238
hrop	-11239
keep	-11240
▁204	-11241
▁FBI	-11242
▁Kur	-11243
▁ODA	-11244
▁Tar	-11245
▁lik	-11246
▁rum	-11247
▁sat	-11248
▁voc	-11249
5,000	-11250
Afric	-11251
aping	-11252
cular	-11253
erval	-11254
ework	-11255
iably	-11256
icked	-11257
month	-11258
▁$300	-11259
▁Care	-11260
▁Conc	-11261
▁Ever	-11262
▁Gand	-11263
▁Mand	-11264
▁NCDs	-11265
▁Need	-11266
▁Prad	-11267
▁blue	-11268
▁dose	-11269
▁obso	-11270
▁phot	-11271
▁ship	-11272
▁twin	-11273
▁webs	-11274
acious	-11275
anches	-11276
export	-11277
handed	-11278
member	-11279
normal	-11280
ranted	-11281
▁2050.	-11282
▁About	-11283
▁bombs	-11284
▁bread	-11285
▁junta	-11286
▁lobby	-11287
▁lofty	-11288
▁proof	-11289
▁reson	-11290
▁sched	-11291
▁swaps	-11292
▁swept	-11293
▁vigil	-11294
▁voter	-11295
achment	-11296
aucasus	-11297
inkable	-11298
ometers	-11299
ourcing	-11300
profile	-11301
▁Around	-11302
▁League	-11303
▁Zedong	-11304
▁absurd	-11305
▁burned	-11306
▁buyers	-11307
▁cement	-11308
▁devote	-11309
▁diabet	-11310
▁duties	-11311
▁miscon	-11312
▁overhe	-11313
▁player	-11314
▁rebels	-11315
▁storms	-11316
▁subtle	-11317
▁surrog	-11318
▁switch	-11319
▁writer	-11320
commerce	-11321
illusion	-11322
secutive	-11323
▁Goldman	-11324
▁Iceland	-11325
▁Journal	-11326
▁Overall	-11327
▁Pradesh	-11328
▁Rowhani	-11329
▁Studies	-11330
▁Syrians	-11331
▁arrival	-11332
▁barrier	-11333
▁bipolar	-11334
▁clearer	-11335
▁cocaine	-11336
▁crossed	-11337
▁curbing	-11338
▁debated	-11339
▁essence	-11340
▁footing	-11341
▁forming	-11342
▁nervous	-11343
▁nominee	-11344
▁picking	-11345
▁refuses	-11346
▁seekers	-11347
▁staying	-11348
▁symptom	-11349
▁Children	-11350
▁Xinjiang	-11351
▁abstract	-11352
▁adapting	-11353
▁agreeing	-11354
▁deciding	-11355
▁exported	-11356
▁farmland	-11357
▁fighters	-11358
▁football	-11359
▁genocide	-11360
▁grouping	-11361
▁heritage	-11362
▁instruct	-11363
▁maternal	-11364
▁obsolete	-11365
▁organize	-11366
▁protocol	-11367
▁settings	-11368
▁underval	-11369
▁admission	-11370
▁analytics	-11371
▁conscious	-11372
▁defensive	-11373
▁diversify	-11374
▁generates	-11375
▁illnesses	-11376
▁outsiders	-11377
▁regulator	-11378
▁relevance	-11379
▁reversing	-11380
▁socialism	-11381
competitive	-11382
▁ambassador	-11383
▁delegation	-11384
▁dependency	-11385
▁disclosure	-11386
▁privileges	-11387
▁regulating	-11388
▁separation	-11389
▁supportive	-11390
▁consecutive	-11391
▁destination	-11392
▁imperatives	-11393
▁realization	-11394
▁resignation	-11395
▁signatories	-11396
establishment	-11397
▁repercussions	-11398
GF	-11399
ID	-11400
LO	-11401
QE	-11402
WF	-11403
You	-11404
ala	-11405
bre	-11406
but	-11407
dem	-11408
ika	-11409
irt	-11410
lan	-11411
ros	-11412
zen	-11413
▁CT	-11414
▁Dr	-11415
▁PI	-11416
▁Ts	-11417
▁VI	-11418
▁et	-11419
ESCO	-11420
erto	-11421
idal	-11422
ilty	-11423
irac	-11424
nest	-11425
pace	-11426
prom	-11427
sche	-11428
yles	-11429
▁1.3	-11430
▁24%	-11431
▁400	-11432
▁95%	-11433
▁Def	-11434
▁Lux	-11435
▁Min	-11436
▁cig	-11437
▁fur	-11438
▁mad	-11439
▁rub	-11440
▁tie	-11441
Qaeda	-11442
asset	-11443
found	-11444
iform	-11445
illon	-11446
inked	-11447
ister	-11448
peror	-11449
popul	-11450
ports	-11451
▁1991	-11452
▁3.5%	-11453
▁6.5%	-11454
▁BRCA	-11455
▁Drug	-11456
▁Hiro	-11457
▁Norm	-11458
▁Prop	-11459
▁Stra	-11460
▁epic	-11461
▁hier	-11462
▁hunt	-11463
▁ruth	-11464
▁swap	-11465
▁tear	-11466
▁west	-11467
itated	-11468
reated	-11469
social	-11470
▁1979,	-11471
▁1991,	-11472
▁Annan	-11473
▁Impro	-11474
▁Nazis	-11475
▁Youth	-11476
▁foods	-11477
▁hypoc	-11478
▁ineff	-11479
▁merch	-11480
▁opium	-11481
▁pages	-11482
▁recal	-11483
▁recur	-11484
▁reign	-11485
▁ships	-11486
▁slack	-11487
▁sorts	-11488
▁spark	-11489
▁spell	-11490
▁video	-11491
▁vivid	-11492
▁widen	-11493
attered	-11494
elected	-11495
herence	-11496
itement	-11497
▁Balkan	-11498
▁Chirac	-11499
▁Forces	-11500
▁Puerto	-11501
▁Scient	-11502
▁UNESCO	-11503
▁banned	-11504
▁batter	-11505
▁breaks	-11506
▁doomed	-11507
▁dreams	-11508
▁hatred	-11509
▁immune	-11510
▁repeal	-11511
▁suited	-11512
▁unhapp	-11513
▁wishes	-11514
▁worlds	-11515
ceptible	-11516
ourished	-11517
ructural	-11518
▁Control	-11519
▁Failure	-11520
▁Mahmoud	-11521
▁Service	-11522
▁William	-11523
▁aligned	-11524
▁anytime	-11525
▁augment	-11526
▁courses	-11527
▁culprit	-11528
▁derived	-11529
▁desired	-11530
▁durable	-11531
▁heating	-11532
▁passage	-11533
▁payroll	-11534
▁reaches	-11535
▁rivalry	-11536
▁specter	-11537
▁tighter	-11538
▁tipping	-11539
▁undergo	-11540
▁viewing	-11541
▁volunte	-11542
political	-11543
▁Bulgaria	-11544
▁Caucasus	-11545
▁Ministry	-11546
▁Progress	-11547
▁Rousseff	-11548
▁category	-11549
▁diabetes	-11550
▁examined	-11551
▁illusion	-11552
▁impeding	-11553
▁interpre	-11554
▁lobbying	-11555
▁maturity	-11556
▁opponent	-11557
▁prescrib	-11558
▁quantity	-11559
▁reassure	-11560
▁rendered	-11561
▁resisted	-11562
▁solvency	-11563
▁sterling	-11564
▁survived	-11565
▁Economist	-11566
▁Himalayan	-11567
▁ceasefire	-11568
▁correctly	-11569
▁inspiring	-11570
▁leveraged	-11571
▁pessimism	-11572
▁referenda	-11573
▁suspended	-11574
▁uncomfort	-11575
▁upholding	-11576
▁violation	-11577
▁wholesale	-11578
▁Bundesbank	-11579
▁absolutely	-11580
▁exploiting	-11581
▁indirectly	-11582
▁irrigation	-11583
▁kilometers	-11584
▁maximizing	-11585
▁peacefully	-11586
▁questioned	-11587
▁responsive	-11588
▁systematic	-11589
▁calculation	-11590
▁contentious	-11591
▁depreciated	-11592
▁destabilize	-11593
▁disillusion	-11594
▁speculators	-11595
▁environments	-11596
▁tuberculosis	-11597
▁unfortunately	-11598
▁systematically	-11599
▁notwithstanding	-11600
-9	-11601
75	-11602
Vs	-11603
nn	-11604
FSF	-11605
ada	-11606
bin	-11607
dad	-11608
isa	-11609
rey	-11610
sky	-11611
sub	-11612
zai	-11613
▁Da	-11614
door	-11615
ecut	-11616
edge	-11617
exas	-11618
flow	-11619
icks	-11620
ifts	-11621
inge	-11622
laim	-11623
mble	-11624
orry	-11625
prot	-11626
ship	-11627
tion	-11628
▁13%	-11629
▁2%.	-11630
▁Abu	-11631
▁Aid	-11632
▁Hay	-11633
▁Liu	-11634
▁Moz	-11635
▁PLA	-11636
▁Ram	-11637
▁Rio	-11638
▁Rod	-11639
▁bin	-11640
▁dat	-11641
▁luc	-11642
▁mos	-11643
▁upd	-11644
aming	-11645
chers	-11646
heads	-11647
izens	-11648
rance	-11649
range	-11650
skill	-11651
vigor	-11652
▁1920	-11653
▁Gini	-11654
▁Kiss	-11655
▁Less	-11656
▁Marg	-11657
▁Pope	-11658
▁Rein	-11659
▁Rums	-11660
▁Shen	-11661
▁disg	-11662
▁hast	-11663
▁merc	-11664
▁migr	-11665
▁nutr	-11666
▁rapp	-11667
▁walk	-11668
aghdad	-11669
ewater	-11670
ivable	-11671
ledged	-11672
rapped	-11673
reason	-11674
ubborn	-11675
ulsion	-11676
▁Antar	-11677
▁Dubai	-11678
▁Euras	-11679
▁Guang	-11680
▁Sadly	-11681
▁Trust	-11682
▁aston	-11683
▁cance	-11684
▁error	-11685
▁exped	-11686
▁impet	-11687
▁posts	-11688
▁prest	-11689
▁quasi	-11690
▁realm	-11691
▁rebel	-11692
▁secre	-11693
▁shoot	-11694
▁stamp	-11695
▁theme	-11696
▁trees	-11697
▁unden	-11698
▁urged	-11699
repared	-11700
ropical	-11701
ulatory	-11702
▁Darwin	-11703
▁Fillon	-11704
▁Higher	-11705
▁Leader	-11706
▁Luxemb	-11707
▁Nature	-11708
▁Oxford	-11709
▁Regard	-11710
▁affirm	-11711
▁assemb	-11712
▁bribes	-11713
▁copper	-11714
▁forged	-11715
▁gamble	-11716
▁guilty	-11717
▁handed	-11718
▁jumped	-11719
▁rebell	-11720
▁reiter	-11721
▁resett	-11722
▁suprem	-11723
▁theirs	-11724
▁timely	-11725
▁valued	-11726
▁visits	-11727
▁yellow	-11728
Japanese	-11729
berspace	-11730
changing	-11731
dictions	-11732
regional	-11733
ropriate	-11734
▁Olympic	-11735
▁Osborne	-11736
▁Workers	-11737
▁beating	-11738
▁biology	-11739
▁convict	-11740
▁counsel	-11741
▁cynical	-11742
▁demagog	-11743
▁guiding	-11744
▁impasse	-11745
▁morally	-11746
▁offices	-11747
▁overdue	-11748
▁persons	-11749
▁prerequ	-11750
▁publish	-11751
▁readily	-11752
▁realism	-11753
▁secured	-11754
▁squeeze	-11755
▁tyranny	-11756
▁visions	-11757
▁weakens	-11758
Americans	-11759
▁Catholic	-11760
▁Intellig	-11761
▁Rumsfeld	-11762
▁Scottish	-11763
▁Services	-11764
▁activist	-11765
▁aversion	-11766
▁concepts	-11767
▁favoring	-11768
▁improves	-11769
▁killings	-11770
▁liberals	-11771
▁messages	-11772
▁protects	-11773
▁wherever	-11774
imicrobial	-11775
▁Financing	-11776
▁Peninsula	-11777
▁Socialist	-11778
▁automatic	-11779
▁blueprint	-11780
▁classical	-11781
▁criticize	-11782
▁geography	-11783
▁governors	-11784
▁militants	-11785
▁necessity	-11786
▁paralysis	-11787
▁procedure	-11788
▁processed	-11789
▁resembles	-11790
▁submitted	-11791
▁unlimited	-11792
▁watershed	-11793
▁behavioral	-11794
▁categories	-11795
▁disconnect	-11796
▁enormously	-11797
▁escalation	-11798
▁fulfilling	-11799
▁performing	-11800
▁practition	-11801
▁preference	-11802
▁reasonably	-11803
▁relentless	-11804
▁undergoing	-11805
▁wealthiest	-11806
productivity	-11807
▁allegations	-11808
▁appointment	-11809
▁battlefield	-11810
▁compromised	-11811
▁conditional	-11812
▁conflicting	-11813
▁departments	-11814
▁entitlement	-11815
▁geopolitics	-11816
▁integrating	-11817
▁outstanding	-11818
▁proportions	-11819
▁superiority	-11820
▁unavoidable	-11821
▁unthinkable	-11822
▁vaccination	-11823
▁artificially	-11824
▁declarations	-11825
▁devaluations	-11826
▁disappointed	-11827
▁indifference	-11828
▁transitional	-11829
▁accommodation	-11830
▁jurisdictions	-11831
▁underestimate	-11832
▁identification	-11833
▁transformative	-11834
AC	-11835
aph	-11836
awa	-11837
bul	-11838
exp	-11839
hon	-11840
iar	-11841
iat	-11842
rev	-11843
rik	-11844
▁AT	-11845
▁Ay	-11846
▁Ku	-11847
Arab	-11848
airy	-11849
ania	-11850
aths	-11851
eled	-11852
emia	-11853
gery	-11854
imer	-11855
inis	-11856
nals	-11857
otal	-11858
plan	-11859
play	-11860
raid	-11861
ribe	-11862
risy	-11863
role	-11864
ugos	-11865
uits	-11866
urit	-11867
▁1.2	-11868
▁Hug	-11869
▁Hur	-11870
▁Piñ	-11871
▁Ret	-11872
▁Val	-11873
▁dil	-11874
▁gay	-11875
▁ves	-11876
amber	-11877
anmen	-11878
apter	-11879
cture	-11880
derón	-11881
diagn	-11882
enter	-11883
falls	-11884
iates	-11885
ilton	-11886
luded	-11887
ourge	-11888
▁Alas	-11889
▁Dise	-11890
▁Fisc	-11891
▁Jeff	-11892
▁Stat	-11893
▁Uber	-11894
▁aven	-11895
▁boys	-11896
▁cite	-11897
▁damp	-11898
▁dust	-11899
▁grab	-11900
▁jail	-11901
▁lest	-11902
▁owes	-11903
▁rice	-11904
▁stew	-11905
Brazil	-11906
acking	-11907
anding	-11908
arming	-11909
determ	-11910
etting	-11911
iglitz	-11912
ridden	-11913
usions	-11914
▁Congo	-11915
▁Faced	-11916
▁Texas	-11917
▁Uribe	-11918
▁Young	-11919
▁cents	-11920
▁cloud	-11921
▁datab	-11922
▁disse	-11923
▁fired	-11924
▁forum	-11925
▁ghost	-11926
▁havoc	-11927
▁inapp	-11928
▁inert	-11929
▁inexp	-11930
▁inval	-11931
▁items	-11932
▁motor	-11933
▁overl	-11934
▁penet	-11935
▁scram	-11936
▁shake	-11937
▁slows	-11938
▁sport	-11939
▁steam	-11940
Russian	-11941
centric	-11942
ignific	-11943
ordable	-11944
uctions	-11945
ugoslav	-11946
▁Anyone	-11947
▁Gandhi	-11948
▁Piñera	-11949
▁Sharon	-11950
▁Wilson	-11951
▁counts	-11952
▁embark	-11953
▁endure	-11954
▁flying	-11955
▁fruits	-11956
▁mechan	-11957
▁picked	-11958
▁racism	-11959
▁resume	-11960
▁submar	-11961
▁tended	-11962
▁unjust	-11963
location	-11964
payments	-11965
▁Challen	-11966
▁Current	-11967
▁Fischer	-11968
▁Malaria	-11969
▁Morales	-11970
▁Paradox	-11971
▁Rouhani	-11972
▁Working	-11973
▁betting	-11974
▁chooses	-11975
▁clinics	-11976
▁existed	-11977
▁futures	-11978
▁inhibit	-11979
▁intract	-11980
▁intrins	-11981
▁origins	-11982
▁pledges	-11983
▁pulling	-11984
▁reacted	-11985
▁regards	-11986
▁reliant	-11987
▁restaur	-11988
▁riskier	-11989
▁strides	-11990
▁therapy	-11991
▁volumes	-11992
▁warrant	-11993
▁widened	-11994
olidarity	-11995
▁Calderón	-11996
▁Hamilton	-11997
▁Italians	-11998
▁Opportun	-11999
▁Sciences	-12000
▁Stiglitz	-12001
▁biofuels	-12002
▁catching	-12003
▁confused	-12004
▁contempt	-12005
▁convened	-12006
▁converge	-12007
▁deadline	-12008
▁deepened	-12009
▁depended	-12010
▁drilling	-12011
▁drinking	-12012
▁embarked	-12013
▁enjoying	-12014
▁everyday	-12015
▁journals	-12016
▁likewise	-12017
▁punitive	-12018
▁robotics	-12019
▁stubborn	-12020
▁thinkers	-12021
▁treasury	-12022
▁visiting	-12023
celeration	-12024
▁Achieving	-12025
▁Amendment	-12026
▁Framework	-12027
▁Relations	-12028
▁comprises	-12029
▁eradicate	-12030
▁everybody	-12031
▁exercises	-12032
▁exploited	-12033
▁infection	-12034
▁lawmakers	-12035
▁lifestyle	-12036
▁proactive	-12037
▁purchased	-12038
▁therapies	-12039
▁unleashed	-12040
▁viability	-12041
conditional	-12042
established	-12043
▁complained	-12044
▁constraint	-12045
▁continuity	-12046
▁distressed	-12047
▁distribute	-12048
▁eighteenth	-12049
▁functional	-12050
▁intervened	-12051
▁nomination	-12052
▁organizing	-12053
▁professors	-12054
▁translated	-12055
▁unbalanced	-12056
▁Information	-12057
▁adversaries	-12058
▁overwhelmed	-12059
▁susceptible	-12060
▁withdrawing	-12061
globalization	-12062
▁administered	-12063
▁experimental	-12064
▁perpetrators	-12065
▁simultaneous	-12066
▁Comprehensive	-12067
▁contradictory	-12068
▁distinguished	-12069
▁capitalization	-12070
-4	-12071
11	-12072
IT	-12073
da	-12074
gs	-12075
sl	-12076
vo	-12077
zi	-12078
-15	-12079
aky	-12080
iza	-12081
nat	-12082
osé	-12083
uni	-12084
”),	-12085
▁Ko	-12086
▁ri	-12087
aire	-12088
amac	-12089
core	-12090
iege	-12091
igue	-12092
lant	-12093
lood	-12094
onic	-12095
othe	-12096
tier	-12097
▁Bot	-12098
▁Dom	-12099
▁Ext	-12100
▁Fac	-12101
▁Gam	-12102
▁Kir	-12103
▁McC	-12104
▁Met	-12105
▁Shi	-12106
▁Ste	-12107
▁USS	-12108
▁Wal	-12109
▁Was	-12110
▁sab	-12111
earth	-12112
intao	-12113
major	-12114
otion	-12115
rying	-12116
stone	-12117
there	-12118
ucker	-12119
uming	-12120
ureau	-12121
wered	-12122
▁1994	-12123
▁Case	-12124
▁Resp	-12125
▁STEM	-12126
▁Well	-12127
▁ages	-12128
▁cler	-12129
▁doom	-12130
▁hect	-12131
▁lens	-12132
▁loop	-12133
▁medd	-12134
▁medi	-12135
▁mend	-12136
▁owed	-12137
▁synt	-12138
▁tape	-12139
▁thor	-12140
▁user	-12141
ainted	-12142
andise	-12143
around	-12144
debted	-12145
enegal	-12146
houses	-12147
ourced	-12148
pelled	-12149
roleum	-12150
▁1992,	-12151
▁1999,	-12152
▁2002.	-12153
▁3,000	-12154
▁Dalai	-12155
▁Delhi	-12156
▁Dream	-12157
▁Force	-12158
▁Innov	-12159
▁Later	-12160
▁MILAN	-12161
▁Money	-12162
▁Singh	-12163
▁agent	-12164
▁breed	-12165
▁carri	-12166
▁dealt	-12167
▁disen	-12168
▁doses	-12169
▁email	-12170
▁exert	-12171
▁march	-12172
▁maybe	-12173
▁misal	-12174
▁pecul	-12175
▁pilot	-12176
▁plent	-12177
▁proxy	-12178
Israeli	-12179
amacare	-12180
serving	-12181
setting	-12182
welfare	-12183
▁Angola	-12184
▁Bhutan	-12185
▁Execut	-12186
▁Jintao	-12187
▁arises	-12188
▁banker	-12189
▁bypass	-12190
▁dearth	-12191
▁frustr	-12192
▁futile	-12193
▁insurg	-12194
▁intrus	-12195
▁jailed	-12196
▁length	-12197
▁overst	-12198
▁pestic	-12199
▁pieces	-12200
▁rounds	-12201
▁silver	-12202
▁virtue	-12203
directed	-12204
educated	-12205
indebted	-12206
ittances	-12207
queville	-12208
resource	-12209
▁Senegal	-12210
▁appease	-12211
▁circles	-12212
▁clashes	-12213
▁destiny	-12214
▁earning	-12215
▁endured	-12216
▁herself	-12217
▁hitting	-12218
▁hostage	-12219
▁hurdles	-12220
▁husband	-12221
▁insists	-12222
▁lowered	-12223
▁offense	-12224
▁overval	-12225
▁plunged	-12226
▁prestig	-12227
▁revital	-12228
▁strains	-12229
▁uniform	-12230
▁unleash	-12231
▁violate	-12232
autionary	-12233
criptions	-12234
▁Facility	-12235
▁Margaret	-12236
▁articles	-12237
▁branches	-12238
▁capitals	-12239
▁catalyst	-12240
▁comments	-12241
▁equation	-12242
▁flourish	-12243
▁inclined	-12244
▁innovate	-12245
▁markedly	-12246
▁metaphor	-12247
▁morality	-12248
▁mountain	-12249
▁patience	-12250
▁punished	-12251
▁rigorous	-12252
▁shopping	-12253
▁societal	-12254
▁succeeds	-12255
▁sympathy	-12256
▁tempting	-12257
generation	-12258
▁Colombian	-12259
▁Kissinger	-12260
▁brutality	-12261
▁detention	-12262
▁evidently	-12263
▁execution	-12264
▁explosive	-12265
▁exporting	-12266
▁incidents	-12267
▁inflicted	-12268
▁lingering	-12269
▁neglected	-12270
▁notorious	-12271
▁persuaded	-12272
▁pipelines	-12273
▁plentiful	-12274
▁polarized	-12275
▁reactions	-12276
▁reinvigor	-12277
▁satisfied	-12278
▁scheduled	-12279
▁sidelines	-12280
functioning	-12281
▁announcing	-12282
▁antibiotic	-12283
▁casualties	-12284
▁depressing	-12285
▁imposition	-12286
▁mobilizing	-12287
▁precarious	-12288
▁quantities	-12289
▁rebuilding	-12290
▁recipients	-12291
▁simplistic	-12292
▁worthwhile	-12293
▁diversified	-12294
▁ingredients	-12295
▁inhabitants	-12296
▁intelligent	-12297
▁restoration	-12298
▁unrealistic	-12299
▁deteriorated	-12300
▁differential	-12301
▁inconsistent	-12302
▁liberalizing	-12303
▁totalitarian	-12304
▁acknowledging	-12305
▁corresponding	-12306
▁deterioration	-12307
▁externalities	-12308
▁unwillingness	-12309
▁disappointment	-12310
EV	-12311
GB	-12312
GH	-12313
MU	-12314
Me	-12315
No	-12316
sy	-12317
wa	-12318
ais	-12319
avy	-12320
hot	-12321
iah	-12322
lom	-12323
oko	-12324
pes	-12325
rup	-12326
tle	-12327
ube	-12328
ura	-12329
usp	-12330
▁(2	-12331
▁Bi	-12332
▁Ur	-12333
SOEs	-12334
aque	-12335
fast	-12336
ften	-12337
fulf	-12338
gian	-12339
hent	-12340
imag	-12341
inde	-12342
inqu	-12343
iped	-12344
ndra	-12345
rous	-12346
▁2%,	-12347
▁21%	-12348
▁Cap	-12349
▁EPP	-12350
▁FSB	-12351
▁Gra	-12352
▁Has	-12353
▁Len	-12354
▁Rog	-12355
▁Sar	-12356
▁Ser	-12357
▁Vot	-12358
▁Way	-12359
▁ath	-12360
▁dra	-12361
▁geo	-12362
▁oxy	-12363
▁rav	-12364
▁thw	-12365
▁upt	-12366
South	-12367
allow	-12368
arraf	-12369
chner	-12370
eding	-12371
lived	-12372
oving	-12373
peace	-12374
qiang	-12375
rable	-12376
ricts	-12377
roots	-12378
spons	-12379
swana	-12380
ukuni	-12381
▁1979	-12382
▁CTBT	-12383
▁Lama	-12384
▁Nare	-12385
▁SMEs	-12386
▁Seas	-12387
▁Star	-12388
▁Wang	-12389
▁arts	-12390
▁axis	-12391
▁cycl	-12392
▁dies	-12393
▁glim	-12394
▁hint	-12395
▁milk	-12396
▁mine	-12397
▁rage	-12398
▁samp	-12399
▁skew	-12400
50,000	-12401
asures	-12402
decade	-12403
idding	-12404
ighbor	-12405
inable	-12406
liners	-12407
parent	-12408
return	-12409
weight	-12410
▁1950’	-12411
▁1998,	-12412
▁2018,	-12413
▁5,000	-12414
▁Boris	-12415
▁Fight	-12416
▁Games	-12417
▁Guard	-12418
▁Peter	-12419
▁Short	-12420
▁Start	-12421
▁Stern	-12422
▁arrog	-12423
▁audit	-12424
▁colon	-12425
▁crony	-12426
▁delus	-12427
▁films	-12428
▁grids	-12429
▁opted	-12430
▁quota	-12431
▁sever	-12432
▁smoke	-12433
▁stars	-12434
▁theor	-12435
Semitic	-12436
ifiable	-12437
overing	-12438
sighted	-12439
▁Bureau	-12440
▁Confuc	-12441
▁Hurric	-12442
▁Kenyan	-12443
▁Panama	-12444
▁backst	-12445
▁bosses	-12446
▁dubbed	-12447
▁enjoys	-12448
▁hailed	-12449
▁hamper	-12450
▁indict	-12451
▁infant	-12452
▁judged	-12453
▁killer	-12454
▁masses	-12455
▁papers	-12456
▁remedy	-12457
▁submit	-12458
▁surged	-12459
▁tribun	-12460
▁unsett	-12461
breaking	-12462
ertainly	-12463
icularly	-12464
iniscent	-12465
oliberal	-12466
usharraf	-12467
▁300,000	-12468
▁Armenia	-12469
▁Critics	-12470
▁Experts	-12471
▁Serbian	-12472
▁Support	-12473
▁advised	-12474
▁bridges	-12475
▁clarify	-12476
▁dictate	-12477
▁exclude	-12478
▁fortune	-12479
▁founder	-12480
▁handled	-12481
▁heading	-12482
▁impacts	-12483
▁impetus	-12484
▁loyalty	-12485
▁matched	-12486
▁nuanced	-12487
▁obliged	-12488
▁overest	-12489
▁permits	-12490
▁preempt	-12491
▁reactor	-12492
▁summits	-12493
▁unhappy	-12494
▁utility	-12495
▁utterly	-12496
▁varying	-12497
ilization	-12498
▁Botswana	-12499
▁Consumer	-12500
▁Millions	-12501
▁Narendra	-12502
▁Nigerian	-12503
▁Yasukuni	-12504
▁brothers	-12505
▁centered	-12506
▁commonly	-12507
▁divisive	-12508
▁factions	-12509
▁gridlock	-12510
▁handling	-12511
▁incurred	-12512
▁inferior	-12513
▁inflated	-12514
▁landmark	-12515
▁minerals	-12516
▁provider	-12517
▁rainfall	-12518
▁resigned	-12519
▁shutdown	-12520
▁sizeable	-12521
▁supercon	-12522
▁tailored	-12523
▁tourists	-12524
▁uprising	-12525
▁Hungarian	-12526
▁Strategic	-12527
▁Tiananmen	-12528
▁decreased	-12529
▁denounced	-12530
▁diagnosed	-12531
▁directors	-12532
▁judgments	-12533
▁liberties	-12534
▁locations	-12535
▁logistics	-12536
▁modernize	-12537
▁plummeted	-12538
▁portrayed	-12539
▁revealing	-12540
▁utilities	-12541
▁wealthier	-12542
▁worldview	-12543
Palestinian	-12544
▁Eventually	-12545
▁Liberation	-12546
▁Luxembourg	-12547
▁Regardless	-12548
▁Resolution	-12549
▁Securities	-12550
▁automobile	-12551
▁bolstering	-12552
▁collapsing	-12553
▁competence	-12554
▁courageous	-12555
▁curriculum	-12556
▁engineered	-12557
▁expressing	-12558
▁healthcare	-12559
▁leveraging	-12560
▁literature	-12561
▁ostensibly	-12562
▁overshadow	-12563
▁successive	-12564
▁wastewater	-12565
▁denominated	-12566
▁description	-12567
▁manipulated	-12568
▁merchandise	-12569
▁personality	-12570
▁practically	-12571
▁strengthens	-12572
▁substantive	-12573
▁Intelligence	-12574
▁enthusiastic	-12575
▁governmental	-12576
▁occasionally	-12577
▁persistently	-12578
▁systemically	-12579
▁disadvantaged	-12580
▁disagreements	-12581
▁discretionary	-12582
▁diversification	-12583
-6	-12584
ED	-12585
gi	-12586
ARP	-12587
HAN	-12588
New	-12589
bad	-12590
cit	-12591
ede	-12592
ila	-12593
non	-12594
opt	-12595
pat	-12596
pos	-12597
two	-12598
”).	-12599
▁34	-12600
▁Ce	-12601
▁Cy	-12602
▁Hy	-12603
▁Ol	-12604
▁Sa	-12605
arde	-12606
bene	-12607
bons	-12608
gans	-12609
hart	-12610
heid	-12611
imil	-12612
list	-12613
osni	-12614
rior	-12615
zhen	-12616
zhou	-12617
▁$60	-12618
▁1.4	-12619
▁Bur	-12620
▁CDF	-12621
▁Ide	-12622
▁Mek	-12623
▁NPT	-12624
▁STO	-12625
▁Toc	-12626
▁etc	-12627
▁fee	-12628
▁lin	-12629
▁owe	-12630
▁wre	-12631
Leave	-12632
achal	-12633
chest	-12634
eness	-12635
inate	-12636
lance	-12637
liest	-12638
ogens	-12639
opian	-12640
osite	-12641
otism	-12642
perty	-12643
pivot	-12644
raged	-12645
roche	-12646
smart	-12647
urban	-12648
äuble	-12649
▁$500	-12650
▁1900	-12651
▁1992	-12652
▁50%.	-12653
▁Main	-12654
▁Pand	-12655
▁Poll	-12656
▁Salv	-12657
▁Tanz	-12658
▁adds	-12659
▁busy	-12660
▁butt	-12661
▁emit	-12662
▁gang	-12663
▁hasn	-12664
▁murd	-12665
▁poet	-12666
▁sway	-12667
▁tank	-12668
▁tone	-12669
▁visa	-12670
▁wear	-12671
asions	-12672
inence	-12673
isible	-12674
linked	-12675
oliday	-12676
ometer	-12677
orders	-12678
▁Hence	-12679
▁Hosni	-12680
▁Janet	-12681
▁Kerry	-12682
▁Shell	-12683
▁Small	-12684
▁calam	-12685
▁clock	-12686
▁curve	-12687
▁dairy	-12688
▁dread	-12689
▁messy	-12690
▁onset	-12691
▁shame	-12692
▁shore	-12693
▁veter	-12694
balance	-12695
conserv	-12696
fledged	-12697
managed	-12698
ropolit	-12699
versely	-12700
▁Credit	-12701
▁Edward	-12702
▁Frankf	-12703
▁Fukush	-12704
▁Syriza	-12705
▁Things	-12706
▁abound	-12707
▁afraid	-12708
▁apolog	-12709
▁bloods	-12710
▁branch	-12711
▁breath	-12712
▁bullet	-12713
▁covert	-12714
▁deport	-12715
▁dismal	-12716
▁famine	-12717
▁impart	-12718
▁makers	-12719
▁merits	-12720
▁meters	-12721
▁muscle	-12722
▁opaque	-12723
▁speaks	-12724
▁trades	-12725
▁wisely	-12726
children	-12727
equality	-12728
thinking	-12729
▁Jacques	-12730
▁Looking	-12731
▁Meeting	-12732
▁acquies	-12733
▁anxious	-12734
▁arising	-12735
▁crowded	-12736
▁drastic	-12737
▁fertile	-12738
▁forging	-12739
▁garment	-12740
▁inertia	-12741
▁locally	-12742
▁manages	-12743
▁quantum	-12744
▁reminds	-12745
▁replied	-12746
▁reservo	-12747
▁roadmap	-12748
▁signing	-12749
▁smarter	-12750
▁tightly	-12751
▁tripled	-12752
communist	-12753
dominated	-12754
rochement	-12755
roductive	-12756
▁Cultural	-12757
▁Military	-12758
▁Regional	-12759
▁Schäuble	-12760
▁Shenzhen	-12761
▁absorbed	-12762
▁academia	-12763
▁arriving	-12764
▁blessing	-12765
▁commerce	-12766
▁consists	-12767
▁disclose	-12768
▁efficacy	-12769
▁embodied	-12770
▁graduate	-12771
▁hypothes	-12772
▁location	-12773
▁militant	-12774
▁precious	-12775
▁reciproc	-12776
▁reinvent	-12777
▁relating	-12778
▁retrench	-12779
▁servants	-12780
▁stopping	-12781
▁subjects	-12782
▁variable	-12783
▁vigorous	-12784
▁villages	-12785
ranational	-12786
▁competent	-12787
▁computing	-12788
▁deterrent	-12789
▁districts	-12790
▁enforcing	-12791
▁millennia	-12792
▁rebalance	-12793
▁resisting	-12794
▁sentences	-12795
▁undergone	-12796
▁accordance	-12797
▁achievable	-12798
▁championed	-12799
▁chancellor	-12800
▁circumvent	-12801
▁compassion	-12802
▁conducting	-12803
▁conspiracy	-12804
▁cosmopolit	-12805
▁cyberspace	-12806
▁depositors	-12807
▁dimensions	-12808
▁historians	-12809
▁internally	-12810
▁jeopardize	-12811
▁lifestyles	-12812
▁mitigating	-12813
▁prioritize	-12814
▁pronounced	-12815
▁reassuring	-12816
▁stagnating	-12817
▁subsidized	-12818
▁suggestion	-12819
▁valuations	-12820
▁xenophobic	-12821
▁celebration	-12822
▁citizenship	-12823
▁collaborate	-12824
▁creditworth	-12825
▁dismantling	-12826
▁exaggerated	-12827
▁meaningless	-12828
▁overheating	-12829
▁reminiscent	-12830
▁resolutions	-12831
▁specialists	-12832
▁technically	-12833
▁Unemployment	-12834
▁coordinating	-12835
▁exacerbating	-12836
▁geographical	-12837
▁highlighting	-12838
▁intensifying	-12839
▁jeopardizing	-12840
▁malnutrition	-12841
▁manipulating	-12842
▁questionable	-12843
▁socioeconomic	-12844
▁uncomfortable	-12845
▁unconditional	-12846
▁attractiveness	-12847
▁understandably	-12848
-5	-12849
De	-12850
RF	-12851
TT	-12852
fl	-12853
-1.	-12854
3%,	-12855
IFA	-12856
aya	-12857
ida	-12858
lod	-12859
oma	-12860
rea	-12861
vio	-12862
▁36	-12863
▁IT	-12864
▁OX	-12865
▁Zh	-12866
▁“[	-12867
APOR	-12868
achu	-12869
aned	-12870
arre	-12871
assy	-12872
best	-12873
eder	-12874
ifty	-12875
iral	-12876
lude	-12877
oglo	-12878
quer	-12879
roat	-12880
star	-12881
upid	-12882
▁$4.	-12883
▁14%	-12884
▁28%	-12885
▁Ale	-12886
▁Beg	-12887
▁CPC	-12888
▁Fox	-12889
▁III	-12890
▁Lim	-12891
▁Mog	-12892
▁Pin	-12893
▁RMB	-12894
▁Sin	-12895
▁Tig	-12896
▁boy	-12897
▁ele	-12898
▁mig	-12899
▁rus	-12900
APORE	-12901
amous	-12902
elior	-12903
grown	-12904
heres	-12905
isure	-12906
ivism	-12907
ivist	-12908
ombie	-12909
ostal	-12910
ottom	-12911
overy	-12912
ridge	-12913
ringe	-12914
setts	-12915
steps	-12916
tered	-12917
ulent	-12918
umble	-12919
▁10%.	-12920
▁Adam	-12921
▁Beng	-12922
▁Dear	-12923
▁Hugo	-12924
▁Life	-12925
▁Miss	-12926
▁Pres	-12927
▁SING	-12928
▁Zhou	-12929
▁apes	-12930
▁boon	-12931
▁detr	-12932
▁flam	-12933
▁forb	-12934
▁fren	-12935
▁harb	-12936
▁mole	-12937
▁omin	-12938
▁peso	-12939
▁rall	-12940
▁soci	-12941
▁swit	-12942
▁vari	-12943
▁wood	-12944
arling	-12945
atists	-12946
hecked	-12947
hering	-12948
irates	-12949
ocaust	-12950
perial	-12951
rected	-12952
▁2018.	-12953
▁2025.	-12954
▁Advis	-12955
▁Aside	-12956
▁Bache	-12957
▁Cuban	-12958
▁Early	-12959
▁Larry	-12960
▁Urban	-12961
▁Which	-12962
▁atroc	-12963
▁bears	-12964
▁brill	-12965
▁diets	-12966
▁disgu	-12967
▁drift	-12968
▁embar	-12969
▁heter	-12970
▁ingen	-12971
▁plate	-12972
▁pregn	-12973
▁sober	-12974
▁stone	-12975
▁stric	-12976
▁stuff	-12977
▁verge	-12978
▁visas	-12979
ardship	-12980
compass	-12981
ervical	-12982
hemical	-12983
iscally	-12984
manship	-12985
racking	-12986
ropower	-12987
ustomed	-12988
▁Carter	-12989
▁Cities	-12990
▁Napole	-12991
▁OXFORD	-12992
▁Silvio	-12993
▁Single	-12994
▁agrees	-12995
▁alumin	-12996
▁clever	-12997
▁commem	-12998
▁covers	-12999
▁deduct	-13000
▁freeze	-13001
▁glance	-13002
▁hosted	-13003
▁indoor	-13004
▁noting	-13005
▁nurses	-13006
▁prosec	-13007
▁pulled	-13008
▁repaid	-13009
▁replic	-13010
▁routes	-13011
▁screen	-13012
▁sevent	-13013
▁stockp	-13014
▁strife	-13015
▁strive	-13016
▁testim	-13017
▁traits	-13018
ermanent	-13019
standard	-13020
▁Albania	-13021
▁Keqiang	-13022
▁adapted	-13023
▁amelior	-13024
▁analyze	-13025
▁apparat	-13026
▁coexist	-13027
▁costing	-13028
▁devised	-13029
▁endemic	-13030
▁hopeful	-13031
▁leftist	-13032
▁leisure	-13033
▁outlays	-13034
▁profile	-13035
▁readers	-13036
▁retired	-13037
▁shocked	-13038
▁shouldn	-13039
▁subsidy	-13040
▁supreme	-13041
▁turnout	-13042
▁vessels	-13043
▁wounded	-13044
achusetts	-13045
ropolitan	-13046
sponsored	-13047
strategic	-13048
ugoslavia	-13049
▁Americas	-13050
▁Bachelet	-13051
▁Dialogue	-13052
▁Mohammed	-13053
▁Nowadays	-13054
▁Province	-13055
▁coercion	-13056
▁crossing	-13057
▁develops	-13058
▁dividing	-13059
▁downgrad	-13060
▁extremes	-13061
▁fortunes	-13062
▁highways	-13063
▁massacre	-13064
▁militias	-13065
▁outlined	-13066
▁peculiar	-13067
▁reminded	-13068
▁ruthless	-13069
▁sometime	-13070
▁tortured	-13071
▁Communism	-13072
▁Executive	-13073
▁Frankfurt	-13074
▁Fukushima	-13075
▁Hollywood	-13076
▁Hurricane	-13077
▁SINGAPORE	-13078
▁Taiwanese	-13079
▁alleviate	-13080
▁ambiguous	-13081
▁audiences	-13082
▁avoidance	-13083
▁bloodshed	-13084
▁chemicals	-13085
▁compelled	-13086
▁convicted	-13087
▁crucially	-13088
▁detriment	-13089
▁disparate	-13090
▁importing	-13091
▁obsession	-13092
▁polluting	-13093
▁prevalent	-13094
▁privilege	-13095
▁relatives	-13096
▁spillover	-13097
▁spotlight	-13098
▁unchecked	-13099
▁Capitalism	-13100
▁Christians	-13101
▁Management	-13102
▁Technology	-13103
▁Venezuelan	-13104
▁appearance	-13105
▁compatible	-13106
▁completion	-13107
▁critically	-13108
▁designated	-13109
▁dissidents	-13110
▁documented	-13111
▁extraction	-13112
▁harassment	-13113
▁hydropower	-13114
▁insurgents	-13115
▁liberation	-13116
▁minimizing	-13117
▁moderation	-13118
▁objections	-13119
▁offsetting	-13120
▁oppression	-13121
▁positively	-13122
▁prosecutor	-13123
▁squandered	-13124
▁xenophobia	-13125
▁Tocqueville	-13126
▁communicate	-13127
▁constructed	-13128
▁contemplate	-13129
▁countryside	-13130
▁discoveries	-13131
▁drastically	-13132
▁expressions	-13133
▁intractable	-13134
▁observation	-13135
▁overarching	-13136
▁recruitment	-13137
▁refinancing	-13138
▁remittances	-13139
▁specialized	-13140
▁supervisory	-13141
▁underscored	-13142
▁undervalued	-13143
▁unregulated	-13144
▁voluntarily	-13145
Proliferation	-13146
▁accumulating	-13147
▁constraining	-13148
▁deficiencies	-13149
▁imprisonment	-13150
▁incompetence	-13151
▁technocratic	-13152
▁Massachusetts	-13153
▁assertiveness	-13154
▁practitioners	-13155
▁precautionary	-13156
▁rapprochement	-13157
▁investigations	-13158
▁nanotechnology	-13159
21	-13160
AL	-13161
CK	-13162
Ke	-13163
400	-13164
HOL	-13165
ado	-13166
bro	-13167
dam	-13168
zbe	-13169
▁32	-13170
▁37	-13171
▁Ib	-13172
▁SP	-13173
▁Sk	-13174
-198	-13175
What	-13176
aund	-13177
chen	-13178
deep	-13179
epid	-13180
fits	-13181
loom	-13182
opia	-13183
poor	-13184
rome	-13185
roso	-13186
tery	-13187
▁10.	-13188
▁18%	-13189
▁36%	-13190
▁38%	-13191
▁Adv	-13192
▁ESG	-13193
▁Ens	-13194
▁Fre	-13195
▁Kem	-13196
▁Ott	-13197
▁Rob	-13198
▁SWF	-13199
▁Yuk	-13200
▁biz	-13201
▁bog	-13202
▁cam	-13203
▁coh	-13204
▁gig	-13205
▁lad	-13206
▁lax	-13207
▁lit	-13208
▁nit	-13209
aires	-13210
alism	-13211
apego	-13212
appro	-13213
cycle	-13214
erion	-13215
helps	-13216
heric	-13217
iller	-13218
pture	-13219
▁$800	-13220
▁1.5°	-13221
▁1999	-13222
▁20%,	-13223
▁Arun	-13224
▁Clos	-13225
▁Dani	-13226
▁Deep	-13227
▁FIFA	-13228
▁Farm	-13229
▁Hard	-13230
▁Jere	-13231
▁José	-13232
▁Lith	-13233
▁Maur	-13234
▁OPEC	-13235
▁Plen	-13236
▁Rico	-13237
▁Uzbe	-13238
▁bind	-13239
▁bird	-13240
▁clim	-13241
▁dent	-13242
▁eman	-13243
▁evac	-13244
▁fits	-13245
▁glut	-13246
▁inad	-13247
▁mamm	-13248
▁plut	-13249
▁sche	-13250
▁spin	-13251
▁stro	-13252
author	-13253
giving	-13254
inston	-13255
strong	-13256
▁Daily	-13257
▁Jiang	-13258
▁Joint	-13259
▁Kurds	-13260
▁Osama	-13261
▁Pinoc	-13262
▁Recon	-13263
▁abide	-13264
▁ballo	-13265
▁burge	-13266
▁cardi	-13267
▁drama	-13268
▁egreg	-13269
▁hosts	-13270
▁kills	-13271
▁marsh	-13272
▁memor	-13273
▁naive	-13274
▁redef	-13275
▁repud	-13276
▁slide	-13277
▁surre	-13278
▁troop	-13279
▁wheat	-13280
angered	-13281
athetic	-13282
emption	-13283
foreign	-13284
imposed	-13285
istence	-13286
million	-13287
oglobin	-13288
respect	-13289
seeking	-13290
termism	-13291
▁Arctic	-13292
▁Import	-13293
▁Mekong	-13294
▁Milton	-13295
▁Phelps	-13296
▁Prices	-13297
▁Rising	-13298
▁Saudis	-13299
▁Thirty	-13300
▁autumn	-13301
▁betray	-13302
▁caliph	-13303
▁cartel	-13304
▁citing	-13305
▁clause	-13306
▁coined	-13307
▁landsl	-13308
▁licens	-13309
▁muster	-13310
▁nostal	-13311
▁peaked	-13312
▁posing	-13313
▁render	-13314
▁surviv	-13315
▁worthy	-13316
iscrimin	-13317
▁Barroso	-13318
▁Century	-13319
▁Company	-13320
▁Efforts	-13321
▁Lithuan	-13322
▁Network	-13323
▁Outlook	-13324
▁Roughly	-13325
▁Turkmen	-13326
▁Winston	-13327
▁approve	-13328
▁beneath	-13329
▁bizarre	-13330
▁bonuses	-13331
▁chaotic	-13332
▁decides	-13333
▁embargo	-13334
▁emotion	-13335
▁employs	-13336
▁escaped	-13337
▁fantasy	-13338
▁hackers	-13339
▁illiter	-13340
▁invaded	-13341
▁married	-13342
▁presupp	-13343
▁quietly	-13344
▁reprodu	-13345
▁retains	-13346
▁scapego	-13347
▁virtues	-13348
▁wonders	-13349
exporting	-13350
▁Buddhist	-13351
▁Criminal	-13352
▁Standard	-13353
▁Tanzania	-13354
▁aluminum	-13355
▁cervical	-13356
▁charisma	-13357
▁cleaning	-13358
▁defended	-13359
▁deprived	-13360
▁envision	-13361
▁exposing	-13362
▁fiscally	-13363
▁incoming	-13364
▁insurers	-13365
▁mandates	-13366
▁pandemic	-13367
▁predicts	-13368
▁recourse	-13369
▁remedies	-13370
▁resemble	-13371
▁subprime	-13372
▁surveyed	-13373
▁totaling	-13374
▁ventures	-13375
▁vigilant	-13376
revolution	-13377
▁Certainly	-13378
▁Musharraf	-13379
▁apparatus	-13380
▁combining	-13381
▁disparity	-13382
▁dissatisf	-13383
▁employing	-13384
▁enshrined	-13385
▁lucrative	-13386
▁parallels	-13387
▁paramount	-13388
▁physician	-13389
▁postponed	-13390
▁recycling	-13391
▁rejecting	-13392
▁repayment	-13393
▁reporters	-13394
▁substance	-13395
▁Inequality	-13396
▁Solidarity	-13397
▁accustomed	-13398
▁annexation	-13399
▁asymmetric	-13400
▁authorized	-13401
▁burgeoning	-13402
▁celebrated	-13403
▁commentary	-13404
▁contingent	-13405
▁enrichment	-13406
▁invitation	-13407
▁majorities	-13408
▁monopolies	-13409
▁neoliberal	-13410
▁personally	-13411
▁powerhouse	-13412
▁prudential	-13413
▁recovering	-13414
▁sacrifices	-13415
▁stabilized	-13416
▁structured	-13417
▁Environment	-13418
▁appreciated	-13419
▁campaigners	-13420
▁coincidence	-13421
▁commissions	-13422
▁contributor	-13423
▁disciplines	-13424
▁intervening	-13425
▁investigate	-13426
▁mathematics	-13427
▁pessimistic	-13428
▁proceedings	-13429
▁retaliation	-13430
▁transferred	-13431
▁compromising	-13432
▁consolidated	-13433
▁cosmopolitan	-13434
▁headquarters	-13435
▁incompatible	-13436
▁modification	-13437
▁transferring	-13438
▁complications	-13439
▁nationalistic	-13440
At	-13441
EF	-13442
FP	-13443
JP	-13444
ML	-13445
OE	-13446
és	-13447
dog	-13448
ows	-13449
pse	-13450
rac	-13451
rip	-13452
rob	-13453
rov	-13454
umi	-13455
▁29	-13456
▁ug	-13457
EOUL	-13458
HOLM	-13459
anch	-13460
apor	-13461
bond	-13462
dule	-13463
fair	-13464
game	-13465
held	-13466
iece	-13467
ilma	-13468
okes	-13469
otyp	-13470
uber	-13471
uese	-13472
▁$30	-13473
▁0.2	-13474
▁1%.	-13475
▁183	-13476
▁42%	-13477
▁EMU	-13478
▁GEN	-13479
▁GNP	-13480
▁Hun	-13481
▁Los	-13482
▁MPs	-13483
▁Tam	-13484
▁haw	-13485
▁mic	-13486
▁sla	-13487
▁woe	-13488
Mobil	-13489
achev	-13490
aders	-13491
angel	-13492
antil	-13493
attle	-13494
books	-13495
eller	-13496
iency	-13497
ighed	-13498
ioxid	-13499
orous	-13500
overe	-13501
polar	-13502
surge	-13503
umber	-13504
▁$200	-13505
▁1940	-13506
▁1995	-13507
▁1996	-13508
▁EFSF	-13509
▁Fern	-13510
▁Gorb	-13511
▁Mikh	-13512
▁Nich	-13513
▁Sich	-13514
▁Step	-13515
▁Turn	-13516
▁Vict	-13517
▁clou	-13518
▁drew	-13519
▁drow	-13520
▁glac	-13521
▁hang	-13522
▁inqu	-13523
▁peas	-13524
▁quit	-13525
▁ruin	-13526
▁snow	-13527
▁song	-13528
▁thro	-13529
▁unre	-13530
▁vend	-13531
CKHOLM	-13532
Keynes	-13533
akable	-13534
arette	-13535
ascent	-13536
buying	-13537
erable	-13538
letion	-13539
losion	-13540
ricket	-13541
undrum	-13542
▁1980,	-13543
▁2004.	-13544
▁Anglo	-13545
▁Based	-13546
▁Cypri	-13547
▁Dilma	-13548
▁Leave	-13549
▁Mayor	-13550
▁Poles	-13551
▁SEOUL	-13552
▁aided	-13553
▁alert	-13554
▁amend	-13555
▁blocs	-13556
▁copyr	-13557
▁debac	-13558
▁esche	-13559
▁freed	-13560
▁horse	-13561
▁mayor	-13562
▁paved	-13563
▁prote	-13564
▁scant	-13565
▁spots	-13566
▁stall	-13567
▁sugar	-13568
▁suits	-13569
▁tenth	-13570
▁tepid	-13571
▁unsur	-13572
▁usage	-13573
banking	-13574
billion	-13575
carbons	-13576
keepers	-13577
neutral	-13578
politik	-13579
western	-13580
▁20,000	-13581
▁Bernie	-13582
▁Cancer	-13583
▁Ending	-13584
▁Establ	-13585
▁Gender	-13586
▁Recogn	-13587
▁Rogoff	-13588
▁Voters	-13589
▁broker	-13590
▁buffer	-13591
▁coffee	-13592
▁comply	-13593
▁derive	-13594
▁enroll	-13595
▁enters	-13596
▁equals	-13597
▁finger	-13598
▁golden	-13599
▁havens	-13600
▁hugely	-13601
▁hungry	-13602
▁mantra	-13603
▁mature	-13604
▁praise	-13605
▁redund	-13606
▁rigged	-13607
▁salary	-13608
▁sister	-13609
▁spared	-13610
▁tactic	-13611
▁uneven	-13612
▁unlock	-13613
▁varied	-13614
Pakistan	-13615
earnings	-13616
esterday	-13617
renching	-13618
reported	-13619
▁Burmese	-13620
▁Chilean	-13621
▁Eurasia	-13622
▁Kenneth	-13623
▁Lagarde	-13624
▁Medical	-13625
▁Mikhail	-13626
▁Sichuan	-13627
▁Tencent	-13628
▁belongs	-13629
▁bloated	-13630
▁bombing	-13631
▁cartels	-13632
▁clauses	-13633
▁deceler	-13634
▁defines	-13635
▁dumping	-13636
▁fearing	-13637
▁inherit	-13638
▁insider	-13639
▁longest	-13640
▁nurture	-13641
▁obscure	-13642
▁polling	-13643
▁proflig	-13644
▁provoke	-13645
▁shelter	-13646
▁slavery	-13647
▁smokers	-13648
▁stature	-13649
▁symbols	-13650
▁writers	-13651
alitarian	-13652
etization	-13653
president	-13654
uckerberg	-13655
▁Abdullah	-13656
▁Everyone	-13657
▁Pinochet	-13658
▁Refugees	-13659
▁Slovakia	-13660
▁analyses	-13661
▁assessed	-13662
▁counting	-13663
▁depleted	-13664
▁district	-13665
▁eligible	-13666
▁escaping	-13667
▁hardline	-13668
▁instance	-13669
▁observer	-13670
▁operated	-13671
▁polluted	-13672
▁proceeds	-13673
▁prohibit	-13674
▁reactors	-13675
▁reaffirm	-13676
▁resolute	-13677
▁retained	-13678
▁rewarded	-13679
▁schedule	-13680
▁sciences	-13681
▁senators	-13682
▁stresses	-13683
▁supplier	-13684
▁traveled	-13685
▁uniquely	-13686
▁Arunachal	-13687
▁Gorbachev	-13688
▁Governing	-13689
▁Holocaust	-13690
▁Insurance	-13691
▁Migration	-13692
▁STOCKHOLM	-13693
▁Terrorism	-13694
▁Universal	-13695
▁abilities	-13696
▁abolished	-13697
▁adjusting	-13698
▁amendment	-13699
▁anonymous	-13700
▁attending	-13701
▁basically	-13702
▁colleague	-13703
▁criterion	-13704
▁diffusion	-13705
▁disrupted	-13706
▁egregious	-13707
▁exploring	-13708
▁fortunate	-13709
▁hypocrisy	-13710
▁installed	-13711
▁listening	-13712
▁massively	-13713
▁mentality	-13714
▁mobilized	-13715
▁paralyzed	-13716
▁servicing	-13717
▁subsidize	-13718
▁survivors	-13719
▁testimony	-13720
▁turbulent	-13721
▁underpins	-13722
▁underwrit	-13723
▁unrelated	-13724
▁uprisings	-13725
▁ExxonMobil	-13726
▁Portuguese	-13727
▁Regulatory	-13728
▁Structural	-13729
▁analytical	-13730
▁convention	-13731
▁deductions	-13732
▁distortion	-13733
▁domination	-13734
▁endangered	-13735
▁geographic	-13736
▁grassroots	-13737
▁hardliners	-13738
▁helicopter	-13739
▁influences	-13740
▁multipolar	-13741
▁pragmatism	-13742
▁prevalence	-13743
▁preventive	-13744
▁references	-13745
▁reiterated	-13746
▁resurgence	-13747
▁tendencies	-13748
▁undeniable	-13749
▁unraveling	-13750
surprisingly	-13751
▁advancement	-13752
▁contracting	-13753
▁corporation	-13754
▁deteriorate	-13755
▁facilitates	-13756
▁incorporate	-13757
▁influencing	-13758
▁orientation	-13759
▁preparation	-13760
▁programming	-13761
▁questioning	-13762
▁stewardship	-13763
▁attributable	-13764
▁continuation	-13765
▁discouraging	-13766
▁generational	-13767
▁hydrocarbons	-13768
▁peacekeeping	-13769
▁prerequisite	-13770
▁relentlessly	-13771
▁demonstration	-13772
▁harmonization	-13773
▁mutualization	-13774
▁philosophical	-13775
▁reunification	-13776
▁supranational	-13777
▁conditionality	-13778
▁intermediaries	-13779
▁predictability	-13780
10	-13781
AA	-13782
GU	-13783
LE	-13784
di	-13785
iy	-13786
uy	-13787
vy	-13788
▁­	-13789
-90	-13790
EVA	-13791
HEN	-13792
can	-13793
chi	-13794
een	-13795
ela	-13796
far	-13797
gue	-13798
iko	-13799
mir	-13800
ofi	-13801
oln	-13802
san	-13803
tal	-13804
zhe	-13805
ïve	-13806
▁33	-13807
▁6,	-13808
▁BP	-13809
▁IS	-13810
▁Il	-13811
This	-13812
acks	-13813
fake	-13814
iden	-13815
inda	-13816
ldom	-13817
main	-13818
meal	-13819
paid	-13820
take	-13821
ttes	-13822
turn	-13823
viol	-13824
warf	-13825
xual	-13826
▁44%	-13827
▁DRC	-13828
▁Ger	-13829
▁Gul	-13830
▁LDP	-13831
▁Lou	-13832
▁MGI	-13833
▁Rad	-13834
▁Tea	-13835
▁ans	-13836
▁cro	-13837
▁fel	-13838
▁jar	-13839
▁til	-13840
,000,	-13841
Great	-13842
ammar	-13843
const	-13844
eters	-13845
icate	-13846
idity	-13847
illes	-13848
index	-13849
mount	-13850
nesty	-13851
ocaly	-13852
ogene	-13853
prise	-13854
rooms	-13855
stage	-13856
ustry	-13857
▁0.7%	-13858
▁Airb	-13859
▁Amid	-13860
▁Aung	-13861
▁Boko	-13862
▁Club	-13863
▁Come	-13864
▁Else	-13865
▁Hans	-13866
▁Iron	-13867
▁Karl	-13868
▁Left	-13869
▁Mike	-13870
▁Oslo	-13871
▁PISA	-13872
▁Sett	-13873
▁Tric	-13874
▁USSR	-13875
▁Vacc	-13876
▁Were	-13877
▁acid	-13878
▁fans	-13879
▁furn	-13880
▁gear	-13881
▁ills	-13882
▁pour	-13883
▁proc	-13884
▁sink	-13885
▁synd	-13886
▁ugly	-13887
▁unsu	-13888
▁unve	-13889
▁vain	-13890
▁wasn	-13891
atched	-13892
conian	-13893
franch	-13894
ifting	-13895
ixture	-13896
nation	-13897
ocused	-13898
paying	-13899
ragile	-13900
riding	-13901
roatia	-13902
scious	-13903
▁1973,	-13904
▁2000’	-13905
▁Abdel	-13906
▁Alzhe	-13907
▁Filip	-13908
▁Haram	-13909
▁Hayek	-13910
▁Laden	-13911
▁Local	-13912
▁Owing	-13913
▁Round	-13914
▁Turks	-13915
▁Yukos	-13916
▁arena	-13917
▁clamp	-13918
▁downs	-13919
▁dwarf	-13920
▁envis	-13921
▁erupt	-13922
▁expon	-13923
▁highs	-13924
▁inner	-13925
▁libel	-13926
▁lingu	-13927
▁loses	-13928
▁lucky	-13929
▁marry	-13930
▁naïve	-13931
▁neuro	-13932
▁petty	-13933
▁recei	-13934
▁riots	-13935
▁scrat	-13936
▁shoes	-13937
▁siege	-13938
▁sorry	-13939
▁spoil	-13940
▁twist	-13941
▁vocal	-13942
arettes	-13943
educing	-13944
ensible	-13945
feating	-13946
healthy	-13947
icament	-13948
itively	-13949
lasting	-13950
lective	-13951
ringing	-13952
secular	-13953
▁Annual	-13954
▁Castro	-13955
▁Direct	-13956
▁GENEVA	-13957
▁Jeremy	-13958
▁Karzai	-13959
▁Maduro	-13960
▁Mozamb	-13961
▁Sovere	-13962
▁anchor	-13963
▁ascend	-13964
▁babies	-13965
▁crowds	-13966
▁crunch	-13967
▁defect	-13968
▁delays	-13969
▁domain	-13970
▁elabor	-13971
▁embold	-13972
▁endang	-13973
▁hiding	-13974
▁ironic	-13975
▁lights	-13976
▁mirror	-13977
▁misuse	-13978
▁nearby	-13979
▁occupy	-13980
▁oxygen	-13981
▁passes	-13982
▁patron	-13983
▁priced	-13984
▁puzzle	-13985
▁racist	-13986
▁skewed	-13987
▁staged	-13988
▁stifle	-13989
▁writes	-13990
Atlantic	-13991
designed	-13992
ensurate	-13993
pectedly	-13994
tradable	-13995
whatever	-13996
▁Baghdad	-13997
▁Catalan	-13998
▁Judging	-13999
▁Kashmir	-14000
▁Muammar	-14001
▁Pandora	-14002
▁Volcker	-14003
▁accepts	-14004
▁blaming	-14005
▁conform	-14006
▁conglom	-14007
▁divides	-14008
▁dragged	-14009
▁emitted	-14010
▁ensured	-14011
▁faction	-14012
▁fosters	-14013
▁hosting	-14014
▁impeded	-14015
▁instant	-14016
▁orchest	-14017
▁passive	-14018
▁patents	-14019
▁proving	-14020
▁pursues	-14021
▁redress	-14022
▁rejects	-14023
▁risking	-14024
▁seeming	-14025
▁selfish	-14026
▁solvent	-14027
▁station	-14028
▁surgery	-14029
▁teacher	-14030
▁wrought	-14031
President	-14032
icultural	-14033
itionally	-14034
▁Creating	-14035
▁Ensuring	-14036
▁Kirchner	-14037
▁Managing	-14038
▁Nicholas	-14039
▁airlines	-14040
▁answered	-14041
▁asserted	-14042
▁bombings	-14043
▁canceled	-14044
▁congress	-14045
▁delaying	-14046
▁delicate	-14047
▁destined	-14048
▁detained	-14049
▁deterred	-14050
▁diamonds	-14051
▁duration	-14052
▁elevated	-14053
▁finished	-14054
▁goodwill	-14055
▁hardship	-14056
▁headscar	-14057
▁hesitate	-14058
▁inadvert	-14059
▁mandated	-14060
▁meddling	-14061
▁modified	-14062
▁obsessed	-14063
▁peasants	-14064
▁presumed	-14065
▁proteins	-14066
▁provoked	-14067
▁radicals	-14068
▁retirees	-14069
▁surgical	-14070
▁takeover	-14071
▁tradeoff	-14072
▁vitality	-14073
ignificant	-14074
ortsighted	-14075
▁Abenomics	-14076
▁Alexander	-14077
▁Alzheimer	-14078
▁Eurogroup	-14079
▁abundance	-14080
▁apartheid	-14081
▁beautiful	-14082
▁believers	-14083
▁bolstered	-14084
▁calculate	-14085
▁civilized	-14086
▁consuming	-14087
▁defenders	-14088
▁designing	-14089
▁dismantle	-14090
▁dominates	-14091
▁downgrade	-14092
▁excluding	-14093
▁hegemonic	-14094
▁homegrown	-14095
▁importers	-14096
▁intensive	-14097
▁invention	-14098
▁invisible	-14099
▁measuring	-14100
▁moderates	-14101
▁northeast	-14102
▁occupying	-14103
▁pandemics	-14104
▁pathogens	-14105
▁planetary	-14106
▁populated	-14107
▁preceding	-14108
▁prompting	-14109
▁readiness	-14110
▁repeating	-14111
▁requested	-14112
▁searching	-14113
▁stagnated	-14114
▁subjected	-14115
▁surrogacy	-14116
▁unusually	-14117
▁varieties	-14118
▁Employment	-14119
▁Yugoslavia	-14120
▁architects	-14121
▁atrocities	-14122
▁completing	-14123
▁downstream	-14124
▁federation	-14125
▁hesitation	-14126
▁illustrate	-14127
▁incumbents	-14128
▁invaluable	-14129
▁ironically	-14130
▁overvalued	-14131
▁pessimists	-14132
▁plummeting	-14133
▁sovereigns	-14134
▁successors	-14135
▁vigorously	-14136
roprudential	-14137
▁Independent	-14138
▁Opportunity	-14139
▁articulated	-14140
▁astonishing	-14141
▁automobiles	-14142
▁compensated	-14143
▁convenience	-14144
▁determinant	-14145
▁discouraged	-14146
▁egalitarian	-14147
▁exploration	-14148
▁interpreted	-14149
▁predicament	-14150
▁preoccupied	-14151
▁preventable	-14152
▁sensitivity	-14153
▁subsistence	-14154
▁Agricultural	-14155
▁Commonwealth	-14156
▁associations	-14157
▁constituents	-14158
▁demographics	-14159
▁ratification	-14160
▁satisfaction	-14161
▁Revolutionary	-14162
▁assassination	-14163
▁entertainment	-14164
▁mismanagement	-14165
▁Unsurprisingly	-14166
BD	-14167
CL	-14168
En	-14169
MA	-14170
NB	-14171
PJ	-14172
Zs	-14173
ju	-14174
RAN	-14175
abs	-14176
cio	-14177
del	-14178
eor	-14179
hea	-14180
ión	-14181
▁3,	-14182
▁8,	-14183
▁Ak	-14184
▁LA	-14185
....	-14186
Asia	-14187
acea	-14188
acon	-14189
anol	-14190
ardo	-14191
card	-14192
exus	-14193
from	-14194
hind	-14195
hour	-14196
iday	-14197
igin	-14198
ihil	-14199
iqué	-14200
mand	-14201
ocke	-14202
open	-14203
race	-14204
rape	-14205
razy	-14206
rows	-14207
sent	-14208
teen	-14209
text	-14210
▁1.1	-14211
▁189	-14212
▁22%	-14213
▁Bad	-14214
▁Bes	-14215
▁CBO	-14216
▁CDS	-14217
▁Gal	-14218
▁Gil	-14219
▁Heb	-14220
▁Kat	-14221
▁Kyr	-14222
▁Opt	-14223
▁Pay	-14224
▁Rap	-14225
▁Slo	-14226
▁Taj	-14227
▁Tro	-14228
▁bom	-14229
▁bru	-14230
▁gal	-14231
▁hoc	-14232
▁shy	-14233
▁tip	-14234
▁ton	-14235
,000.	-14236
Asian	-14237
andMe	-14238
arded	-14239
aspor	-14240
asser	-14241
chant	-14242
inges	-14243
isons	-14244
izumi	-14245
matic	-14246
ocene	-14247
oment	-14248
ouble	-14249
pling	-14250
rahim	-14251
still	-14252
swing	-14253
umbia	-14254
utive	-14255
▁1967	-14256
▁2019	-14257
▁Beth	-14258
▁Comb	-14259
▁Cond	-14260
▁Deut	-14261
▁Dist	-14262
▁ESDP	-14263
▁Gavi	-14264
▁Have	-14265
▁Hens	-14266
▁Jobs	-14267
▁Laos	-14268
▁Mong	-14269
▁SWFs	-14270
▁Self	-14271
▁asks	-14272
▁awak	-14273
▁bans	-14274
▁bump	-14275
▁buoy	-14276
▁defl	-14277
▁dorm	-14278
▁ende	-14279
▁ferv	-14280
▁hair	-14281
▁hall	-14282
▁helm	-14283
▁lows	-14284
▁mode	-14285
▁park	-14286
▁pond	-14287
▁rang	-14288
▁sadd	-14289
▁sand	-14290
▁tert	-14291
▁tyco	-14292
▁zeal	-14293
asured	-14294
ceived	-14295
collar	-14296
herini	-14297
ipated	-14298
ipient	-14299
placed	-14300
riched	-14301
ularly	-14302
untary	-14303
urable	-14304
▁Avoid	-14305
▁Basic	-14306
▁Biden	-14307
▁Cross	-14308
▁Gamal	-14309
▁Hague	-14310
▁Naval	-14311
▁Nexus	-14312
▁Renzi	-14313
▁absor	-14314
▁antit	-14315
▁arose	-14316
▁cling	-14317
▁clust	-14318
▁codes	-14319
▁draws	-14320
▁dwell	-14321
▁faire	-14322
▁filed	-14323
▁genet	-14324
▁incub	-14325
▁laund	-14326
▁lifes	-14327
▁looph	-14328
▁magaz	-14329
▁meets	-14330
▁monks	-14331
▁overc	-14332
▁recru	-14333
▁rents	-14334
▁reval	-14335
▁scare	-14336
▁shaky	-14337
▁taxed	-14338
▁thank	-14339
▁traum	-14340
▁versa	-14341
▁vowed	-14342
▁warns	-14343
atollah	-14344
enforce	-14345
increas	-14346
licting	-14347
ocratic	-14348
ography	-14349
rafting	-14350
ranking	-14351
ristina	-14352
venient	-14353
▁Andrew	-14354
▁Bashir	-14355
▁Carbon	-14356
▁Contin	-14357
▁Export	-14358
▁Friday	-14359
▁Greeks	-14360
▁Little	-14361
▁Morgan	-14362
▁Taking	-14363
▁Terror	-14364
▁Threat	-14365
▁addict	-14366
▁affili	-14367
▁aiming	-14368
▁assign	-14369
▁boasts	-14370
▁boosts	-14371
▁builds	-14372
▁couldn	-14373
▁device	-14374
▁digest	-14375
▁dishon	-14376
▁divest	-14377
▁eschew	-14378
▁extrav	-14379
▁exuber	-14380
▁halved	-14381
▁heroic	-14382
▁impair	-14383
▁lowers	-14384
▁misery	-14385
▁myself	-14386
▁prover	-14387
[...]
